#version: 0.2
Ġ Ġ
ĠĠ ĠĠ
/ /
ĠĠ Ġ
i n
e r
// /
Ġ t
Ġ a
o n
r e
s t
ĠĠĠĠ ĠĠĠ
\ "
a t
Ġ ///
l e
h e
s e
o r
Ġ =
i t
Ġ f
Ġ c
a l
; \
Ġt he
i s
Ġ `
: :
e n
u n
e d
Ġ {
Ġ s
u t
Ġ b
ĠĠĠĠ ĠĠĠĠĠĠĠ
a n
Ġ \"
c e
in g
} \
Ġ o
l f
Ġ p
i on
Ġ m
. \
a r
( )
Ġ{ \
] \
o m
c t
# [
Ġ w
- -
d e
l o
s s
Ġ in
Ġ is
se lf
t r
Ġ }\
) ;\
f e
Ġ re
, \
Ġ n
e s
m p
a b
Ġt o
i c
Ġ le
Ġ S
Ġ u
Ġ/// \
Ġ e
u r
Ġ //
Ġt h
Ġ (
ab le
0 0
Ġ i
Ġ #[
Ġo f
Ġ T
Ġa n
) ]\
ĠĠĠĠ ĠĠĠĠ
e t
in t
u re
u l
Ġ -
c k
! (
u e
l i
a s
Ġ v
Ġ [
en t
a p
i z
` `
Ġ st
// //
Ġle t
er t
u st
o t
Ġc on
\" ,
Ġf or
r o
at ure
i l
Ġ d
i g
m ut
Ġ A
\" )]\
a d
fe ature
Ġ self
o l
Ġb e
h er
Ġ 1
st able
Ġf n
Ġ *
Ġ 0
p e
ss ert
a y
-- --
t er
Ġ- >
v e
u b
l y
Ġ I
at ion
r om
Ġan d
c h
c on
t e
) ,
Ġ it
ur n
Ġa ssert
m ent
e q
iz e
Ġ &
at e
( &
Ġ` ``
ĠĠĠĠ ĠĠĠĠĠĠĠĠĠĠĠ
# #
ct ion
g e
) \
= =
Ġ un
Ġ[ `
a fe
` ]
Ġ C
on e
Ġ R
Ġ E
Ġ``` \
n e
it h
ul t
Ġ F
Ġth at
Ġi f
i f
/// \
mp l
l in
Ġa s
// !
Ġa l
Ġv al
in ce
t urn
r ust
Ġ #
mp le
d er
o de
v er
Ġ h
Ġs ince
at or
r a
m e
//// ////
Ġu se
Ġ N
o un
st r
\ \
. .
lo c
s ize
s afe
Ġb y
Ġre turn
i d
lin e
lo w
3 2
Ġe x
con st
u se
Ġ g
o re
Ġ O
e lf
o p
li ce
u m
a ct
n t
00 00
a ck
Ġn ot
Ġth is
Ġ or
o d
al l
ar t
un ction
o int
Ġn e
Ġ de
Ġw ith
ig n
Ġst r
x t
in line
Ġ on
a k
Ġ P
d d
y pe
Ġ }
e c
Ġf unction
om e
he ck
Ġ 2
le n
h is
Ġp ub
p er
p t
en d
it er
f er
e m
Ġ r
Ġval ue
Ġ B
Ġm ut
---- ----
i mpl
f rom
i ve
an t
' ,
e l
Ġc an
ĠT he
Ġcon st
Ġ` `
() ;\
a in
Ġun safe
o w
Ġa re
t o
t es
() ,
a mple
g et
a se
u s
r r
: \
i m
) .
ne w
' \\
6 4
un stable
Ġ +
i al
i r
p l
it y
her e
* *
Ġis s
o ut
o c
1 1
p tr
se t
tr act
a c
== ==
rust c
) ,\
om p
Ġiss ue
q u
Ġf rom
re ss
Ġt ype
ĠE x
Ġp oint
Ġ <
b y
## #
} ',
ĠT his
il l
< '
at a
Ġ y
Ġ _
c l
or t
h t
b u
v al
an ge
u ct
Ġ D
Ġ V
n impl
T Y
an d
m t
Ġ( '\\
Ġ U
er s
Ġ= >
ĠS elf
t her
i v
` .\
c heck
r ap
ĠS ome
pt ion
1 2
ad d
er o
a ge
5 6
e f
iz ed
Ġ l
) );\
o x
1 6
Ġ $
() .
t y
Ġ M
f f
in it
Ġw h
Ġ 4
k e
a st
Ġs lice
ĠEx ample
f or
en ce
Ġc all
1 0
ĠĠĠĠĠĠĠĠ ĠĠĠĠĠĠĠĠĠĠĠ
oun d
ter n
Ġa dd
ro p
Ġ 3
le ment
Ġt r
Ġ |
r c
I n
u p
check ed
ĠExample s
//////// ////////
Ġ se
Ġu size
Ġre s
an s
Ġw ill
Ġit er
Ġs o
Ġstr ing
lo ck
er r
E R
Ġw e
an ic
t h
oun t
i re
S t
n er
de x
Ġa t
e x
Ġd o
o ol
Ġreturn s
i p
Ġc h
a me
S elf
o u
Ġe lement
Ġ W
F E
at ed
s lice
m at
Ġ x
et h
d oc
fer ence
Ġ 5
mple ment
Ġo ther
a ce
or y
A FE
AFE TY
in s
Ġst d
Ġi mpl
i le
a re
I ter
Ġc omp
0000 0000
if y
Ġm em
o ul
Ġo ver
oul d
() );\
` ,
Ġ li
2 56
n p
Ġ '
N T
eth od
p ing
c c
as h
Ġne w
p re
Ġf mt
ne xt
n ot
z ero
p ut
ce ss
y n
!( \"
a x
r it
bu g
Ġle n
it s
r ate
Ġcon tract
ig ht
ol d
ĠO ption
Ġp re
ar i
Ġs h
Ġu s
a ult
al ly
re e
Ġm ust
Ġal loc
Ġi mplement
pe c
Ġ L
U n
in d
Ġc ode
ic h
() \
Ġp ro
an ce
ĠS AFETY
Ġo per
ar y
by tes
a il
Ġres ult
al loc
Ġ en
at ch
v i
Ġpoint er
tr y
o s
Ġ= =
he n
w rap
it ion
Ġon ly
ĠĠĠĠĠĠĠĠ ĠĠĠĠĠĠĠĠ
un checked
i b
! [
om ic
a ve
err or
np ub
Ġwh ich
m ap
f low
i me
> >
M ut
m in
es ult
g n
Ġe l
Ġb u
ro w
Ġu int
) )
or age
:: <
e e
Ġw here
ĠI n
Ġby tes
tern al
A dd
Ġmem ory
ar d
C on
ĠI f
Ġel se
rr or
L E
Ġy ou
ul l
ak e
-------- --------
Ġh ave
> (
`] :
c i
( \"
h s
an g
int o
Ġre ference
Ġb ool
et urn
ra w
a m
Ġc rate
m ust
ay s
ĠN one
v ert
re s
ar get
12 8
p s
b ack
Ġ} ;\
rit e
g er
b e
c ap
u int
Ġcon t
op y
ay out
Ġe v
==== ====
Ġ 6
re f
o st
tr ins
trins ic
s o
Ġadd ress
ke y
c cess
Ġstr uct
n use
ign ed
ĠR eturn
Ġt ra
Ġ >
I N
Ġoper ation
S tr
or row
lo ad
at ing
Ġm ethod
el l
q ue
e st
l one
Ġs u
str uct
Ġal l
Ġuse d
um b
ci i
f g
u ment
a use
Ġin to
Ġ G
u es
Ġ !
^ ^
ĠReturn s
qu ire
Ġm od
Ġ /
Ġb ut
c ode
Ġan y
b lock
Ġiter ator
1 4
Ġu p
\" ,\
li d
!( $
i st
Ġcon c
' s
> )
I T
c fg
Ġs ize
//! \
pl it
\" ]\
e ad
Iter ator
f in
Ġs ame
Ġd ata
> `
Ġdo es
o o
E rror
] );\
ĠA l
Ġh as
A N
f t
te m
u le
it ial
ch ar
2 0
ĠC on
Ġ 7
Ġelement s
Ġ error
E NT
i de
o ve
Ġa b
g th
Ġc ur
Ġin dex
u size
\" );\
o f
if i
i ce
Ġ end
ir st
der ing
M A
Ġ :
Ġa r
un k
el d
Ġc heck
Ġstring ify
i eld
y p
Ġw hen
umb er
Ġwith out
Ġre m
yn c
1 3
f ault
] ;\
w ays
Ġ H
te xt
I d
e ct
re ad
<' _
Ġconc at
Ġm e
ar k
val ue
8 0
Ġm atch
u al
Ġp r
ut put
Ġp tr
Ġth an
for m
O r
Ġm ap
ER C
lid ity
` \
Ġp anic
Ġ1 0
art ial
a ss
e bug
Ġn on
re nt
ol le
â Ķ
at es
as cii
c o
A L
ac ity
ff set
R C
Ġ @
un safe
> ,\
k en
s h
al se
** **
ig in
i x
:: {
Ġ lo
lo b
' t
a ssert
} ;\
] ,
Ġs afe
mp ty
ĠF or
Ġ& [
Ġ he
d ed
yp es
( |
le d
Ġ one
ox c
ow n
Ġre quire
g ra
Ġus ing
Add r
Ġs pec
li gn
cl u
st art
Ġm ore
add ress
t ime
s ol
Ġbe c
St ack
Ġne ed
) .\
I tem
V M
Ġg u
us h
n on
Ġm ay
ĠV ec
e p
w o
.. /
er e
Ġover flow
V ec
Ġval ues
( \
ation s
str ing
S ized
en er
Ġor igin
cl one
a ch
ĠU n
f mt
Ġa rr
< &
d ata
a g
Ġ{ }\
p r
Ġit s
Ġn o
Ġ k
Ġt ypes
Ġ# ![
O N
Ġn umber
w ith
t his
Ġex p
E I
ĠF n
Ġs ign
nt o
n f
m it
s u
Ġ .
ot e
ay load
Ġp art
un wrap
h a
Ġch ar
me m
Ġcont ain
l ic
T ree
Ġval id
g ument
lob al
: //
C ell
Ġt est
Ġin st
9 0
R E
Ġsh ould
gra de
ĠĠĠĠ Ġ
Ġtr ue
ay be
Ġbu f
Ġorigin al
Ġe qu
r ange
ur ce
//////////////// ////////////////
Ġst ate
Ġex ample
ib le
Ġ K
ĠAl loc
G as
c he
ĠO r
ec ut
w rite
re turn
Ġ zero
in ner
c all
r y
Ġbec ause
A T
i a
t ps
Ġal so
Str ing
p ro
) ;
I TY
tr a
R esult
o ver
Ġv ari
E C
ĠI ter
te st
le ss
s or
w ind
c olle
r s
00000000 00000000
se nt
Ġin te
ur ation
Ġtra it
Ġin itial
Ġtr ans
Ġc ase
MA X
Z ero
p oint
Ġlen gth
ĠW e
b ound
c omp
ar an
n o
Ġ ro
Ġ 8
) )\
aran te
Ġc re
ar am
> \
Ġthe n
Un init
] :
c ase
Ġ set
Ġg et
se d
p ush
on g
tr ol
Ġc ore
w i
at omic
Self T
Ġst art
11 11
s ub
o v
3 8
w n
ark er
w e
> ,
n T
/ \
ĠR esult
Ġf irst
ion s
c om
op s
Ġ 9
Ġgu arante
s ure
ac ro
Ġt wo
pe ct
ĠO k
o ffset
m s
Ġne xt
a f
Ġa cc
p ed
mp ort
Ġb ound
ĠN on
Ġd rop
Ġreturn ed
ve c
trinsic s
R ef
c ur
Ġf alse
Ġr hs
w ap
in dex
ĠĠĠĠĠĠĠĠ ĠĠĠĠĠĠĠĠĠĠĠĠĠĠĠ
`] .\
Ġr ange
3 4
7 7
D ebug
ĠF I
un d
g h
Ġb lock
Ġcur rent
c mp
Ġ J
\" :
l l
aybe Uninit
N one
it ive
ĠS ee
ot her
Ġ j
un c
S et
Ġ& '
Ġa lign
Ġa ss
Ġo ut
E VM
c ount
use d
val id
ction s
ol low
e w
ut ure
s igned
F rom
il d
Ġv ec
âĶ Ģ
ĠAlloc ator
A rc
Ġ )
Ġin ternal
il der
pl ace
O LE
\" \
l ing
Ġpub lic
Ġf ollow
ĠA O
St orage
fin ed
Ġa v
R e
at ive
Ġal low
Ġby te
Ġor der
] )
l d
at ur
9 9
Ġarr ay
S T
() `
Ġw or
con d
ĠC lone
U p
ĠFn Mut
I D
Ġ ?
Ġ: =
Ġc al
Ġal ways
Ġ key
lo at
pre sent
n um
ch unk
Ġcall er
1 5
C h
Ġt arget
Ġa p
7 2
Ġcomp il
R c
i que
by te
Ġc om
o us
r on
Ġw ould
co pe
M ap
re m
ut f
ar ch
m ax
m l
at tern
Ġv ers
Ġ< =
Ġi d
Ġm in
Ġar gument
E x
atur ating
t return
int er
ent s
grade able
ht ml
F or
ĠI t
v ari
Ġp l
Ġr ight
at ic
ha vi
O R
Ġcan not
N on
Ġg ener
Ġde fault
Ġst orage
Ġ> =
Ġm ax
ule s
` .
Ġb ack
cap acity
Ġinst ead
l ash
p ort
havi or
Ġcon s
t x
ant s
h and
ĠE rr
Ġp er
p art
Ġc ount
c r
Ġs ome
Ġre present
00 1
Ġimplement ation
v en
Ġ! =
ĠS o
o ss
() )\
00 0
pl ic
Ġs ub
if ic
ĠN ote
I C
10 10
mat ter
) )]\
s plit
Ġev en
st d
Ġg iv
I ON
ĠS tr
2 9
p v
ef ault
p anic
u ally
Ġc ap
al low
X C
ĠĠĠĠĠĠĠĠ Ġ
^^ ^^
() ,\
m ethod
`] ,
V ER
f ter
Ġin ter
Ġrem ain
Ġth ere
Ġcompil er
{ \
n one
B ox
T o
] .
Ġ ..
Ġinte ger
âĶĢ âĶĢ
ĠC O
G N
ĠP artial
l ayout
Ġ* /\
Ġfunction s
bu f
) ?
5 5
N ull
ar r
i es
con tract
X L
t arget
Ġ \\
Up gradeable
A oxc
B u
w ard
ĠI D
d rop
ĠA rc
Ġli ke
Ġw as
Ġof f
ak er
< [
O VER
ĠAO XC
f old
tr ans
Ġg as
Ġvari able
ĠIter ator
T U
c ore
le ft
E q
j ect
in ary
Ġ` &
ron t
ĠB ox
Ġmod ify
Ġb et
it em
Ġvers ion
ENT ITY
7 9
Ġn il
p os
Ġl ast
AT ION
t en
Ġp oss
e xt
Ġb it
> ::
\" ;\
clu ded
o se
ĠR c
** \
wi se
b r
er ef
ĠC ore
Ġso lidity
2 4
7 5
ĠĠĠĠĠĠĠĠ ĠĠĠĠ
( $
O K
S ome
Ġd if
2 8
B y
ĠB Tree
ins ert
ĠAOXC AN
g lobal
ĠA n
us ive
Ġgiv en
in n
Ġn ode
w here
or g
Ġin s
lash block
eq ue
wrap ping
ĠJ ust
`` ,
ĠE RC
TU RE
o ur
2 6
Ġo p
Ġex ternal
cl usive
pt im
Ġequ al
ĠCO NT
Ġc or
ak es
ĠP anic
k ed
M IN
a le
m od
ce s
AL ID
) `
Ġv i
ment s
der ive
ar c
Ġ& &
Ġsu ch
Ġm ult
Ġbe havior
ĠID ENTITY
H IT
Ġle ft
c ast
- +
ĠR OLE
Ġ+ =
XL Y
OK B
id x
RC HIT
EI GN
OVER EIGN
RCHIT EC
1 9
ĠS OVEREIGN
ĠA RCHITEC
low er
ĠV ALID
" :
" }
" ###
. "}
i ct
{ "
Ġ "###
Ġin ner
ĠFI LE
ĠJust ice
ĠCONT ENT
ĠARCHITEC TURE
ĠVALID ATION
Ġw rap
O utput
p end
Ġalloc ation
b ase
Ġit em
t ype
Ġa m
Ġp aram
m on
l ang
s ign
in e
Ġre ad
Ġto ken
Ġd oc
ifi ed
3 0
n ode
n d
nT he
> (&
M aybeUninit
b ool
d u
n ull
Ġb ase
if t
u me
ĠI nto
Ġwh ile
======== ========
ifi er
su per
ot h
f ore
Ġe mpty
\" )
Ġcal led
Ġa fter
il ity
Ġpr int
T ype
le ct
A ccess
i mport
Ġin put
are nt
ĠStr ing
tr ue
<'_ >)
Ġfollow ing
Ġoff set
o le
Ġmodify ing
Ġposs ible
it her
ol l
8 4
ect or
Ġj ust
ĠPanic s
t f
Ġs p
t ail
Ġt ime
a N
s ort
s ync
t ain
de fault
are d
e ver
ĠS afe
Ġpoint ers
3 9
D ata
Ġ\\ \
Ġthe y
op t
D eque
] [
Ġun der
ire ct
call er
we en
Ġw ay
as k
<'_ ,
a ir
r ans
Or d
O ption
b orrow
\" .
Ġo ptim
hand ling
C ode
de v
a mp
h int
o om
Ġr un
n unsafe
Ġp os
de bug
!( !
te p
v m
R ange
Ġin trinsics
add r
se s
< $
Ġa ccess
Ġfor mat
and le
t if
ir t
1 8
Ġh t
or m
ed ge
Ġm ake
Ġw rite
al s
Ġo b
() )
c opy
at er
here um
che s
Ġam ount
ĠSafe ty
Ġ );\
le t
irt ual
d ic
ver s
Ġmut able
Ġht tps
n where
Ġex ecut
5 0
e mpty
../ ../
Ġtr y
); \")]\
c re
de fined
Ġsafe ty
Ġev m
] >
[ ]
er ve
rust ed
---------------- ----------------
**** ****
Ġbet ween
Ġd is
F F
Ġv ector
T F
il t
S ign
Ġme ans
nf n
arr ay
8 7
al ign
4 0
Ġinitial ized
c rate
n import
ch ain
b its
s rc
or d
Ġs up
E n
Ġ\" ::
ĠN aN
Ġli st
un init
ĠC re
Ġ here
Ġ1 2
Or dering
g s
Ġ loc
Ġb its
ig its
t ing
Ġs m
Ġb orrow
Ġ* \
Ġl ayout
ument ation
he ad
id ed
s pec
IT S
re ct
b it
Ġso urce
For matter
O n
m ul
m arker
is ion
i ent
Ġm ost
Ġse e
f ig
Ġst ore
l ap
Ġn ame
Ġe ach
D rop
Ġf ield
ip le
14 3
at h
ic al
m a
colle ct
r hs
ad ata
Ġa ct
et adata
Ġat omic
l ast
ĠOr dering
ce ll
iz ation
m b
m acro
in trinsic
i der
r ight
at tr
is h
id d
Ġnot e
f o
Ġvi ew
f ix
Ġv irtual
B ound
// \
Ġchar act
Ġcap acity
al ways
fer ent
h old
i ed
s p
Ġe ither
7 8
I nt
le ase
Ġo wn
ly ing
ht tps
ĠOr d
f ace
se n
ap i
pe lin
ub le
ep pelin
nf unc
f n
im itive
a w
ck et
H ash
S ize
o id
inter n
part s
7 4
t omic
Ġa d
Ġf ail
en se
Ġre vert
che d
Ġ// \
ĠF rom
re ak
st ate
Ġk n
s ized
as on
ir i
cap e
Ġab ove
Ġen sure
A M
ur al
al ance
Ġbe fore
im um
Ġ/ **\
Ġthe ir
Ġo ld
Ġap p
6 90
E M
h ant
hant om
d yn
ap p
t ed
trol F
u ction
ra g
Ġde bug
trolF low
b ox
c od
Ġc lo
Ġdoc umentation
f ul
g ative
k ip
lo t
ĠR ust
ĠNon Zero
Ġ( $
; \")]\
Ġb oth
up le
tra it
colle ctions
w h
ic ense
Ġ* *
L en
f ront
is s
ab i
5 4
S e
ĠS t
ĠR ange
ĠP oint
ile d
c al
Ġ Y
le m
Ġs cope
res ult
ass ign
3 6
d ia
h ash
ĠS h
!( \
br ary
5 9
ss age
ĠA cc
Ġbe en
Ġ$ .
ut es
over flow
p ar
In ner
vi de
gn ost
Ġover r
Ġreference s
gnost ic
C lone
ex p
point er
pre c
d iv
690 9
Ġst ack
S H
o k
alloc ator
Ġlo op
g as
ov ed
.. =
itial iz
arc her
I pv
a z
f irst
Ġthe m
`` .\
struct or
Ġg o
pl ay
dia gnostic
L ist
y st
an y
Ġm acro
Ġadd ition
: `
ĠC h
Ġcur sor
6 9
s wap
ĠT rusted
ig it
Ġbe ing
ĠR e
Ġpro v
Ġbuf fer
chunk s
yst em
u c
Ġc opy
Ġ| \
1 7
Ġa c
Ġav oid
^ -
as ic
iv ale
read y
ivale nt
et hereum
( -
he d
ow er
Ch ar
Add ress
Ġre ason
Ġex act
Ġdif ferent
Ġf ile
ith ub
op en
p ayload
N AM
n oun
w ner
Ġthe se
per case
for mat
Ġlo g
a v
a ction
g ithub
u gh
Ġcon vert
ail able
EI P
vari ants
72 1
ven ance
f ield
Ġw ant
ext end
Ġ\" .
ce i
ou gh
Ġoperation s
Ġparam et
) :
d st
Ġ %
ent ifier
ĠD ebug
Ġ/ *
l n
ĠT ry
5 8
] ,\
li ke
Ġsup port
ĠCre ates
ang es
ms g
D Y
i an
Ġ raw
Ġm arker
Ġst ill
ĠA s
ack et
iter ator
f loat
z eppelin
vi ous
Ġm at
Ġne ver
open zeppelin
A cc
IC S
)? ;\
S I
p op
S AFETY
T rans
ro ugh
Ġd iv
Ġ} ,\
ĠB y
Ġcall ing
Ġpanic s
contract s
( (
pect ed
noun wind
st ack
st atic
Ġav ailable
pe e
<& '
ĠPartial Eq
h as
{ }
Ġo utput
Ġd irect
ĠA oxc
ra in
im al
OR Y
B Tree
Ġle ast
ro und
ĠM EM
init ial
NAM ICS
DY NAMICS
ĠMEM ORY
S tep
] `
i ate
n ame
I nto
ĠS ized
## ##
Con tract
Ġmult iple
rag ma
A R
Ġc lone
Ġh ash
C opy
ut il
ing le
tr ack
fe ct
rap ping
Ġ| |
Ġpro du
Ġper form
ĠBTree Map
se c
s cr
ce pt
ul ar
W e
Ġth rough
Ġl ar
ĠNon Null
) ));\
P oint
`] (
Ġcall s
c ed
an ually
Ġin t
Ġin clu
len gth
ĠD uration
ax ed
Ġsu per
ĠSo lidity
Ġp rop
Ġw rit
li st
str uction
Ġconst ant
Ġcont ents
5 3
D efault
is on
Ġ\" ,
her it
Ġus age
ĠĠĠĠĠĠĠĠĠĠĠĠĠĠĠĠ ĠĠĠĠĠ
Ġguarante ed
P in
ass ume
d ing
Ġf e
Ġd st
Ġy our
R el
f alse
p in
ĠE rror
Ġli brary
Ġev ent
Ġwor k
lap ping
idd en
l ag
t ree
Ġp attern
ic ode
//////////////////////////////// ////////////////
Ġprov ided
B orrow
plic it
N ode
ĠD efault
Ġcontain s
> ()
Ġo ption
mut e
Ġ< <
non zero
Ġprint ln
8 6
S C
c ul
f oo
ĠA dd
ĠD o
ĠL ayout
Ġequ ivalent
pee k
ith m
Ġex ist
Ġbound s
o er
Ġ err
Ġ} )\
Ġclo sure
ex act
orm al
L e
d ition
s aturating
Ġse cond
ĠCon vert
Ġs rc
Ġh ow
//////// ////
St ate
Ġm ight
Ġv ia
ter min
Ġal ready
form ation
Ġoverr ide
7 6
re ater
Ġcre ated
Ġargument s
Ġs wap
Ġe ver
ĠC opy
Ġde tail
Ġw he
ĠU TF
cur sor
vers ion
7 0
ut e
ab s
4 4
m ed
in trinsics
ro ot
ĠO p
1111 1111
W aker
g ate
is play
Ġacc ount
Ġcons ider
P D
S o
n an
t he
st amp
`] [
and om
Ġalloc ator
ĠVec Deque
E X
ab ility
Ġcheck ed
Ġhe l
hantom Data
2 3
f init
Ġf uture
al igned
Ġch ange
Ġab out
//////////////////////////////////////////////// ////////////
ĠC omp
Con text
on ent
Ġ '\\
he l
Ġunder lying
ut h
Ġ_ _
inn ed
Ġs im
ic s
Ġmethod s
( [
< _
C all
O ffset
\" ),\
en try
Ġmap ping
dic ate
E rr
Ġ1 6
Non Zero
Ġcor rect
az y
` ]\
e ural
ĠW hen
Ġpro vide
ĠCon trolFlow
Ġins ert
E E
Ġor dering
. ,
v ent
Ġin it
Ġre g
cond ition
Ġfe ature
( _
Ġ ../../
4 2
M E
l at
v ance
en s
ff ff
Ġvariable s
P tr
Ġ qu
Ġs ingle
Ġo cc
Ġcon dition
ec c
Ġalign ment
PD X
(& [
Ġro ot
im es
Ġpre vious
Id entifier
B I
Ġn ow
ic ally
ĠS PDX
ĠĠĠĠĠĠĠĠ ĠĠĠĠĠĠĠĠĠĠĠĠĠĠĠĠĠĠĠ
str ict
Ġcontract s
4 8
ve l
to ken
over lapping
p on
st ore
Ġp ure
Ġin formation
form s
R ole
Ġle ss
ĠT o
1 00
L icense
d ate
Ġs y
ar ison
lo g
ĠConvert s
r ules
Ġhe ap
Ġexp ress
lashblock s
L O
id th
ĠO n
iv ate
c y
p arent
Ġ es
Ġp ayload
In itializ
Non Null
k v
int e
`` \
4 3
n mod
u ard
v ed
Ġreturn ing
ecc ak
d own
m ant
Ġob ject
On ce
ĠPoint ee
A C
f fect
et s
con tain
res erve
>` _
unk s
Ġcom mon
Ġc ould
ĠO utput
Ġde fined
Ġother wise
4 9
:: \
Ġ\" @
as her
Ġy ield
ĠW rapping
0000000000000000 0000000000000000
ĠPartial Ord
8 3
con vert
alloc ate
rem ain
inn ing
Ġwhe ther
\" ),
Ġs ort
Ġs plit
Ġ2 0
Ġme ssage
sen der
# ![
in ked
Ġin trinsic
inked List
* \
S h
ĠĠĠĠ ĠĠ
Ġex plicit
Ġ4 2
D E
Ġd on
1010 1010
4 6
< /
n A
ĠI pv
Ġde que
initial ized
H ead
[ ..
re d
ĠI tem
Ġoper ator
cur rent
^^^^ ^^^^
B ITS
p ace
t ake
Ġm ove
fin ish
oo k
Ġspec ified
Ġremain der
u mp
or der
Ġf old
iv ed
Ġsh ift
Ġdoes n
Ġitem s
util s
I I
Ġt ail
Ġe mit
Ġdrop ped
SC II
P I
` ,\
ĠS aturating
ver se
Ġh andle
id ent
In dex
80 2
Ġocc ur
A d
Ġc l
Ġn um
Ġv er
Ġcre ate
Ġdetail s
) ]
8 9
O k
U R
n ing
Ġ 32
se mb
en der
ay able
En ded
Se archer
h idden
\" )\
Ġis ize
med iate
A D
s ing
Ġa g
Ġwith in
11 0
intern al
Ġit self
mat h
Ġhe ad
Ġsm all
Ġcharact er
S E
Ġc ause
Ġp air
oc i
in ue
Ġi mport
Ġguarante e
Bu f
Rel axed
( *
n I
Ġin valid
ari es
bound ed
Ġrepresent ation
Ġ ^
Sign er
P L
Ġbe low
end ed
Ġrequire d
Ġwor d
uble Ended
D uration
Ġm akes
ĠS ync
ust ed
5 2
al i
iter al
ĠM aybeUninit
Ġallow s
vari ant
prec ated
anually Drop
Head er
A l
p aram
Ġ â
Ġ1 1
In clusive
used Iterator
( ..
e vm
Ġt e
it es
Ġfor ward
Ġd igits
Ġne gative
ice s
method s
inte ger
ĠPointee Sized
semb ly
Ġ( `
ust om
val u
Ġimplement s
G E
ĠT here
Ġli fe
Ġoptim iz
A tomic
Ġi mp
safe Cell
ow s
ĠY ou
contain s
N AN
P U
g ers
`] .
Bu ilder
U int
Ġcons um
uth or
ali as
6 0
Ġa li
ĠP in
ĠB asic
Ġaddition al
a a
p ow
ĠF old
Ġex pected
3 3
A ss
R un
i o
Ġ} );\
>( \
Ġremain ing
By tes
ĠS end
li ed
ĠBTree Set
cal ar
Ġag ain
v es
se lect
ce ed
Ġi m
Ġup hold
pr imitive
Ġid x
] .\
ĠS pec
li b
li z
Ġguarante es
b tree
s um
Ġf in
Ġde scr
!(\" {
key s
Ġmat ches
Ġever y
P ayload
Ġs lot
!( *
Ġas cii
oun ter
up percase
pre v
zero ed
Ġbu ild
non overlapping
ĠFI X
To ken
il y
Ġspec ial
ĠT h
Ġh ig
Ġr ules
Ġen cod
ubleEnded Iterator
c imal
const ant
ĠD e
Ġimplement ed
Con trol
lower case
143 802
Ad min
I P
et ic
nt h
Ġpl ace
' ;\
st orage
Ġp as
ra ct
ac c
ĠH ow
Ġcontain ed
âĶĢâĶĢ âĶĢâĶĢ
Ġdirect ly
oci ated
b in
ar ry
ur ing
Ġon ce
Ġ4 4
sh r
Ġro und
Ġ$. _
oer ce
m iri
il ar
and ard
Ġwe ak
ex pr
Ġalloc ated
Ġbu ilder
que st
se arch
Ġg reater
Ġli mit
Ġus er
Ġen um
umb ers
o g
r un
Ġm a
Ġth read
ĠN ode
id ual
Ġrequire s
time stamp
comp are
ites pace
d if
f uture
y s
le x
ĠF oo
Ġh app
abi liz
Le af
C st
V al
t s
eq Cst
Ġcomp ile
Ġimplement ations
Ġtra ck
ecut e
w w
ĠS e
li es
Ġun defined
qu ence
Ġen able
ĠFIX ME
A r
] (
Ġ` [
Ġw ell
ic ient
ach able
in k
\" ).
ne ss
Ġmod ule
ĠUn ique
Ġpl at
Ġstore d
C ore
D isplay
u age
ay stack
Ġcomp arison
cei ver
+ +
3 5
D eref
a iled
x d
Ġc mp
en code
Ġm ode
Ġ( \
Ġst able
ĠA SCII
ov es
Ġins ide
ĠInto Iter
ĠSh ort
sec s
2 2
8 8
} ,\
Ġ ##
le an
Ġth us
ĠI Aoxc
Ġresult ing
Ġpart s
box ed
A X
x a
in herit
Ġt akes
Ġs igned
nt he
Ġpart ic
ĠInto Iterator
Ġpos ition
Ġkn ow
Ass ign
9 1
Ġf loat
-- -+
Ġst abiliz
ĠP ro
In ternal
Ġsign ature
we ak
com mon
n macro
p h
in put
is ize
Ġo ur
Ġp arent
Ġuse s
Ġcall data
lat ten
M em
Z ST
b inary
c quire
m id
Ġc ast
un signed
Ġs i
Ġslice s
Ġtrans fer
Ġsp ace
Ġexact ly
Ġinclu de
Ġpas sed
> ;\
H el
c an
h ing
r st
Ġ= \
te Str
ĠC all
ĠD rop
Ġsu ccess
9 2
p Addr
Ġ )\
Ġp ragma
Ġto t
Ġcon version
ĠC heck
Ġde cl
ĠP hantomData
Ġcheck s
Ġcase s
Ġl ong
mem ory
Offset Run
OffsetRun Header
6 6
O p
U P
11 6909
Ġ$ (
Ġpr ivate
sh ould
Ġalign ed
Ġass ociated
c or
at her
am ic
F IN
S afe
le ar
Ġn umbers
Ġe valu
Ġnot hing
Ġinter face
hel lo
Ġpartic ular
b ra
c ing
on ed
ĠĠĠĠĠĠĠĠ ĠĠĠĠĠ
end ing
bu ilder
Ġpre dicate
res pon
Ġallow ed
99 8
Ġtot al
3 1
e uc
p c
Ġp acket
Ġd yn
ĠR ef
op ied
ĠB orrow
ĠDo ubleEndedIterator
ĠHow ever
2 1
O wn
Z E
i e
l t
m ake
p attern
Ġfor m
ĠI P
te mp
Ġas sembly
Ġwh at
ire d
\") ]
I S
I ERC
N E
e ip
e ps
Ġ ()
Ġ --
Ġde termin
11 55
ff ix
ĠĠĠĠĠĠĠĠĠĠĠĠĠĠĠĠ ĠĠĠĠĠĠĠĠĠĠĠĠĠĠĠĠ
Ġbu ilt
Ġexp onent
Ġinte gers
ĠWe ak
Ġ.. .
) ``
5 7
> `.\
h ip
Ġf ive
Ġun signed
ers hip
ff icient
Vec Deque
bound s
Ġstabiliz ed
A P
R OLE
x c
x e
} `
Ġo wner
ĠA BI
ter s
ĠP oll
ix ed
) *
N eural
b ig
k n
o b
t il
Ġ1 3
Ġ1 00
all back
pro venance
Ġparamet er
FIN ITY
' re
f unction
v ents
Ġcon structor
te x
Ġh and
ĠAn y
ĠShort OffsetRunHeader
A lign
s er
w aker
} \",
le te
he ap
pe at
Ġun less
nt ax
ĠU se
rap h
a ger
d igits
n et
ge bra
Ġex t
ĠAl l
) ).
5 1
P artial
R andom
f ive
Ġle ad
Ġse par
Ġspec ific
Ġcurrent ly
Ġdescr ib
d a
x b
lo y
Ġin variants
ĠL e
gebra ic
M an
_ _
b er
s ome
ur sor
ĠC ow
qu al
res ses
ific ant
Ġlife time
2 7
Ġa round
() ).
eq u
ĠB u
so urce
Ġlar ge
I s
L oc
en tr
Ġb reak
Ġan other
il ter
ĠE q
ang ed
Ġloc ation
O T
e lement
Ġo ps
Ġm any
ur ro
Ġ( &
Ġuse ful
Ġresult s
Hel lo
de que
ot al
Ġpoint s
IN FINITY
Ġcor respon
kn own
W ith
t able
Ġ load
Ġp ower
fe t
slice s
Ġen try
Ġrequire ments
143 77
EX P
8 2
C O
t max
ar g
tr ace
ĠS ince
ch ange
Ġun initialized
ĠR em
ult i
Ġpre fix
min Stack
110 998
! \
A s
g en
Ġ >>
Ġm etadata
ar se
ĠP re
ĠG lobal
Ġtest er
Ġwrap ping
constant Gas
S A
v ar
Ġm ain
Ġin v
Ġre fer
32 8
bu ilt
Ġse lect
ib utes
ĠG PL
lag s
d is
s up
t minStack
Ġc olle
Ġin cre
ab ly
Ġth ose
Ġstr ong
Ġr ather
ial ly
np in
Ref Cell
rem ove
SI ZE
PU SH
tex ecute
tmax Stack
A Y
T ry
Ġ edge
Ġp ath
ar gs
Ġ& *
res hold
Ġrem oved
trans mute
m ore
m all
Ġe ffect
)) ;\")]\
ĠComp utes
( '
r ot
t le
Ġb inary
tr usted
ne ver
ĠD eref
Un ique
Ġen ough
Ġarr ays
Bound s
Into Iter
struction Set
Random Access
3 7
8 5
: ?
H e
I G
S eqCst
re ference
up date
Ġkn own
BTree Map
t inue
Ġa ut
Ġ` -
Ġp ort
Ġp ayable
Ġre place
ĠS plit
Ġd er
ĠF usedIterator
Ġde pend
Ġl ang
Ġindex ed
Ġgu ard
ĠFn Once
cket Addr
R es
a ctions
p artial
ĠI mplement
Ġun ique
ver flow
Ġse quence
ĠW tf
Ġexecut ion
D el
[ `
t uple
w idth
\" ));\
Ġm id
ĠA tomic
Ġr ot
Ġch ain
Ġch anges
ag es
Ġstart ing
Ġass ign
L o
s ide
s cape
x x
Ġt ake
Ġf ront
ĠE n
op er
Con fig
Ġid ent
overflow ing
We ak
D B
F n
g r
Ġt x
Ġb ox
Ġst atic
lin k
Ġh old
Ġsh ared
num er
Ġcharact ers
ithm etic
328 38
4 7
u de
Ġ[ ]
ĠA r
ĠM iri
th ing
Ġup per
Ġinst ance
i mplement
x f
Ġ 64
Ġ ke
re achable
Ġd uring
Ġne cess
ak ing
opt im
Ġfail ure
av ing
o sed
Ġ ent
it e
Ġc tx
Ġto o
Ġ( *
Ġch unk
Un safeCell
euc lid
Del ay
8 1
st ract
Ġf lo
Ġc ell
Ġ` {
nT his
Trans fer
Ġsim ilar
remain der
4 5
U N
n In
t hen
Ġin fo
mut able
ĠA ccess
Ġse mant
os al
own ed
Ġcal cul
Ġpos itive
Ġsy ntax
He ap
9 6
O f
re pr
Ġre quest
Ġ- =
li mit
ĠA PI
ĠR aw
Ġy et
Ġtrans action
Ġac ces
BTree Set
Ġprodu ce
b ar
Ġ lower
Ġf ree
Ġp ass
ic k
inary Heap
Ġloc al
Ġexpress ion
ĠIP v
C oerce
R ead
c ision
x D
er ge
is k
es cape
St ore
Ġrem ove
opt ion
Al loc
O wner
n umber
Ġd own
str ong
ec ause
ow ner
Ġpoint ing
Ġneed s
Ġact ually
Ġparamet ers
T ra
r fold
re place
le vel
un ded
ĠT ype
add ing
ĠH andle
AL L
urro gate
fet ch
< (),
e lem
ð Ł
Ġw ere
ic it
ĠĠĠĠĠĠĠĠ ĠĠ
ĠE VM
check s
ĠL inkedList
intern als
) ),
U L
i str
t constantGas
Ġ \
Ġt ree
Ġw ar
ro ss
12 34
struct s
* /\
6 7
P O
P ER
c d
c u
t otal
u ch
Ġs ide
ur ther
act Size
el se
ĠThe se
ac hed
In valid
mat ches
ĠTrusted Len
actSize Iterator
H A
Ġre f
Ġde finit
Ġpr im
ched ule
q r
is hed
Ġ` *
iv es
Ġcomp are
pre fix
Ġerror s
F uture
d o
g o
m ove
p ose
Ġt uple
Ġs c
Ġb alance
Ġin dic
Ġre ce
Ġcon text
Ġse n
Ġalloc ate
comp ile
Ġexplicit ly
d ated
Ġt er
Ġin line
ĠN ot
-------- ----
Ġse ction
mat ch
ib ility
ĠG as
comp iled
ĠTrusted RandomAccess
Ġplat forms
! `
f b
p ly
ĠS tep
.. .
ive ly
iv ot
Ġpro per
AN D
Ġar ithmetic
Ġmax Stack
Ġparam s
Ġali as
_ ,
d igit
it tle
Ġb ig
Ġ// ////////////////////////////////////////////////////////////
ac cess
In cluded
ĠH ash
******** ********
Ġ/* ////////////////////////////////////////////////////////////
nI f
Ġ////////////////////////////////////////////////////////////// */\
Ġ/*//////////////////////////////////////////////////////////// //\
2 5
C heck
H asher
i or
m y
Ġ line
le af
Ġc are
Ġp artial
ĠS lice
as ync
Ġd ue
out ine
ex tract
Ġ5 0
Error s
gument s
Ġmin Stack
N o
c ent
d uration
Ġ q
Ġt imes
Ġst ep
Ġde st
pl ac
ac y
ĠU sing
ĠĠĠĠĠĠĠĠĠĠĠĠĠĠĠĠ Ġ
Ġend ian
co ver
Ġgener al
Ġfield s
Borrow Type
Ġent ire
A cquire
P r
f c
n const
Ġs om
Ġin variant
ĠB it
Ġpro b
Ex p
0 1
] )\
Ġ` .
Ġle af
ĠE ther
loc al
Con st
ang ling
ĠG ener
Ġbase d
Ġborrow ed
6 3
T arget
i er
n and
Ġ z
Ġc ost
Ġin d
ĠO ther
us able
Ġpl us
Initializ able
) `.\
M etadata
\" ))
Ġf ind
Ġf oo
Ġc ounter
an ch
ate g
ne l
der ef
od y
Ġpre cision
test er
Ġown ership
Ġensure s
Ġlar ger
UR I
0 2
lo ss
Ġ( []
Ġst andard
xt end
val ues
Ġop code
par se
Man ager
E D
w or
Ġf ound
tr im
ĠI ERC
ĠM AX
mit ted
Ġmax imum
Ġtoken s
inherit doc
6 5
] ));\
() ;
Ġre l
Ġas ync
not ice
Access Control
sort ed
Ġconsider ed
14377 3
( \",
n ormal
o in
Ġf ull
ab el
Ġle ak
ĠR equ
ĠB ound
Ġpre vent
Ġme an
Ġprop ert
Ġword s
qr t
S cope
f ind
u ous
Ġ` #[
Ġ3 0
Ex cluded
cursor s
Ġencod ing
Own ed
w ay
un ique
Ġb r
() ),\
ro le
ad vance
Ġmut ate
bu ild
Ġsign ificant
Ġacc um
Ġhel ps
ĠDe struct
= \
` :\
g acy
t wo
Ġp inned
Ġv is
her ent
Ġg ap
Ġse nd
Ġiter ation
so lidity
Ġwrit ten
nan os
a led
b l
t ure
Ġs ure
Ġm ant
mp or
Ġd igit
ĠIn cluded
sh l
79 13
Node Ref
Ġhig h
) |
) ),\
b str
Ġc arry
al gebraic
en um
ar ily
Ġ$ ($
Ġimpl icit
Ġiterator s
Ġmin imum
Ġact ual
#### ####
Ġconsum ed
G uard
W h
i od
k ing
at is
ed ia
ĠI EE
Ġex tra
ĠP er
ex change
Ġk eccak
Ġcontain ing
pro x
Ġrun time
cei pt
dif ference
atis f
( ())\
A B
F unction
S plit
` )
w ord
Ġf allback
Ġs cr
Ġp inning
Ġm oved
de precated
ne gative
per s
ĠEx actSizeIterator
ĠM anuallyDrop
ex pect
kip edia
Ġdiv ision
ĠNode Ref
cor rect
ĠIEE E
` '
a wn
d b
d rain
e y
f used
g ener
Ġf ast
al lib
om atic
Ġd ist
ad ix
Ġ1 5
Ġun checked
char s
F oo
t t
} '
Ġto p
con fig
ac count
Ġch ild
Ġneed ed
pr int
bit r
0 7
B ool
V E
c er
Ġun wind
Ġh aystack
Ġstr ict
Ġres pect
Ġcomp ut
(| |
ov ing
inter face
Ġwrap ped
ĠOp Code
Ġext end
Ġwar ning
N ote
S up
â Ģ
or s
Ġm ark
Ġis n
Ġun til
for get
ee k
Ġlo ok
0000000000000000 00000000
Ġro le
wi kipedia
38 1
ward s
Ġtoken Id
ĠCh ar
Default Admin
) >
9 3
S ync
f lashblocks
Ġ âĶ
Ġt ag
re v
Ġre st
Ġre th
Ġre lease
ab c
il led
ĠE IP
Ġadd ed
-+ \
State DB
6 1
C ow
C String
j s
Ġt ask
Ġf act
Ġn ormal
Ġe q
Ġth ing
ul ly
ne g
Ġde cimal
pl us
ĠM y
Ġstring s
ĠCon structs
gra m
Ġexample s
Ġback trace
br aries
Ġ($ ($
finit e
(_ )
0 3
B lock
a it
g in
l ay
Ġ 80
at ible
un wind
Ġs um
`` :
Ġd ere
ack ed
Con tinue
Ġtra its
bound ary
Ġbet ter
<_ >>
> `]
A GE
B reak
B alance
D IG
T est
o ff
Ġs kip
de c
ul er
iter als
ĠSo urce
Sh l
Ġoptimiz er
og raph
Scope Context
allib le
4 1
> :
I Aoxc
ce ption
Ġm an
() ?
ch ild
14 38
Ġvari ant
wind Safe
Ġass um
Ġver y
Ġproper ly
S ystem
k i
on ce
Ġf ra
al f
Ġi gn
ub lic
Ġadd r
---------------- --------
Partial Eq
I mpl
R ules
R aw
l ace
p oll
on es
Ġf ully
Ġs atisf
() `]
Ġ[ \"
te vm
ĠU B
Ġl azy
up per
Ġ6 6
com m
Ġown ed
wh ich
Ġinclu ding
---+ --------------------------------
Ġflo ating
S pec
U npin
b alance
g or
on ger
Ġc fg
al cul
Ġn am
Ġ[ '
Ġd one
Ġ4 0
for ward
ĠH asher
wi ki
trans fer
Ġad vance
Mem ory
Ġlang uage
Const ants
D yn
E vents
I R
T ime
c b
e ach
Ġ\" `
ĠT rans
ot es
ak en
ĠM IN
plic ation
Ġvi ol
D ec
n b
o ct
Ġp at
Ġcon trol
Ġcon fig
il ing
ĠB e
Ġadd resses
alloc ation
vi ew
Ġab s
spec ified
wh itespace
> );\
K ind
se ction
Ġs ound
() ));\
tr unc
Ġcon struct
ĠD ec
Ġl ater
Ġl iteral
>> ,\
Ġup percase
Ġtest s
Ġkey s
app a
Ġsi mp
DIG ITS
7 3
> `,
i pt
} \");\
Ġt urn
le gate
Ġf our
Ġm s
ase d
tract s
12 381
10 4
Ġse arch
Ġpro cess
Ġonly Initializ
Ġstruct ure
Ġar gs
ched uler
Trans action
Ġexist s
<_ >
Ġprovide s
Ġsemant ics
Read y
ĠonlyInitializ ing
S ON
k appa
s ince
Ġre t
Ġn ull
Ġun it
me tr
Ġex cept
ĠP r
ĠP attern
cap ed
Ġar bitr
Ch unks
Ġsort ed
Ġsmall er
F ast
n For
r chunks
s c
ĠV al
Ġover lap
Ġmult i
sp awn
sen s
ĠSt ate
Ġcondition s
Ġnecess ary
plac ed
Ġscr atch
Ġbacktrace s
0 4
F C
M anuallyDrop
T h
f ail
m ost
st ep
at ile
he s
et a
---- -+
Ġde fin
iv ial
ty p
Ġsh r
Ġsh ort
ib ute
part ition
buf fer
][ ..
P acket
Ġ low
ĠC alcul
ĠN OT
id ing
Ġde precated
ill is
eth ing
Ġimplement ing
Ġpro venance
min us
Ġmod ifier
sh ift
tra its
Re lease
Ġthread s
) +
- \
W AP
m illis
le ad
Ġf lashblock
Ġp adding
() `.\
Ġe lem
Ġth ough
ol atile
Ġun like
Ġdo uble
Un signed
alloc ated
13 49
Ġout side
OR T
================ ================
Ġinput s
Ġsm art
Ġac cept
Ġint ended
Sup ply
7 1
> [
R U
d raw
s ider
s lot
Ġ X
he st
Ġm ask
ab ort
Ġ( ``
Ġde structor
im in
11 8
Ġ4 19
zero s
Ġsign er
Ġbound ary
mb ol
ĠBy teStr
Ġbr anch
Ġms g
0 5
A nd
C E
L ayout
O P
f ile
z ip
in valid
is m
Ġb en
li ent
Ġ} ,
16 5
ĠM ap
Con trolFlow
Ġany thing
Id x
ecut ion
cr imin
Ġdif ference
down cast
Ġhapp ens
ww w
Ġder ived
' ),
C Str
L inkedList
P anic
c a
c ip
m its
p ath
w are
Ħ âĶ
in f
() ),
Ġ( **
Ġ1 13
te String
Ġup dated
vers ions
Ġfin al
rot ate
Ġaut omatic
Lo ck
ĠGas Fast
Ġmean ing
typ es
1349 15
0 9
A p
e ven
j oint
k eccak
se nd
Ġre comm
Ġle vel
ĠS ign
!( &
con t
rr ay
cl oned
for ce
In structionSet
up grade
up ied
<'_ >
ag ed
Ġk ind
En try
Ġcorrespon ding
( (&
P lace
S ender
b b
i ence
t hereum
u d
un icode
Ġin herit
Ġn th
Ġl onger
ĠW h
Ġab le
Ġro unded
head er
Ġhapp en
Neural Packet
' .
0 6
n s
in clusive
st ead
un defined
ot ent
ĠI pAddr
ne ed
lin ked
loc ation
ĠB ecause
ĠSo cketAddr
Ġexpress ions
Ġselect or
gor ithm
. )\
P re
c at
u ation
Ġ ),\
Ġc ustom
Ġp ush
`` .
ĠA t
us ing
out put
Ġ4 29
Ġpro gram
sh ared
su ffix
Ġass ume
Ġrepresent s
sign er
Ġob tain
iss a
Ġte mpor
ĠThere fore
Ġoptimiz ations
Ġim mediate
Ġdyn amic
ĠOther wise
K ey
O verflow
Q u
R hs
an cy
ct x
Ġw idth
Ġbe st
ch ron
get ERC
ĠL icense
Un windSafe
Ġcre ating
ific ation
IC AL
Ġfile s
So lidity
impl s
6 2
8 00
C ALL
I pAddr
N ot
] ),
g ed
i et
n S
t PUSH
x ff
in fo
se e
lo op
pt h
Ġtr unc
Ġpre sent
ĠIn itializ
oo lean
hand le
pos ition
Ġfail s
Ġapp lied
ĠAoxc Errors
Ġimport ant
Ġround ing
ĠLe ss
Ġbox ed
crimin ant
9 4
T able
g uard
al le
de cimal
Ġth ree
ert ain
Ġ1 14
Ġex tern
get her
ef ore
ex tra
yn chron
ind irect
map ping
ĠIn dex
Ġnon ce
ĠFor matter
Ġvers ions
Ġgener ic
Signer ERC
ðŁ Ĵ
U tf
a oxc
m ult
Ġe as
Ġd eref
Ġd rain
ad get
Ġex ception
ĠEx cluded
Ġl ittle
In fo
Ġwe ight
est Step
ry pt
cod ed
11111111 11111111
Ġarbitr ary
ĦâĶ ĦâĶ
' );\
B Y
S core
Ġf lag
Ġ` (
Ġm uch
ar ing
Ġd uration
ĠC ell
Ġex ceed
ĠM IT
Ġso cket
Ġ7 54
ifi ers
Ġfollow s
Ġtarget s
Ġexecut ed
Ġlog ic
Ġsupport ed
ĠIAoxc Core
Ġcolle ction
Ġke ep
ĠGasFast estStep
B ack
N U
R eturn
T S
` ).\
f latten
m d
m etadata
n in
ig uous
ver sed
ĠN eural
str i
Ġ} >(
Ġcomp lex
np ragma
Ġpre d
Ġneed le
wind ows
Ġget s
By teStr
Ġconvert ed
Ġyield s
Ġenable d
)* )
/ **\
C H
I E
d uct
p air
p loy
Ġ ed
re peat
it ives
un used
() `]:
ĠT r
Ġcon f
ol ve
Ġun reachable
ĠC ursor
const s
Ġg lobal
LE N
Ġgener ated
Ġ.. .\
attr ibutes
So urce
00000000000000000000000000000000 000000000000000000000000
10101010 10101010
Ġim mutable
isk Score
Ġind ices
ĠPer forms
. _
A S
E qual
P hantomData
f lashblock
l iteral
on ly
re quire
al ing
Ġre ly
ĠE scape
Ġl iterals
doc s
are s
ci se
Ġcom bin
Ġexist ing
Ġsim d
Ġinsert ed
Ġoperator s
Loc ation
implement ed
1438 00
( []
6 8
A t
W rite
e b
e val
l er
m ask
x A
~ ~
he ight
al ph
() ``
Ġto gether
ĠA fter
Ġ* /
ĠO ne
cl amp
val s
for k
ĠW ith
Un sized
ance l
ĠĠĠĠĠĠĠĠĠĠĠĠĠĠĠĠ ĠĠĠĠĠĠĠĠĠĠĠĠĠĠĠ
ha ust
Ġacc ord
)? ;\")]\
>`_ \
ĠCall ing
ĠCheck s
entr ancy
Ġsc ale
C ap
b ers
d f
h ig
l p
m aybe
p atch
al ty
ĠS ystem
!( (
Ġ1 7
ĠF unction
end ian
Ġap pend
drop ped
Ġprodu ces
Ġreg ard
âĶĢâĶĢâĶĢâĶĢ âĶĢâĶĢâĶĢâĶĢ
Ġma de
Ġsom ething
ĠBe havior
+ ------------------------
C ursor
D UP
S lice
m eta
er ate
Ġc o
de ad
!( (-
Ġ[ '\\
Ġd en
um my
Ġne g
Ġ4 28
Ġch unks
ĠG ets
ist ent
ĠJ SON
75 40
Ġexecut e
Ġapp ly
ĠY ul
Ġwrit ing
Borrow ed
---+-------------------------------- --------------------------------
C omp
N ame
U T
l ar
l hs
u plic
Ġt aken
he ld
Ġn an
ur rent
ĠA lign
ĠR es
Ġas set
Ġh aving
ign ore
ĠB inaryHeap
Ġ`` .
get Store
cc upied
======== ====
Ġup held
Ġcheck ing
atomic s
Ch ange
opt ions
We ight
Ġcorrect ly
No Coerce
Ġautomatic ally
alle st
7 12
M T
S K
c ustom
n y
p ower
s urrogate
er ic
re ate
or igin
ĠS et
Ġu lp
Ġan al
Ġbe h
op ies
ir d
ac he
pre condition
Ġpre condition
ĠL AN
ach ine
ĠIter Mut
Ġtrans actions
Ġoptim ization
iss ues
iterator s
remain ing
ulti SignerERC
1234 56
Ġign ore
ĠNOT E
+------------------------ -+
< (
> ();\
S WAP
T he
g ht
re verse
Ġc ertain
un aligned
Ġp ivot
Ġm ul
tr od
fe e
ur pose
!( \",
Ġ1 4
ge st
ĠE qual
fer red
ĠB ase
ĠD iv
Ġl abel
)) ),
Ġpr imitive
co er
Ġtrans mute
Re ceiver
Ġcom m
item s
pos it
cal led
param s
Ġencod ed
shr ink
Ġdecl ared
Loc al
built in
9 8
B it
a usable
d ge
j t
m ark
n Y
s cope
t c
w ake
it ude
es is
Ġth eref
ro up
ction al
Ġh alf
im als
ex pected
ip v
Ġab ort
MA SK
clu ding
Ġlike ly
ĠĠĠĠĠĠĠĠĠĠĠĠ ĠĠ
mod ule
Ġformat ting
iss ue
Check er
prox y
Ġtheref ore
< ()
> .\
F loat
O S
a uthor
b c
o ice
p inned
Ä ±
Ġa ffect
Ġf ixed
Ġc oer
ve lo
ant i
ĠD is
ĠD rain
Ġse nt
Ġcomp ute
Un icode
>> (
(| &
af ter
Ġgener ally
Ġrepresent ed
du ce
cre ment
Ġapp lies
wh ile
ĠRange Bounds
Ġhow ever
token Id
ĠTh at
ĠSe arch
Ġsi mple
NE T
ateg ory
E numer
L L
O ut
b ul
f allible
s kip
Ġ Z
it ch
Ġ{ }
Ġp otent
Ġ( \"
Ġof ten
ig ger
ment al
ĠR FC
lin es
Ġal ong
Ġh ole
Ġde lay
Ġch anged
>` \
rs plit
Ġinitial ization
{} \",
Ġprop osal
Ġprevious ly
:? }\",
Ġdefinit ion
-----+ ---+----------------------------------------------------------------
Ġaccord ing
+-------------------------+ -----+---+----------------------------------------------------------------
+-------------------------+-----+---+---------------------------------------------------------------- -+\
h aystack
t gas
u x
en ced
Ġ{ _
Ġb ody
tr ail
ol s
Ġ1 28
ch an
Ġex pect
Ġmut ability
ĠUn like
su ccess
Ġbyte code
Aoxc Constants
dyn amic
ĠTry From
Ġwrit es
Ġfloat s
Ġfast er
) `,
* ;\
+ \
b atch
er ved
Ġ` <
un sized
Ġ\" ).
Ġin correct
Ġbe g
Ġal gorithm
Ġde c
Ġiss ues
rop ert
Ġnew ly
pre d
ind ows
ĠIn ter
Ġchar s
Ġstate ment
âĶĢ âĶ
Ġper iod
ven ience
29 29
idd le
Ġsen der
Ġpropert y
Ġimplicit ly
ĠâĶ Ĥ
oct ets
) :\
3 99
_ |
b lob
f ilter
o ot
Ġt yp
re borrow
Ġs ol
Ġb l
Ġo k
tr ibutes
ic i
ic ast
able s
ap pend
(& *
ĠR E
Ġ2 4
ĠB lock
ir cu
qu ent
Ġpre ser
Ġup date
comp atible
Ġdrop ping
Ġap pro
prec ision
Ġoccur red
Ġpair s
Bytes To
Ġmant issa
ĠCalcul ates
C ost
G lobal
] `.\
f a
l ong
s y
Ġf urther
Ġc lean
:: *;\
Ġs ystem
Ġre verse
Ġre stri
Ġn ative
Ġfor matter
0000 000
Ġr anges
ac ant
Ġwh ole
10 7540
ĠL azy
Ġcont ent
Ġsu ffix
Ġspec ify
ĠAlloc Error
Ġass igned
Ġsp ender
msg Sender
AR D
Point er
`]( ../../
Ġoption s
ts cope
Ġdescrib es
oper ation
Ġacces sed
Ġacces ses
istr y
( ())
C T
S igned
c opied
d s
m ir
t var
en v
ĠS ub
ap ter
Ġun its
ĠR ule
mpl ate
Ġh ard
nt ype
Ġ2 2
th read
Ġdo ing
vi der
min ator
IN G
Ġsu c
Ġ7 9
Ġcre ates
Ġwrap per
orm ant
Ġwork s
Ġâ Ģ
Ġdecl ar
Ġevalu ated
eip s
ĠBu ilder
ĠInitializ able
' ]);\
A ct
F A
f ailed
t common
in el
Ġt re
Ġt ext
at ab
un chain
ce l
() `,
Ġ#[ $
Ġst eps
ĠA ss
Ġex tract
12 3
ib ly
ĠIn ternal
Ġtra cing
Ġtra iling
ĠAl so
ĠFor mat
Ġbec om
Ġsub slice
ten s
Access Manager
Ġagain st
ĠRef Cell
Ġlead ing
ĠSource Iter
Ġmulti plication
Th reshold
Ap pro
Ġbeg inning
Ġsuc ceed
atab ase
unchain ed
0 8
P art
f lags
m art
o y
p ub
s mall
x or
} ):
Ġ link
\" \\
Ġf lags
Ġb asic
Ġre port
li f
ĠF uture
Ġex pl
Ġde ploy
Ġr adix
im mediate
12 7
10 1
rop osal
In ter
are a
Ġpre v
ĠL L
ĠL oc
Ġsu fficient
ĠG et
Ġconc er
Ġmatch ing
Ġj ump
erve Error
ĠOn ce
ĠRem oves
Res erveError
optim ize
ĠTrustedRandomAccess NoCoerce
Ġalias ing
Ġsimp ly
lead ing
BytesTo Address
D e
U M
c lear
i log
n de
} .\
Ġ` +
Ġs calar
Ġm oving
de struct
iz ing
ch anged
ĠR ever
act er
ef t
Ġalloc ations
ition al
ĠCon tracts
ifi es
su me
Ġtrans mut
tx s
âĶĢâĶĢ âĶĢâĶ
base d
Ġperform ance
Val ue
ĠUnique Rc
Ġincre ment
UL T
ĠGener al
loss y
wor k
Ġpat hs
123456 78
ĠLL VM
E dge
G et
T his
_ \",
c ancel
e a
in es
le ak
le gacy
Ġc opied
Ġ\" [
Ġre cip
ĠS calar
il er
con v
Ġg ive
ĠO wn
ĠP ayload
ĠP ublic
ress ion
Ġat temp
Iter able
ind ices
>> ::
Ġcont inue
ist ic
ĠCon text
sol c
with out
mem ber
Ġ) *
Re vert
trans parent
Ġoptim ized
EIP S
ĠBy teString
Ġes cape
Ġrece ive
Ġnam es
ircu it
. )
E scape
G U
R ep
S chedule
T x
c le
f it
f ull
m iss
t ask
re st
\" .\
Ġ` !
Ġp urpose
(& '
ĠC or
ĠE xtend
Ġex tens
Ġde code
Ġ2 00
Ġcan cel
Ġwh y
up gradeable
Ġcomp ared
gn itude
Str uct
Ġrequire ment
Ġmin us
Ġcopy ing
^^^^^^^^ ^^^^^^^^
ĠUnique Arc
Res idual
Ġrecomm ended
' ll
A SE
M ax
N um
P ro
S wap
c arry
d angling
g istry
l and
Ġ er
al ive
Ġre ceiver
ab stract
Ġd uplic
con trol
ĠR el
Ġ2 56
MA IN
Ġfollow ed
Ġnode s
Range Inclusive
Ġsm allest
ffff ffff
select or
AY ER
ĠAccess Control
()? ;\
Unsigned T
rypt ograph
IE TF
! \");\
> ().
A G
A BI
R O
V otes
b reak
c atch
x ED
y ing
z anti
Ġ` '
ut ive
Ġm int
() -
Ġw r
Ġw on
lo or
ent ion
Ġ1 8
Ġun changed
ĠC String
ĠN o
LE S
Ġar g
Or Internal
ĠUn safeCell
//////////////////////////////// ////////////////////////////////
Ġcre ation
Ġwor ld
Ġinter pre
align ment
sec utive
Ġes caped
Ġcause s
nI t
Ġsepar ate
Tra it
Place Iterable
zanti um
' ];\
3 75
> ()`
D EC
P inned
S Y
c f
f ill
i se
or ing
Ġp ar
Ġre placed
li braries
ol der
Ġ1 000
act ive
Ġde s
Ġ_ ,
Ġus ually
ĠG NU
Ġhas her
Ġoverflow ing
ĠUn defined
Ġstate ments
Ġsub tra
allow ed
Ġformat ted
Sign ature
chain ing
ĠNaN s
{} ,\
Contract s
Atomic U
Leaf OrInternal
Ar guments
NE G
ĠSlice Index
Ġthing s
ivial Clone
Enumer able
ropert ies
2 00
B inaryHeap
S end
l ude
p y
r andom
y land
Ġ utf
on ents
re t
\" ]);\
Ġf illed
Ġc atch
Ġs it
Ġm ath
ar ly
om in
int ain
iz er
iz es
== \
ĠC ode
ĠE thereum
Ġal tern
Ġh int
str ip
12 56
Ġtr igger
Ġres pon
Ġat t
Ġmem ber
)) ;
Ġhe ight
(| (
ĠUn icode
Ġgener ator
Ġ.. =
Ġread s
FF SE
Ġad v
Ġinsert ion
Ġindic ating
âĢ Ļ
Ġdere ference
IAoxc Core
ĠLess er
D is
F usedIterator
P oll
U S
g es
m ain
s im
s qrt
t case
Ġ rustc
Ġc lear
ut ion
Ġo mitted
Ġp in
Ġp op
de st
de code
Ġin struction
ĠS MT
Ġe fficient
ĠT ypes
Ġ[ \
Ġd angling
con cat
(& **
Ġcomp lete
Ġus ual
vi a
ĠUn bounded
Ġsign ers
Ġtest ing
Storage Location
Ex act
\") ]);\
aw ait
Ġac ross
Ġprop ag
ĠAdd s
Le ss
Unique Rc
gr ant
ĠRaw Vec
Alloc ator
ĠRequ ired
Ġregard less
9 5
< \
E P
E xt
T rusted
b ook
c q
c x
p ayable
v ing
Ġ Q
Ġ ra
Ġ ZST
in structionSet
le ms
an bul
ing er
Ġp arse
ar m
Ġre strict
Ġn one
et o
Ġcon versions
Ġd id
Ġun specified
ĠR ead
Ġ`` --
rap per
init e
ex port
NT AX
ari ant
Ġstruct s
Ġoverflow s
return s
Ġgener ate
pos itive
lang uage
Ġtime stamp
cod ing
Ġperform ed
So cketAddr
Ġma intain
dif f
Ġsepar ator
CO DE
Ġindic ates
RU LES
ĠLAN GU
Ġcomm and
SY NTAX
cq Rel
ĠLANGU AGE
> ());\
C ategory
I f
N ew
R AC
S mall
T y
W tf
n Function
p one
p Category
re n
or test
Ġf ill
Ġb oolean
Ġm y
Ġm erge
Ġre versed
Ġ( !
Ġ( (
---- --
eq ual
ĠC ap
ĠĠĠĠĠĠĠĠĠĠĠĠĠĠĠĠ ĠĠĠĠĠĠĠĠĠ
ĠH ere
Ġpanic king
Ġsafe ly
Ex ecution
Ġad j
Ġpattern s
Ġhel p
Ġimp lies
ĠRequ ire
dynamic Gas
Ġsubtra ction
1256 87
pone yland
! `]
- |
D AT
E xtend
P ending
S ub
Z eppelin
p lied
r ash
t jt
w rit
w itch
Ã ©
Ġ )]\
\" )?;\
Ġf ine
al ity
en Zeppelin
Ġs er
Ġs urrogate
Ġs ynchron
Ġp ut
Ġm iddle
Ġin trod
Ġre pe
li brary
ĠA p
ĠC l
Ġ# \
ĠO verflow
Ġ_ ;\
ĠU p
16 0
Ġ3 1
Un bounded
Ġkey word
Ch ain
FF F
ilt Payload
Ġoption al
Ġobject s
!(\"{ :?}\",
Ġdepend ing
F I
P ausable
R ight
] <[
` ),
f d
f ree
i mp
n ow
in place
on d
re cover
Ġ` _
Ġh ad
ĠB ut
qu are
Ġiter ate
so cket
Ġme chan
Ġmult ip
ĠRange Inclusive
Ġswap ped
LO G
ump t
Ġte mplate
Partial Ord
xx xx
oper ator
Ġcalcul ate
ĠRaw Waker
Pr imitive
Ġtempor ary
375 72
G H
L ON
O UT
c ion
k io
n is
st anbul
se cond
Ġs chedule
Ġn ul
ap ters
Ġ1 15
ch mark
== =\
lin ux
per se
ĠThe y
Ġimpl s
NT IS
::< [
Ġmemory Size
oo se
Ġnon zero
sol ute
Ġtrans ient
Ġblock s
Ġread ing
vide s
SI LON
ĠOp enZeppelin
ys is
Ġinclude s
Tra cer
Ġter ms
haust ive
<() >
Ġbecom es
NTIS SA
9 7
? \
A uthor
P attern
S EC
W rapping
f s
i ke
on ing
on ical
it al
Ġc heap
Ġ\" )?;\")]\
Ġm aking
#[ $
Ġw ake
li de
Ġcon struction
Ġun stable
Ġex clusive
ĠP U
iter ation
ĠEx p
ex haustive
ĠIn s
fin ity
ft ware
Ġend s
::{ \
Ġk v
Ġzero s
76 2
Ġreg ular
Ġali ve
Deref Mut
Unique Arc
Ġdefin e
trail ing
ĠRel axed
* (
E S
P er
S aturating
b d
d at
Ġ lock
in co
Ġf b
Ġf it
un implemented
Ġb id
Ġp ast
ĠT ake
ro y
ĠR Chunks
me ssage
Ġ2 1
per i
Ġ< $
Ġoper and
Ġen c
ide s
Ġ&[ '
Ġhe x
Ġ9 3
eque st
exp osed
like ly
Ġqu ick
AD MIN
Atomic Bool
Ġplat form
ĠPro vides
Ġcast ing
Ġdetermin e
Ġfra ctional
Raw Waker
ud it
MAIN NET
grant Role
inco herent
> (),\
A ny
C ount
D ummy
H andle
M e
b n
b efore
f loor
m erge
p ivot
r iate
r fc
v olatile
Ġc r
Ġs aturating
ce il
Ġw aker
de termin
tr ie
ation al
`] ,\
ĠN AN
Ġg row
Ġon es
Ġ4 39
rop riate
Ġus ers
Ġen code
os ition
point s
Ġbound ed
From Str
Ġoptim ize
Ġrun s
Ġrun ning
ens ive
Ġyield ed
Ġbuild s
Ar gs
Ġ$( #[$
cu ss
DefaultAdmin Rules
js on
Test Dummy
trunc ate
Ġben ef
rash TestDummy
A rray
C tx
c um
n Solidity
z e
Ġ Zero
Ġp oll
de alloc
Ġth ird
et imes
int s
ĠA I
ĠA cquire
.. ).
0000 00
Ġde ad
Ġ`` <
oc ol
tract If
Ġadd ing
Ġpre cise
Ġ6 69
est s
sh ake
non ce
Ġpart ition
Gas Change
EC H
Ġ9 38
Ġbit wise
Range To
Ġapp ropriate
sup port
ĠDeref Mut
Ġhold s
urther more
Ġrecip ient
K V
N ICAL
e g
i mple
i ption
s ound
x B
Ġ (),
it iz
Ġf ailed
Ġf ilter
Ġf inite
Ġre cur
Ġle aving
ĠT ra
ĠT ECH
ĠA sync
Ġ1 9
ĠN ow
ĠP arse
Ġ2 3
cl ic
add itional
Ġ6 8
ause d
ST AND
XL AYER
84 4
Ġdis cuss
Ġad min
ĠCh unks
LO AD
down grade
Ġdescrib ed
Ġcorrespon ds
ĠPre compiled
dis joint
Ġcolle ct
Ġident ical
Alloc Error
\")) ]
Ġcounter part
wor ld
Ġrel ative
Ġ419 4
coer ce
ĠSearch Step
ARD S
ĠRever se
omin ator
peri mental
itiz en
ĠTECH NICAL
STAND ARDS
7 20
N ever
P air
T ER
` )\
c ow
n ul
n ap
o ke
Ġ ~
he art
Ġc over
:: __
un nel
Ġre cover
!( !(
Ġv table
Ġcon tr
Ġbe ha
ĠR un
ĠF ree
cl ass
ĠU npin
Ġ3 6
256 6
Ġsh l
omic on
Ġbu g
back ward
ĠG o
MA NTISSA
ark le
Ġbec ome
ecut ed
pro ject
Ġallow ance
Ġsub string
ĠStr uct
Ġinter mediate
orm ally
ĠCre ate
46 26
Ġconsum ing
acc um
Ġpass ing
Ġrespect ively
metr ics
Rep air
Ġextens ion
EP SILON
Ġrepe ated
Ġmechan ism
B ase
H ex
J ump
S ER
] >,
b en
c ord
g u
h older
o vi
t xt
y ul
Ï Ģ
Ġ ]\
Ġa uthor
Ġf ew
un der
un reachable
Ġ\" );\")]\
Ġre ally
ĠI N
ĠI d
ĠC rashTestDummy
ĠN E
\\ \\
Ġde lete
el t
Ġconst ants
Ġwh ose
Ġ3 3
ĠL ike
be gin
fin ished
Ġab solute
Ġindex ing
Ġme ant
ĠUn safe
Ġset ting
Ġid s
Ġgiv es
Ġinter val
Ġdis c
Ġdis able
Ġapp lying
ful ly
Ġsupport s
Atomic Ptr
Builder Error
Ġassign ment
Ġdist in
Ġcomput ed
nb sp
][.. ]));\
Ġinherit ance
ĠWh ile
Ġimmediate ly
mult iple
lar ge
) (
- `
F L
O RE
^ (
f inger
h ack
n a
n abstract
p ure
v table
le g
Ġ\" ;\")]\
Ġp ost
Ġin lin
Ġe tc
li ve
ĠA ssert
Ġun init
Ġun icode
ĠE mits
ĠF pCategory
.. .\
Ġ} ;
ĠB ITS
In it
ire ction
pre lude
ĠIn PlaceIterable
ist er
ĠCon sum
ual T
pr im
ha usted
Ġdis allowed
Ġavoid s
field s
Into Iterator
ĠOn ly
(.. ,
Ġrequest ed
PO W
bl ack
Wh ile
interface s
Ġmark ed
Ġpotent ially
carry ing
Ġdes ired
ĠSMT Checker
ĠRequire ments
+ --------------------------------
D SA
E F
P A
W rapper
b a
b f
f allback
k ind
m metr
n struct
se quent
Ġc a
ut o
Ġo pt
Ġp ay
() `\
() ))\
Ġre v
Ġu b
Ġ( _,
!( '
!( [
ĠF loat
if ference
safe ty
Ġ2 55
11 2566
qu en
Ġ3 4
Ġse archer
!(\" [`
Ġcode gen
Ġmod ified
Ġinitial ize
comp iler
For mat
Ġinter ior
Ġequal ity
>(& '
has her
LO C
>`_ .\
Ġevalu ation
Ġdetermin es
ĠLe af
:? }
Ġpropert ies
enum erate
ĠZ ip
lide an
ĠPU SH
Ġbeha ves
2 55
4 762
A ll
D up
E vent
M ul
M atch
N umber
N aN
g row
n or
o urce
o ked
Ã ¼
Ġ lowercase
in ation
re vert
re tain
st eps
it le
Ġf unc
Ġ` ?
un ct
Ġ{ }\",
Ġm anually
Ġn or
ul ative
li p
as ing
ĠE mpty
ne cess
Ġde posit
end s
Ġ_ :
10 5
ER O
>> `
IN SER
Ġup on
IT I
Ġ7 8
Ġbound aries
Ġcons ist
ĠArc Inner
FF FF
Ġstore s
ĠFrom Iterator
Ġ($ (\
ĠAccess Manager
Ġprob lem
bl s
urrent ly
Ġbeh ind
FA ULT
mmetr ic
) `\
E nd
F ixed
M int
S rc
` -
g ress
l ate
p ad
re l
at ibility
or ld
Ġf lashblocks
an nel
Ġw tf
de pend
Ġin str
Ġin finite
ab etic
ĠS im
Ġth reshold
ĠT arget
as m
pe ar
ĠE X
ĠO ver
ĠO ccupied
Ġ2 5
Ġ2 9
Ġpoint ed
add ed
Ġwh itespace
ex ample
Ġcomp onents
Ġli braries
Ġ6 0
(| _|
From Dyn
ST ORE
cr ipt
Ġrepresent ing
oss ible
Ġcap ture
Bu iltPayload
Ġposs ibly
Ġread y
Ġgo ing
ĠAs Ref
Ġprodu ced
ĠError s
Ġwork ing
ĠTh us
ys ical
ĠAtomic Bool
UN K
HA SH
Ġsom etimes
}' ],
Ġdere fer
Dec od
ĠSign er
Ġobtain ed
patch FromDyn
Ġnan os
& &
' .\
2 77
I stanbul
L azy
L eft
n W
r adix
t imes
Ġp rom
tr ibute
ĠS ame
ĠT akes
et ch
ent inel
`` )
Ġst and
), +
Ġun wrap
Ġun used
ĠR Split
Ġal gebraic
Ġal most
ĠP eek
to ols
Ġpoint ee
Ġ4 3
pre dicate
!(\" {}\",
ition ally
ĠCon sider
Ġlo ss
Ġstart s
Ġcompil ation
Ġcom ments
Non ce
Bu ild
trans mut
Ġsup plied
Ġclo se
ĠTry ReserveError
53 3
hel pers
Ġsy mbol
Ġcl oning
future s
Ġmode l
Align ment
Ġlarge st
Try From
Ġnecess arily
Ġsen se
URI Storage
Ġvis ible
Ġfact or
entrancy Guard
Ġanal ysis
ici ary
Ġdiscuss ion
720 1
unct uation
, )+
F ee
F used
J UM
O D
P arse
R ec
e ed
g gest
m ode
s erve
t DUP
t SWAP
y le
Ġt mp
on om
Ġf re
Ġf ee
de pth
Ġre n
li ct
li ght
Ġ2 7
11 1
ff i
Ġ7 18
ĠUn size
with in
EI GH
Ġallow ing
Ġcom es
Ġrepresent able
ĠRc Inner
By te
chain Rules
spec ial
Int Error
Ġconvert ing
EX T
---+ ---+
Coerce Unsized
loss less
sens itive
At tributes
ĠAlign ment
Ġrecur s
EIGH T
! (),\
' ve
> (),
B ig
F lashblocks
H EIGHT
L im
T r
f ra
g ments
g ine
i pe
i sed
m an
r ant
t ag
t ies
u ages
w ice
Ġ (),\
Ġt able
at us
or ter
Ġf latten
Ġm achine
om ain
Ġre peat
Ġre trie
ĠS ets
et er
ĠA d
con sider
Ġun sound
ĠC H
Ġr iskScore
ĠB oth
-------- --
Ġ_ )
ĠD isplay
ers on
ĠM IR
Ġ' _
map ped
ĠIn stead
ang ing
Ġ6 5
Ġab stract
Ġpr ot
Ġpr ior
non null
Ġvari ous
Ref Mut
Ġwor st
trans actions
ext ens
Ġdif fer
Ġdoc s
Ġunder flow
ĠSh r
Ġmacro s
Ġconvert s
Acc ount
SI G
Ġreg ion
Sh ort
order ed
Ġoccur s
nth at
cor outine
ĠAr guments
}' ],\
Ġstrict ly
Ġcoer cion
Ġrestri ctions
12345678 90
INSER TS
' \
' ..=
/ `
> </
B L
B id
G reater
P roperties
R ust
T H
c lo
c old
f illed
j oin
m er
n contract
n Note
t mp
re te
\" ))]\
it ies
Ġf ence
Ġc lient
Ġp eek
li able
con structor
ĠC Str
ĠF RAC
ver al
low ance
Ġwith draw
ĠP tr
Ġ2 6
pl its
tern ally
Ġres ol
Ġres erved
ĠW AR
Ġsh ares
ĠL et
am ount
Ġconc rete
ĠH el
Ġconcat en
Ġexp osed
AT E
und s
count ed
Ġid entifier
OR AGE
ific ally
OVER NAN
Range From
ĠTrusted Fused
ĠAoxc Events
Ġperform s
Buf fer
Ġbuild ing
ĠPro venance
UP S
<_>> ();\
Ġassum ing
ryptograph y
Ġaltern ative
ĠPrecompiled Contracts
OVERNAN CE
= `
C reate
L og
O FFSE
P ush
` :
a e
j e
l abel
n of
o ad
p at
w ide
z st
it ect
Ġf etch
an ced
Ġp ow
Ġp ending
ar ator
]\ \
Ġin ference
Ġre tain
ic ograph
Ġst op
Ġd a
ĠF latten
Ġde allocated
Ġde velo
ĠThe n
Ġ$ )
Ġse veral
Ġres erve
Ġen v
ib ut
cii Char
fin e
Ġab i
led ge
Ġvalid ity
comp arison
77 39
99 9
15 0
Ġcom ment
Ex ample
29 81
panic king
ĠCO RE
Ġgo od
Point ee
Ġcl oned
Ġver ify
Ġhead er
Al lowance
Ġfin ished
Ġ$( ,
pattern s
Ġrefer enced
Fn Mut
Ġdest ination
Wh itespace
ĠVal ues
iet f
Ġconf lict
Ġdec imals
ĠLoc al
FFF D
ĠNAN OS
PA IR
extens ions
' )));\
D one
M ult
c s
t p
t op
t here
t itle
u ctions
v ant
st and
Ġc rit
Ġc old
Ġb ar
Ġm oves
() ))
Ġw ays
de f
Ġin finity
Ġre al
ul ation
li er
Ġlet ters
ot print
ĠI s
ch itect
Ġ[` &
Ġg ot
Ġde te
Ġde legate
Ġfunction ality
us er
** :
In fallible
th ough
ĠW rite
ĠL O
am b
cap ture
Ġcont iguous
su ch
sub normal
Ref und
34 12
Ġop en
pend ing
sign ers
Type Id
cre ase
fo otprint
sp ender
Se arch
58 533
Ġdirect ory
Ġfeature s
DE FAULT
Ġâ ī
Uint Overflow
Ġhig hest
Ġtransfer s
Ġport ability
cent ly
AB LE
Ġsatisf y
Ġshr ink
ĠSocketAddr V
Ġproposal Id
oy alty
Ġrespon s
Ġdistin ct
ĠConsum es
depend ent
D o
L I
S S
V eto
] `,
g t
g roup
n C
n omicon
o ison
x F
x ffff
} ,
in cluding
re ceipt
re liable
\" );
se l
al one
Ġ\" ../
Ġp h
ss ages
tr ics
ĠS kip
Ġi de
Ġv ot
ig r
ch r
Ġassert ion
Ġun aligned
`] :\
Ġal loy
Ġg en
um eric
Ġne st
Ġde allocate
Ġy ul
ers ion
ĠM em
ex clusive
Ġ5 5
Ġli b
Ġpre fer
Ġpre ced
Ġel t
am ically
am big
Ġev ents
Ġsu ggest
Ġ/ =
ĠAlloc ates
Ġinter act
)? )
Ġdif f
19 8
Ġact ive
Ġgo es
av es
Ġdiv is
AR T
ĠAdd r
Val id
xa decimal
Ġrece ived
Ġdest roy
AB A
sens us
cont iguous
ĠCursor Mut
Cursor Mut
Ġasset s
Local Waker
Ġdead line
class ify
FL AG
necess ary
Ġinstr uctions
UPS Upgradeable
! \",
# .
/ ``
A O
A SCII
C olle
E N
F lashblock
M ultiSignerERC
O ne
R T
U til
b ody
e ar
g ing
z z
re ceiver
re duce
Ġc x
Ġc opies
an umeric
Ġo ct
Ġm is
Ġin herent
Ġn ormally
Ġto kio
Ġe ther
ĠA ST
con f
ĠF lashblocks
ver age
ĠN ew
ĠP lease
Ġ} .
Ġmut ation
ĠD er
ĠV acant
ĠU R
ĠW rit
ĠW TF
Ġmem bers
Ġonly Role
::< \",
IN Y
>` .
ass ing
sh ot
clu de
pr ivate
Re ce
ID E
19 2
ask s
Code Point
Ġ12 5
ĠSt andard
59 8
Ġhel per
mid point
Ġdetermin ed
Ġhand ling
ĠBu ild
Ġrefer s
link s
UN S
Ġdown cast
PO S
ĠBit Or
role Id
Ġdist ance
Ġlook up
Ġassum es
Raw Vec
Ġ419 43
ðŁĴ ©
00000000000000000000000000000000000000000000000000000000 0000000
nY ou
Out Of
Ġtyp ically
Inter face
Ġconcer ns
ĠIns ert
ĠSim ilar
Decod ed
> `][
B l
C ase
M y
M od
S calar
V er
] \",\
] >::
` ;\
` /`
c her
c ending
c ryptography
s cheduler
Ġt en
Ġa ch
re g
le vant
se quence
Ġs a
Ġs ized
an k
Ġm er
de allocate
ic ult
ĠS T
Ġe st
ur i
ul ate
ad apters
Ġ1 12
ĠC an
Ġh o
ĠO ptim
ec ur
ome stead
ĠV a
ĠU sed
ĠM ut
ĠM ore
ĠM ultiSignerERC
Ġpre serve
res idual
Ġ7 7
MA L
ass oc
ĠUn checked
Ġass umpt
Re gistry
copy sign
cre ate
ĠAdd itionally
Ġqu iet
Ġes c
ook s
Ġhig her
Ġplace s
)`` :
Man aged
Ġ(& '
ĠEn try
Ġendian ness
Ġviol ated
need le
hig h
Ġden ominator
Ġclean up
Ġdeclar ations
nap shot
Ġach ie
2 001
E L
F ailed
Q RT
R oot
] ).
d ates
g raph
p acked
s lash
w ill
Ã ¶
Ġ ###
Ġa way
it ed
Ġ\" {
Ġ\" \",\
Ġm ed
Ġw ide
ĠS eqCst
Ġ( [`
Ġcon cept
Ġcon venience
Ġcon sume
0000 0
Ġmut ably
Ġ`` /
64 69
ac ing
ĠD atabase
iv en
12 1
th reshold
ĠW indows
ĠCon st
Ġrem oves
cur ity
Non ces
Ġsub ject
ĠStr ict
ift s
================ ====
\") ));\
exp onent
ĠDo es
AC ITY
Ġnum eric
IP v
Ġsignature s
AP ACITY
Ġsepar ated
Ġdepend s
Ġlang uages
ross chain
Ġprob lems
gener ic
<_>> (),
ĠDec ode
Ġexceed s
Ġexpl ain
AtomicU size
ĠReverse Searcher
' )
* (*
5 30
B ASE
E ip
M ulti
S p
S IDE
] ``
c p
i ation
n E
n n
n trait
p et
t dynamicGas
u lo
Ġt wice
re cently
un likely
Ġs qrt
Ġs quare
Ġto wards
ĠT wo
Ġd ed
Ġ* (
ch g
ĠC om
ĠC oerce
ĠC opies
ĠF ound
ĠF urthermore
ak a
Ġ} ),\
ir on
ĠM ax
Ġres ource
ER GE
th an
Ġat tribute
Ġch oose
Ġch annel
FE CT
ĠOption al
vi ce
sh ortest
Ġhe xadecimal
Ġmay be
Gas EIP
Gas UintOverflow
gh ost
ll vm
Arc Inner
ID ENTITY
Ġsub slices
Ġsp arkle
On ly
ĠRange From
ĠPoint er
Ġhel lo
Ġinvalid ate
Ġimp ro
ĠSe aled
ph ysical
}` \",\
14377 5
gen esis
Ġeffect s
optim ism
Ġfailure s
Ġflo or
HA VE
Ġdefinit ions
Ġprim itives
Ġopcode s
Ġunwind ing
alph abetic
alph anumeric
hig hest
ĠRes idual
Act ive
ĠOwn ed
SocketAddr V
EF FECT
Ġ`? `
ITI VE
nW hen
sel ves
POS ITIVE
ĠInsert s
' )\
> `]:
A NT
C an
C ircuit
O per
P osition
T e
T INY
e ys
l ittle
â Ī
Ġ ]);\
Ġ lines
Ġf low
Ġf ix
en cing
en coded
Ġs low
ct ype
Ġin cluded
`` ,\
Ġst age
ay er
Ġ& $
ĠF use
const ants
Ġne ural
Ġr fold
ĠB ook
11 7
ĠEx tractIf
iv ity
Ġl amb
Ġtr im
ex tern
ĠW orld
Iter Inner
Ġcomp atibility
not her
pec ially
ard fork
Con secutive
struct ure
Error Code
13 6469
Ġme ssages
Ġsign aling
su fficient
Ġvari ants
Ġset s
Ġj ob
From Iterator
Ġ) ?
max imum
Ġcor outine
let ed
Ġtry ing
Sign ers
Ġborrow s
ĠRe lease
Ġwant ed
nA s
pow i
Ġfin ish
Ġevery thing
Token s
Ġlimit ed
Ar g
Mem Size
ĠRef Mut
ĠBorrow ed
ob ject
Ġload s
As set
Ġinv ol
Ġ`- `
Ġport ion
do uble
Ġcare ful
usable s
ateg y
Ġcomput ation
ĦâĶĦâĶ ĦâĶĦâĶ
~~ ~~
origin al
Ġwr iter
ĠCode Point
ĠRequired Gas
Trusted Len
Ġenv iron
chitect ure
Util s
conf usables
Rece ived
4 80
: **
> ;
B urn
E vm
F ull
I m
R em
S ORT
] ;
a ired
a Ã©
b stract
d c
n B
s mart
} .
Ġ ../
Ġt aking
se q
or dering
it ing
Ġf used
al y
en coding
Ġb urn
Ġp added
ar ithm
de legate
Ġin f
Ġre d
Ġle ave
Ġ[ -
`` ):
ĠA N
id ge
Ġde leg
Ġr ule
check er
ef fect
ex us
Ġpre compile
Ġsh ow
alloc ating
)) )
Ġ6 89
13 3
Ġmap ped
Ġ&[ _
Ġinst all
AT IC
pro vider
Re ject
Re ceipt
ific ations
Ġremain s
Ġ.. .,
By zantium
exp ression
Ġreason s
Ġlog arithm
Ġevent ually
Ġmapping s
UR AL
Ġspecial ization
22 00
ĠCheck ed
Ġinv oc
dis able
Ġport able
ĠImplement ing
ĠImplement ation
ĠAtomic Ptr
Ġentire ly
ĠAt temp
Ġeas ily
nde fine
Ġra ces
ĠTra it
Pair ing
Ġgen esis
Ġnest ed
) `]:
< *
A sync
A cqRel
L D
S ort
V ault
a ut
d ices
f unnel
l ished
m ing
m int
r ift
u ations
v a
Ġ ());\
\" ``
at Spec
he mat
Ġc ached
Ġs z
Ġb ro
Ġp lease
Ġw ish
Ġin ternally
Ġre ceipt
ul Error
Ġ[ *
Ġfor ce
Ġ* [
Ġun expected
ne x
ĠF ile
Ġas cending
ĠO R
Ġde q
Ġr c
Ġconst ra
im ate
ĠM in
ĠM ult
ĠM oves
Ġcomp atible
min imum
est ed
ĠG uard
co ur
Ġexp ensive
Ġsign al
ĠK V
pro cess
EC DSA
Set Bytes
Re entrancyGuard
Ġap pear
Rc Inner
ĠErr GasUintOverflow
Ġequal s
Ġdoc ument
borrow ed
Ġaccess ing
Ġexecut or
fix ed
Ġoverr idden
Ġmat ched
Ġdiv ide
mute From
ĠAdd ress
ĠTo Owned
LO T
current ly
bin op
can not
Ġsuccess ful
Ġder ive
Ġchain ing
Ġbalance s
Ġter min
Ġprob ably
######## ########
balance s
Ġconstruct ed
OP Y
Pre compiled
ĠFunction s
ĠDis patchFromDyn
ĠLazy Cell
ĠLazy Leaf
Appro val
Ġsucceed s
Ġ)* )\
Ġer c
Ġintrod uc
Me ssage
mode l
Ġren der
Ġdete ct
igr ation
' ).
) ``\
E mpty
P ure
U se
X or
Z ERO
b ut
d isplay
f ence
g re
i ses
o ost
p adding
u ched
y m
Ġ que
Ġ ];\
Ŀ ¤
er y
st ant
or ph
it ness
Ġf ore
Ġf all
Ġ` ..
ing s
ar ant
Ġre achable
ĠS imple
Ġe arly
et ers
ot org
Ġfor get
ol ate
Ġbe gin
con venience
te ger
ĠE qu
ĠE ach
ĠF in
ĠF ilter
ver y
Ġg cd
ack age
Ġne ither
Ġde sign
per iod
Ġr isk
Ġ+ +
Ġ_ )|
ĠD ata
ĠU tf
56 3412
ĠM ay
ex ternal
Ġcomp onent
Ġcomp aring
Ġpre ferred
ĠĠĠĠĠĠĠĠĠĠĠĠĠĠĠĠ ĠĠĠĠĠĠĠĠ
13 63
Ġ10 24
string ify
pro ve
Ġj oin
inter section
tx n
ĠAn d
sign ificant
30 1
Len gth
Ġthem selves
Ġsecond s
Ġwhe never
Ġhandle s
Builder Ctx
ĠSpec ial
Ġma gnitude
ĠNode Type
entr ies
Ġmid point
Ġrot ate
numer ic
ĠChar acter
Ġ80 80
Ġnam ed
Ġsimp lif
Ġstructure s
Transaction Error
sc ale
Ġtrunc ated
ĠCor outine
Ġsit uations
Ġrestrict ed
Ġsynchron ization
ovi an
ĠEX P
Ġstand alone
ĠMem ory
ĠWrit es
ecur ity
ĠCoerce Unsized
Ġenviron ment
Ġinvoc ation
( !
* .\
. $
> ]
B atch
E s
N N
O ccupied
P aram
R N
T I
T O
_ )
b oth
c v
l azy
p acket
r idge
s z
w er
w tf
re am
re placed
Ġf u
ut ility
Ġb ash
() [
Ġin div
fe time
Ġre set
Ġre duce
Ġn et
es c
ic ro
Ġi p
ĠT uple
Ġan not
Ġst atus
Ġd istr
Ġd ormant
pe x
Ġassert ions
Ġun sized
low est
Ġex hausted
Ġg reate
ĠP ar
Ġ} };\
Ġ`` \"
ĠD ifference
Ġl hs
ĠM od
ĠM ake
ĠM ulti
Ġ| =
Ġres olve
ĠW aker
>> \
>> >,\
IT H
AN CE
MA LL
form ed
Ġ&[ ]);\
ĠUn signed
Ġinte gr
ov ariant
we ight
Ġorder ed
ST ATIC
15 59
Ġcons istent
Ġper cent
Ġcount s
TU RN
our s
]> </
Ġdis play
ma gnitude
Se aled
ĠSt art
ĠCh ain
uc d
format ting
Atomic I
memory Size
Ġhand ler
arg otorg
Ġeffect ively
Ġaut o
ĠImplement ations
interface Id
Ġco ef
ĠInter section
Act ualT
LOG IC
Ġschedule d
Ġenc ounter
Ġdisc ard
Tr ivialClone
Short Circuit
BL S
OFFSE T
Ġ$(, )?)
Ġgreate st
. \"\
9 84
> .
B D
C l
D st
E lement
F unc
O ver
P hantom
P acked
R UNS
T BD
W ord
^ \
b et
b lem
b asic
g ment
i ased
m ixed
v oid
¸ ı
ï ¸ı
Ġ lf
Ġ rust
Ġ XLAYER
un bounded
Ġb in
Ġre ached
ĠS I
ro unded
ĠA rray
ch n
con version
ĠC ast
ĠE xt
ack list
rr ays
ort s
ĠV M
ĠV ari
ĠM ul
ĠM ove
In dices
ex ecute
Ġover lapping
Ġsh orter
Ġen tr
gn u
am es
Ġcont in
ist ically
ĠCon tract
Ġend ed
Ġlo ops
ON E
Ġinitial izing
Re verse
]) *\
ST ORAGE
()` .
Up dated
Ġback wards
MIN US
ces sed
scr ipt
Ġcorrect ness
Ġes pecially
Ġshift ing
AD D
Ġlife times
ĠSpec Extend
run time
encode Packed
Ġinterface Id
big int
ĠBu f
entr ant
Ġincre ase
ĠImplement s
Fn Once
Ġstatic ally
Ġcalcul ation
Ġline ar
sc end
loop back
ðŁĴ ĸ
Ġcombin ed
Ġignore d
sy mbol
Ġdeploy ed
Ġcomplete ly
cx chg
!(\"[` \",
consider ed
Ġmed ian
ĠEqu ivalent
bet ween
) *\
- _
C ustom
C lear
H ardfork
S ee
S store
S entinel
S LOT
V oice
f ort
f lt
g ap
m ay
n H
n which
s on
s ystem
t instructionSet
} \"),
re quest
at ter
or ies
Ġm store
() `].\
Ġin clusive
Ġre du
Ġle aves
ĠS ip
Ġv olatile
Ġcon sequence
ĠN ever
.. ..
Ġg roup
op le
iter s
Ġ_ |
ĠD yn
and shake
Ġ$ (\
Ġ4 26
Ġcall back
In put
Ġch ose
Ġch oice
Self destruct
FE E
put ation
Ġsh are
ĠĠĠĠĠĠĠĠĠĠĠĠĠĠĠĠ ĠĠĠĠĠĠĠĠĠĠĠĠĠĠĠĠĠĠĠ
ĠĠĠĠĠĠĠĠĠĠĠĠĠĠĠĠ ĠĠĠĠĠĠĠĠĠĠ
ave at
>> (&
---------------- ----
>( ())\
Ġ6 87
Ġmod ifications
Ġany more
14 2
AL I
ep arator
<& [
Ġexp and
ote ction
lic ing
pro duct
colle ction
Map ping
inter vals
vari ables
Ġsub tract
Ġsub sequent
Ġop Swap
Ġloc ations
sp ace
scr atch
Ġfuture s
ens ion
cy clic
Ġver ification
Val ZST
++ ++
Ġknow ledge
Own able
}` \"\
Ġspecific ally
gen cy
ĠAPI s
AccessControl DefaultAdminRules
Ġprevent ed
Ġdefin es
flatten ed
ĠTr ivialClone
Cost EIP
Swap Stack
Ġadv anced
Author ity
Ġcheap er
udit Voice
ĠNE URAL
Dup Stack
clo sure
Ġque ue
Ġentr ies
Custom Revert
- >
1 000
4 29
= ``,
= {}
> ()\
B ridge
G AT
G OVERNANCE
L ower
M OD
N ER
P ool
R oyalty
W ake
c un
h i
h ost
i len
n g
r is
r iskScore
v is
y ield
re w
\" ];\
se archer
se gments
Ġf lt
Ġc ol
Ġc ache
Ġ` \"
Ġs ay
Ġ\" >::
ct or
ĠS u
ĠS igned
ĠS MALL
Ġd l
Ġd ays
), *
Ġun known
ĠR equest
ĠF ind
ĠF ail
ĠF lashblock
if f
Ġg rant
per cent
Ġ_ >
Ġadd s
Ġelement wise
Ġli ve
NT ER
Ġpro ject
ance ll
![ ]);\
)) )\
::< (),
Add resses
LE GAT
Ġ6 3
Ġlo t
EC ALL
ous ly
Ġmin imal
Ex clusive
Ġgener ates
Ġper miss
To String
)? .
ose cond
30 8
Ġmake Push
EM ENT
ĠRange To
Ġoverr iding
Ġlog ical
av a
Ġint ention
(&[ '
Ġimp ossible
Ġconsum es
Ġdescr iption
Ġplace holder
Val ues
Ġtransfer red
ĠDrop Guard
Ġdyn amically
Ġbreak ing
Ġinv oked
built ins
Ġreplace ment
Ġter minator
gener al
Ġunlike ly
Ġben chmark
âĶĢâĶĢâĶĢâĶĢâĶĢâĶĢâĶĢâĶĢ âĶĢâĶĢâĶĢâĶĢâĶĢâĶĢâĶĢâĶĢ
Ġprecondition s
Ġdeclar ation
ĠPayload BuilderError
Ġpurpose s
Ġadj ac
Ġmultip ly
ĠRChunks Exact
RangeTo Inclusive
support ed
prim itives
late st
Ġcrit ical
Colle ction
ancell ation
LEGAT ECALL
' ));\
* ,
2 50
; &
> \",\
> ],\
C U
F S
F ield
J ob
R AN
S cript
` \")]\
f lag
n D
n are
p unctuation
t memorySize
w in
x FF
y cle
y ond
in Box
er lin
er ator
Ġa uction
he x
se par
Ġf p
Ġf unds
al t
al th
en cy
Ġb lob
Ġm et
de lete
Ġre mapping
Ġe ager
ĠT asks
!( (\",
ap prove
Ġcon vent
Ġd ur
ĠA ct
ĠI R
con sum
ĠC opied
ĠF ull
ir cum
iv ing
ĠM aybe
Ġ| &
Ġso ftware
ins pect
!(\" `
Ġpro je
ance s
os als
>> ,
)) `
ang le
ist ing
>` ,\
ĠH as
nf unction
su g
Ġvalid ation
Ġvalid ate
less ly
Ġget ting
Ġ) *\
ST RU
present ation
Ġback ward
IC UL
To Uninit
trans action
)` ,\
Ġwrap s
sign um
macro s
ĠCh ange
ĠRe vert
Ġprov iding
SI GN
hel per
Ġ../../ ../
Sh ot
Ġshift ed
Ġcl amp
Ġimp lied
aa aa
ceed ed
ĠSpec ifically
Ġevalu ates
Ġinterface s
euc lidean
dis criminant
Ġsequence s
Ġident ity
Ġsemant ically
Ġtuple s
Ġz ip
Ġviol ate
oct digit
Ġconfig uration
ĠVal id
Ġaccept s
Qu ick
Return s
Ġbeh ave
Ġsol c
ĠOnce Cell
Ġquick sort
ĠId x
quen cer
530 20
Im mut
rift sort
cour aged
Ġintroduc ed
Ġdistr ibut
Ġchose n
Ġadjac ent
' d
< (&'
A K
C pex
D igit
F ile
M P
M ode
V ector
V Table
Y ield
c ached
e vents
f unc
h o
j c
k es
l ish
n F
n ed
t ent
u ff
x y
// ///\
in tr
in crement
re lease
at ches
he xd
or ig
Ġs ur
Ġp ract
Ġp acked
om aly
Ġre ach
Ġre borrow
Ġre levant
ic he
ĠT ime
int ers
li minator
Ġst yle
Ġbe yond
ĠI AccessManager
con sensus
Ġun to
ĠC lient
//////// /////\
32 6
Ġde pth
ĠP roposal
ĠP assing
Ġcan onical
Ġ`` -
ial ized
Ġl t
Ġse en
Ġse curity
ex ecuted
Ġch anging
doc umentation
ight ly
be st
be havior
Ġ6 66
ĠAl low
Ġpr ice
Ġgu ide
ag ic
pro gress
ov able
offset s
From Cell
Ġcom plic
Ġ`& [
Ġbit or
75 78
Ġins pect
ict able
================ ========
Ġ12 52
ĠSh l
List Impl
ĠRe peat
ĠAs Mut
Ġreg ister
Once Cell
Ġ^ =
PL AC
Ġmode s
Ġdescrib e
Ġinstance s
------------ --
Ġrel ated
AccessControl Upgradeable
Ġrole Id
Ġtag s
Ġign oring
Ġsatisf ies
Ġ429 1
Ġcomplex ity
pair s
._ \
ormant Mut
âĶĢâĶĢâĶĢâĶ ¬
âĶĢâĶĢâĶĢâĶ ´
Pro vider
//////////////////////////////////////////////////////////////// /////////////\
Ġatt ack
Ġatt ached
Pausable Upgradeable
Ġpay ment
Lim it
Ġâī ¤
graph ic
ava Script
hexd igit
inters perse
Ġunto uched
! ()
) ]`
. __
4 844
A uto
D ests
G adget
I X
M ary
O F
P S
S u
S lot
U UPSUpgradeable
V ersion
W indows
[ :
d en
k s
n P
n as
n We
n No
r x
s calar
w hen
x E
Ġ ðŁĴ©
st ra
Ġc our
Ġs cheduler
() );\")]\
Ġin dicate
mp t
Ġle x
Ġ// ////////////////////////////////////////////////////////////////
Ġth row
ul ated
`` ).\
Ġst ay
ot ed
Ġcon secutive
Ġ& **
Ġun necessary
ĠC ase
rust fmt
ĠO per
um n
Ġnot ation
Ġde signed
ĠP hantom
Ġ3 5
th on
Ġpre vents
Ġsh ows
Ġpro duct
error s
::< &
ee ee
ĠIn itial
Ġ6 88
Ġmod ifiers
!($ ($
Error Kind
Ġ7 3
âĶ Ĥ
co der
lob ally
90 8
Ġinitial ly
nT here
34 5
Ġblock chain
ĠJ ump
Ġcal c
trans pose
br anch
24 0
By teString
================ ============
Type Properties
Access Managed
spec ific
bit or
wh at
iss ing
cal cul
{} )
Ġconsider s
Call EIP
ĠTo ken
DE LEGATECALL
Ġcl ones
(.. .)
lex ity
lex icograph
ĠSe archer
Ġenable s
Ġcomparison s
function s
element s
ĠSplit Inclusive
ĠEn code
ĠAr gument
xD C
ĠType Id
go od
Ġcontext s
------------ -+\
ĠBit And
Ġcost s
ĠMy Collection
Ġ\"` {
ĠTrans fer
shift s
ĠMap s
Lock ed
Ġrecomm end
Pre compile
Ġeas ier
Ġed ges
ĠOne Shot
Weight ed
Ġrestri ction
Ġtre at
ĠAss ume
ĠFormat ted
Ġexpl an
Ġattemp t
break ing
Enumerable Storage
imp lif
second s
determin istically
Ġbenef iciary
ocol Hash
ĠChunks Exact
POW ER
LOC K
7739 7739
OutOf Gas
Ġho pe
hemat ical
Ġnet work
PLAC EMENT
Ġcour se
Ġ////////////////////////////////////////////////////////////////// ////
' ,\
( ()),\
( ()));\
) `]
) `.
A ction
C om
D ep
E T
G AS
L i
O ther
S QRT
S eparator
a ign
e ping
n sort
p ment
p are
p inning
p roposal
r and
s ame
s aka
t contract
v irtual
ļ ł
Ġt ell
re ce
Ġc ross
Ġ` !`
un specified
ce Result
Ġm load
tr as
Ġre ject
Ġre cord
ĠS mall
ĠS plits
as hes
Ġv m
Ġv ote
ĠA cqRel
feature s
Ġ* =
Ġ& \"
`] '
ĠC urrently
ĠF ield
32 9
Ġg lobally
Ġ} ));\
Ġpub lished
set Signer
ĠEx perimental
12 2
Ġl ate
Ġl az
ĠM AY
ast er
for matter
Ġtr ies
Un safe
ition s
ĠIn valid
(\" \");\
Ġ6 53
Ġany way
14 69
13 7
13 7578
assert ions
ded up
Ġlength s
nT o
Ġ9 4
Ġap prox
Ġpl ain
split n
Ġwas n
($ ($
Ġunder stand
Option s
Code Hash
Code Copy
amp aign
On Drop
78 563412
Ġensure d
ĠNonZero I
ĠSt ore
ok ing
Char Eq
ĠAs ciiChar
Ġaccount s
Ġâ ļł
ĠPin CoerceUnsized
Ġslot s
Ġspecial ized
ĠRem ove
ĠSplit N
ĠBit Xor
ĠGener ic
Ġleak ed
Ġsend ing
Ġsatisf ied
!(& *
ĠEscape Default
pred ictable
Ġpreser ves
Ġduplic ate
Ġinterpre ted
Ġsit uation
Ġcontr ast
Ġca using
special ization
fra c
TH RE
Ġide a
Ġoct ets
Ġindiv idual
STATIC CALL
Ġbin aries
ancellation Token
Ġ////////////////////////////////////////////////////////////////////// ///\
Ġlaz ily
> ),\
B oy
E lem
I MAL
M in
R AD
R equest
a o
c ircuit
m ount
n var
r anges
s ingle
w asm
Ġ ::
Ġ ())
Ġa i
\" :\
at temp
Ġf ar
Ġf its
Ġ` $
:: /
Ġ{ $
Ġs can
Ġb ad
an cing
Ġ\" ../../
Ġp e
Ġm ention
de tail
lo sing
Ġre entrancy
Ġto ols
Ġle gacy
Ġe ps
Ġ( \",
00 7
ĠT est
Ġv ar
Ġ[ [
Ġd at
mut ation
Ġ1 50
ve ctor
ĠR ound
ĠE numer
ĠF CU
Ġh i
Ġex haust
od Boy
Ġr andom
ĠB oolean
set ting
Ġ_ >::
ĠV i
10 20
Ġse cs
th ree
ex tras
are st
Ġli e
Ġen force
Ġen gine
wrap per
Con tent
res olve
ref cell
ĠAl ways
Ġzero es
AT OR
Ġinitial izer
15 8
OR K
Access Events
Ġsp are
Range Bounds
Ġrevert ed
rag ue
Se lect
ĠSt orage
ĠRe place
format ted
Ġ\". /
{} ,
ĠAoxc Constants
([ (
Ġpure ly
Ġsort ing
Ġemit ted
Ġinvalid ated
Ġte chn
Payload Builder
Ġexponent iation
Ġhand led
As cii
AY OUT
Ġassign ments
ĠEn sure
Ġident ifiers
------------ +\
**************** ****************
Ġman ip
ĠVal ue
Ġkind s
ud io
need s
1010101010101010 1010101010101010
Ġneg ation
nY es
Ġpotent ial
ĠInter face
Ġpreser ved
Ġappro ved
Signed T
writ ten
ĠGo odBoy
gu arante
Lazy Cell
ĠHel per
ĠLocal Waker
Ġrespons ible
Ġexplain ed
Multi Exp
ĠAttemp ts
Ġdistribut ed
rece ive
Ġâļł ï¸ı
! ();\
( (),
( ()),
) ``.\
> &
> ],
> ())
C or
D I
F ront
L F
L AYOUT
O M
] >`
` ).
b at
b ecause
c ost
j ust
m m
n for
p ragma
r ing
â ģ
Ġ !(
in c
re cord
Ġf av
un ion
un size
Ġ{ {
Ġs witch
Ġs light
Ġo dd
Ġp ie
de scend
Ġre pr
Ġre play
Ġre lies
ab a
ic ked
able Primitive
ap er
Ġd b
Ġd raw
Ġd omain
Ġ1 11
Ġ1 59
pe ction
Ġ& =
Ġ[` .
ĠN ame
ĠN atSpec
Ġex it
Ġne arest
Ġon to
ĠP H
ĠP erson
Ġare a
im ing
ac ed
ĠD ue
ĠM akes
Ġcall dat
Ġ3 9
ex cluding
Ġ5 7
Ġother s
pre vious
ĠL ower
wrap ped
ĠĠĠĠĠĠĠĠĠĠĠĠĠĠĠĠ ĠĠĠĠ
Mut ex
Ġsu it
14 5
ĠH andshake
Ġexp ose
Ġdrop s
34 2
77 02
und a
und le
From Iter
Re ason
Ġap plic
ĠSo ftware
IC E
Aoxc Errors
Ġbit and
super set
Ġprint able
Ġoffset s
39 8
Ġdis criminant
Ġvector s
attr ibute
sp lice
sen ce
ĠNonZero U
SH ORT
ĠCh anges
Ġpayload s
Ġte mp
Ġfin ally
Ġbuilder s
Ar gument
ĠCall s
Ġtotal Supply
lt a
source s
ĠDeref Pure
:? }\");\
Transfer From
Ġrequest s
Ġrel ation
Ġleak s
lay er
()? .
Ġassum ed
Ġsound ness
ĠCalcul ate
ORT ANT
118 117
ĠTr ies
Cap ital
Slice Index
Ġinterpre t
main net
ĠCap ital
DAT A
cum ulative
Ġrepeated ly
Jump Table
Ġinlin ed
Ġconsist s
Ġderefer encing
ĠPeek Mut
Parse Error
Ġrecurs ively
1234567890 1234567890
constructor s
Do ubleEndedIterator
ambig uous
delegate call
Es caped
ĠNever ShortCircuit
ilen ame
MP ORTANT
Ġcomplic ated
Auto Repair
Ġcalc MemSize
detail s
bat im
) }
) \")]\
) ];\
* .
/ *
3 14
D er
D own
E ST
G ener
N exus
P AC
R SA
T ABLE
W ay
c ions
d l
d app
e es
f st
f act
f lat
g le
l u
m us
n L
p rop
p ool
p ull
p ublic
s mt
t om
t ty
t for
Ã Ĺ
ð Ŀ
Ġ :\
Ġ ÏĢ
is olate
:: $
Ġs ays
Ġs ift
Ġp icked
Ġre use
Ġto ol
Ġto uch
Ġi ll
ĠT ree
ure d
ul ator
li g
Ġlet s
Ġlet ter
il on
Ġd ia
ig h
ĠA uthor
con tinue
ate way
(& (
`] `
ĠE lement
ĠF irst
ĠF OR
ra ft
32 2
op ard
od iff
Ġde t
ign um
Ġ2 8
Ġ`` \\
11 89
ĠEx clusive
Ġpoint ees
ĠD ef
ĠV is
rap he
Ġl atter
Ġ3 8
ans ion
Ġiter ating
Ġwe b
Ġat tributes
Ġover load
ĠL en
Ġen for
os it
>> ()
ĠG reater
Ġar chitecture
Ġme trics
Ġspec ifies
point ers
1111 11
we b
Ġout live
ĠClone FromCell
72 4
rem oved
Ex ceeded
Ġgener ation
hand ler
Ġsub set
Aoxc Events
Ġ`& '
24 6
Ġam ong
du plic
oth ing
18 598
ater ial
-------------------------------- ------------+\
Ġsup ply
Ġ12 3
On GasChange
sp ite
54 9
Ġmat ter
static ally
Ġoutput s
ĠSized TypeProperties
Context Upgradeable
nA n
ident ity
Ġimport s
Payload Job
ĠDe ferred
encode With
can onical
builder s
ĠRef UnwindSafe
Ġselect ed
Ġdefinit e
ĠStep By
Ġvis ibility
Test Case
Ġman aged
ĠPr imitive
-----+ --------------------------------------------+\
Source Iter
Ġhard ware
Ġreport s
De struct
Ġtransmut ing
ĠOwn able
miss ing
Max Uint
DEC IMAL
200 8
ĠZST s
Author ized
Ġdisable d
Ġcapture d
Ġclose st
JUM P
onom ous
ipe md
eter min
mer gency
Ġdevelo pment
Ġdivis or
bstract Signer
ITH OUT
ĠIntersection Inner
984 07
osecond s
consum ed
Ġâļłï¸ı \
1189 59
+ ------------
/ #
> `],
A ssert
B ps
C APACITY
F lash
F eed
N ormal
P AT
S ided
T er
] ),\
] >,\
] </
a im
a verage
c ol
c rit
c string
h alf
m oved
p df
t S
x C
y thon
â Ŀ¤
in herent
er g
Ġa rc
st age
Ġ/// #
le ction
al loy
al oad
en ses
Ġ{ {\
Ġb atch
Ġ\" #
Ġ\" \",
Ġm agic
Ġw ants
Ġin dependent
self destruct
Ġre lied
ĠS wap
ĠA ut
ad ow
Ġbe long
Ġ1 46
Ġun implemented
ĠE ven
der e
\\ \"
Ġor ig
Ġ`` [
** .\
ress ions
ht tp
12 5
ĠM ost
St atic
ex ecution
Ġ5 1
Ġcomp lement
np ackage
Ġsh own
Ġalloc ating
back trace
14 42
unk By
yp ed
Ġ10 1
olle d
mem bers
Ġcontain er
lic enses
Ġro om
sub set
com mit
ĠJ avaScript
Ġcount ing
79 1
pend s
84 3
Ġsp lice
39 56
Ġlist s
Ġ12 7
Ġloc ated
bit wise
Ġad apter
ĠRe v
Ġmat hematical
pee ked
AR AC
We b
termin ator
46 3
[.. ]);\
Ġcl ause
Ġcause d
Ġâ Ĩ
Ġforward s
Ġforward ing
Ġimp ly
Ġcast s
ĠCall er
Ġhand shake
Ġinv oking
dis patch
Try ReserveError
Ġke eps
istr ibute
total Supply
Ġsc op
Ġrespect ive
Ġtag ged
nb ut
Qu arant
ĠEscape Debug
Ġcombin ation
ĠSet ValZST
Ġok ay
Ġtre ated
AccessManager Storage
ĠLoc ation
ffffffff ffffffff
Ġwr ong
ĠRead s
]<[ &
Ġlock ed
Ġrecover ed
under lying
Ġinlin ing
lip py
ĠOver r
Ġderefer enced
Ġfactor ization
Rec ord
ĠAd vance
ĠCH UNK
ĠLO G
oison ed
icult y
Ġresource s
sufficient Balance
Burn able
Ġfore ign
ĠMulti CharEq
ĠBuf fer
ALI GN
ĠFull Decoded
Select or
Ġdet ailed
Sided Range
ARAC TER
) \");\
/ >`_\
/ >.\
1 0000
: #
< <
> ``
L ITY
U TF
V acant
V ariant
] );
_ .\
c ache
g pl
g adget
i ans
n it
n interface
r i
r find
s ig
s low
y clic
} ;\")]\
} (\"\");\
in finite
in ople
re size
re ject
re versed
st er
st ability
\" ;
Ġf ut
Ġc ome
un predictable
Ġs ync
Ġs izes
Ġp ool
Ġm ind
ar ith
() .\
() )`
Ġw arr
tr ivial
Ġe ar
Ġe ip
00 5
as ize
as set
Ġ[ (
ot tom
ĠA rrays
ate ly
Ġun p
ĠR oot
ĠE uc
ator s
ĠN umber
Ġg adget
Ġstr ip
ĠP art
Ġ`` (
Ġare n
get AccessManagerStorage
ĠEx plicit
### \
ĠD on
ĠD etermin
iv ially
ĠM e
Ġtr ivially
Ġ| _|
ip nsort
Iter Mut
Ġcomp iled
ify ing
Ġnew Owner
cess or
Ġsh ortest
ĠL eft
Ġoper ate
os pection
hen ce
ci de
ang er
ang uage
res h
key word
14 3956
Ġrem oving
Ġexp ir
Ġsign ific
call data
comp ut
Ġacc ur
valid ate
Ġ) +
Storage Read
Ġwould n
Ex ecuted
drop s
79 7
Ġbit xor
Access List
Ġob ser
Ġexecut ing
uninit ialized
Ġmost ly
Hash Map
ĠFrom Str
Ġdiv ided
Ġhash ing
Ġperform ing
Ġclosure s
ĠCopy right
Ġordering s
lat Map
Ġcl ass
ĠTh inBox
Admin Delay
Mem ber
Ġdecl are
Op Hardfork
Own ership
temp or
Ġspecific ation
Is EIP
ĠAr gs
Ġfra c
ĠPr ior
Key Error
Ġfiles ystem
CH UNK
00000000000000000000000000000000000000000000000000000000 000000
dead line
Comp lexity
ĠDiv ides
author ized
ĠâĢ Ķ
ĠBuilder TransactionError
Ġ`+ `
ABI LITY
Ġdereference able
Dis joint
sim d
arm StorageRead
Ġadj ust
Per mit
determin istic
eg gpl
xB F
oke Role
ĠFree ze
ben chmark
Ġauthor ized
ĠUnsafe Pinned
ĠAccessManager Storage
transmut ability
ordered KeyError
'..= '
Ġconcaten ation
Ġprefer able
ĠSimilar ly
ĠFound ation
Ġred istribute
Ġbro ken
Ġconstra ints
ReentrancyGuard Upgradeable
ĠLazyLeaf Range
Ġrender ed
.$ {
TI ME
ĠDifference Inner
Quick Step
ormantMut Ref
âĶĢâĶĢâĶĢâĶ¬ âĶĢâĶĢâĶĢâĶ¬
âĶĢâĶĢâĶĢâĶ´ âĶĢâĶĢâĶĢâĶ´
Ġexplan ation
Unsafe Pinned
1469 39
setting s
Ġslight ly
ĠLen gth
PAT H
armStorageRead CostEIP
eggpl ant
8 55
? ;\
B ook
D ying
I AN
N ext
N ulError
O LD
P ower
R A
R w
S ICAL
T uple
U Fixed
X X
Y SICAL
[ &
` \"
a que
c ome
g ates
n M
n re
o val
p rom
t CALL
u ce
x fe
| \
Ġ ge
Ġ hence
in clude
er equ
Ġa ction
on omic
st andard
\" ]
he ther
se aled
Ġf lash
Ġc aveat
al so
Ġ\" *
Ġp ipe
Ġm on
Ġm issing
ar row
ar guments
de cl
ĠS um
Ġ( -
Ġ( [
Ġ( _
00 6
ĠT ests
li min
ent er
ro ll
Ġd irection
ad min
ĠI nt
ĠI MPORTANT
ch anges
ĠF IT
ator y
.. ];\
32 463
Ġg t
op code
Ġde spite
Ġde cide
ĠP ool
ĠP UR
ĠP ART
Ġr ing
ĠB reak
Ġmut ated
-------- -|
ant y
im mutable
ir ing
ĠD ep
ĠV er
ĠU SIZE
ĠU Fixed
12 9
ĠM atch
ĠM ERC
th in
ĠW rap
ĠW ake
ĠW ITHOUT
Ġ5 00
NT ABILITY
pre cise
Un der
Ġcode points
>> (),
ĠG iven
Ġmod ulo
Ġ7 1
sh a
::{ \",
ag ged
RE ATE
RE TURN
pro vide
Ġro y
Ġ9 9
ĠNon ces
\": \"
Re entrant
Ġwor ry
Ex actSizeIterator
Ġpl aced
Ġsub normal
Ġgiv ing
ĠStr Searcher
75 4
($ .
Ġprint ed
******** ****
ting Options
Ġatomic ally
sp an
sp are
Ġkn ows
rag on
ĠSh ifts
SH OLD
peek able
`][ `
Call Code
Ġqu al
Payload BuilderError
ink s
lean up
Ġposition s
Safe Add
NE SS
ĠĠĠĠĠĠĠĠĠĠĠĠĠĠĠĠĠĠĠĠĠĠĠĠĠĠĠĠĠĠĠĠ ĠĠ
Ġbuilt in
Ġlead s
OT O
urro gates
Ġincre ased
Ġreplace s
Ġcalcul ated
Ġwar n
PO SE
HA NTABILITY
ĠGas QuickStep
Ġpartial ly
print ln
Transaction Signed
Ġlow est
OP CODE
mult icast
Ġanal y
Ġaffect ed
Ġpreser ving
Ġbasic ally
Ġattemp ts
Schedule d
Ġcancel led
Trusted RandomAccess
nFunction s
Ġcr ates
ĠZero ablePrimitive
itizen Record
Ġretrie ve
ĠWAR RAN
PAIR S
Scalar Mul
ĠVa ListImpl
Ġassumpt ions
ĠAN Y
Sort ed
aut odiff
ĠMin imum
Ġencounter ed
Cl oned
Ġintention ally
Ġconvent ion
ICUL AR
intr ospection
Ġpract ice
implif ier
THRE SHOLD
Ġ{$ (\
Ġfav or
ĠPH YSICAL
unda mental
ĠAuthor s
Ġwarr anty
Ġsignific and
Rw Lock
erequ is
Ġpipe line
ĠFIT NESS
ĠPUR POSE
ĠPART ICULAR
ĠMERC HANTABILITY
OPCODE S
ĠWARRAN TY
! `]:
% ';\
) >\
/ >`_
2 53
4 50
6 56
A uth
B AL
E thereum
M I
N O
N ING
O AD
P R
P ath
S cheduler
U E
W armStorageReadCostEIP
] >>
_ );\
a u
b urn
c end
c os
c py
e ither
e gative
f ir
m icro
n Con
s core
s can
s witch
t stack
x p
} \",\
Ä Ł
Ġ 0000
er ied
st or
\" ).\
le ot
Ġc e
Ġc le
Ġc ovariant
Ġ` \\
en e
Ġ{ :
Ġs nd
Ġs store
Ġs alt
an e
Ġ\" (
Ġ\" );\
Ġm igration
ar ning
de coded
de velo
de cessor
Ġre li
Ġre allocate
Ġre plac
Ġre allocation
Ġe y
Ġe limin
Ġof fer
as sembly
ot ing
Ġd up
ad cast
Ġ1 0000
ay ment
ĠC ounter
ĠR hs
ĠE nd
ĠF FI
ĠN um
ĠN eg
ĠN othing
ĠO FFSE
um ed
Ġ} )
len ce
ĠB efore
64 4
ĠD es
12 57
Ġ$ {
Ġ4 5
Ġ3 7
In variant
Ġres idual
Ġmem chr
Ġli ft
ĠL og
ĠL oad
ĠĠĠĠĠĠĠĠĠĠĠĠĠĠĠĠ ĠĠ
ib r
Ġbu gs
so ck
Ġstruct ural
Ġup grade
IT ER
20 3
Id ent
<'_ >,
Or Right
Ġ10 8
Ġnon Reentrant
AL OAD
Ġ&[ [
Ġspec ifier
Ġoverflow ed
ĠUn wind
Ġexp lo
Ġexp ansion
90 6
ecut or
Ġzero ed
over n
over r
sent ially
Ġtrans itive
Ġtrans parent
sub sec
Ġout er
]) *
byte code
arch y
Ġgener ating
Ġback ing
Ġback slash
79 5
mod ular
sign ature
Code Size
Ġaccess ible
87 121
Ġsource s
mb ed
Ġfail ing
ĠSh ould
Ġgo al
uc leot
extend ed
(( *
`]( #
ĠLayout Error
Ġqu ot
cy cle
`]. \")]\
Ass ume
run s
ĠSe ction
Ġ() >
Ġext ended
ĠPre fer
Lo ad
Ġke pt
Ġref und
do es
Hasher Default
ier archy
role s
Ġchild ren
âĢ Ŀ
Ġskip ped
ĠTrans action
Ġturn s
ĠPr int
nS ince
Ġextern ally
Ġeas y
rypt o
Ġbl ank
sy mmetric
mart Pointer
De legate
ĠAccessControl DefaultAdminRules
Ġmint ed
Ġpar sing
Dis criminant
ĠCl amp
xxxx xxxx
operator s
+-------------------------------- ---+--------------------------------
Wrapper Storage
ĠLeaf Range
rel ated
ĠPeek able
Ġvot ing
ĠAddr ParseError
Ġsa id
cp p
effect s
Ġfu lf
nH ow
STRU CT
Ġlex ical
Li fetime
ĠStore s
Ġcalldat aload
Der ived
raphe me
Ġdefinite ly
ĠEuc lidean
Disjoint Mut
Ġreli ably
ucleot ide
$ ($
( #
( <$
* /
2 34
< (&
B U
B lob
C re
C lock
C rosschain
D en
E V
E liminator
H O
P aused
S pace
S ecurity
[ \"
] `\
` \"\
a arch
a lence
b az
c lippy
d irect
e et
f l
f p
f ast
n U
n at
n if
n by
n Ex
n enum
o ck
o der
r u
s uring
t code
u zz
x aa
x layer
{ }\
\" ))\
Ġc ow
Ġ` >
Ġ` |
Ġ` ::
en c
en ing
Ġb tree
Ġp ers
Ġp aired
ar gument
Ġw ait
de l
de posit
Ġre qu
ĠS y
ĠS WAP
Ġi r
Ġan omaly
ck er
as cend
`` )\
`` :\
Ġst ream
Ġ1 18
ĠI NTER
con struct
con text
ate ver
Ġun ion
ĠC PU
ĠR ec
ĠE mit
Ġex cess
Ġex perimental
Ġde crement
Ġstr ategy
ec recover
ĠB ar
ĠB inary
Ġ`` _
out ines
ĠD E
ĠD igit
ĠD UP
iv alence
ef f
ef iciary
ĠM ark
Ġwh o
Ġnew Delay
Ġsh adow
Ġus able
ĠL ines
ĠL ayer
ind ow
Ġpro of
Ġen suring
>> (\
)) ``
ee p
ee ked
am ed
20 4
20 8
ĠCon tinue
Ġab stra
ON ENT
with draw
ĠK eys
Ġtrans form
ative ly
ĠClone ToUninit
Up per
num s
For All
79 4
pos ite
75 8
26 9
19 7
Ġam big
30 9
Ġprint s
Ġsp uri
Ġexecut es
]> `.\
cell s
ĠCh unkBy
Ġac quire
Char acter
Ġreason Code
vious ly
static call
Point G
<_ ,
Role Admin
Ġes cap
Token Supply
ĠDrop ping
Ġevalu ate
ĠBorrow Mut
Ġdetermin istic
ters perse
Ġconstructor s
Ġ(& [
With draw
EXP ONENT
implement ations
Ġref lex
Ġprim arily
Ġbalance Of
pers on
gener ated
Ġwarning s
ĠâĶ Ķ
rev okeRole
Ġrelease d
Ġman age
System Time
)+ )
And Call
ĠIndex Mut
BY T
ĠWith out
Cap ture
Borrowed Buf
ĠAlign ed
rsplit n
Ġbl s
Global Alloc
operation Id
Ġreport ed
Ġdeploy ment
Escape Debug
Ġdid n
Ġser ies
ĠCl oned
Ġoperand s
Ġprecise ly
GasChange Call
ben eficiary
gu ide
Flashblocks BuilderCtx
ĠWAR NING
comparison s
Search Step
Ġpreced ing
Ġdestroy ed
ĠDer ived
ĠUR L
ĠBitOr Assign
Bl acklist
Ver ify
ĠMut ex
ĠMult ip
Ġdocument ed
Precompiled Addresses
ĠCoroutine State
Ġintegr al
ĠStart ing
Input Length
ĠRangeTo Inclusive
Ġeager ly
Ġproje ction
ĠJump Table
attemp t
ĠEnumer ate
fact or
dere ference
ĠâĨ Ĵ
Ġear lier
benchmark ing
Ġroy alty
Ġqual ified
Ġreplac ing
overn ance
Ġrequ iring
! =
( ());\
) [
) >,\
. *
. \");\
1 80
4 00
9 90
; [`
> )\
B n
C DE
L iteral
L Ã¶
M achine
M ERGE
O V
P C
P rague
R ate
U ST
W ORK
_ ;\
e al
f ut
l s
n N
n default
t M
v ided
y ou
z g
z en
} !\",
Ġ .\
Ġ 56
Ġ 90
Ġ 000000000000000000000000000000000000000000000000000000000000000
Ħ ŀ
Ġa uth
re presentation
Ġf allible
un it
Ġ{ },\
Ġs l
Ġb n
Ġb lin
Ġb ra
Ġ\" -
Ġ\" \");\
Ġp hantom
Ġm onom
() )?;\
Ġw s
Ġre store
Ġle g
ĠS p
Ġe val
Ġth in
ĠT e
ap sed
iz ations
ro zen
ĠA b
ad Ad
`] ).\
ĠC AS
ĠC urrent
ĠR et
ĠR ole
ĠF ill
ĠF latMap
ĠO OM
Ġ} ))\
per ience
Ġunsafe ty
ase s
** *\
11 2
ĠU s
16 9
Ġ4 1
Ġ4 6
Ġ4 8
Ġ4 9
10 9
Ġtr ick
In correct
Ġse p
Ġse ar
Ġse quencer
Ġiter ations
Ġso on
ex ecutor
Ġdo ub
Ġover write
Ġ' ;\
ĠL anguage
Un authorized
Ġoper ates
Ġen couraged
>> ();\
)) `.\
ĠIn fallible
Con fir
Ġtra cer
Str ict
Ġhas hes
20 6
20 9
20 21
Ġend ing
Ġrem oval
Ġlo an
string s
ĠUn windSafe
90 78563412
//////////////////////////////// ////////////////////////////////////////////////
call s
less Gas
point ee
Ġ9 2
Ch anged
inter pre
Ġback end
ven ient
VER S
To Int
)? \
79 20
75 7
NAM E
av ig
ĠBy tes
track ing
Ġ|| \
ĠAdd Assign
ĠAdd resses
76 8
Ġsy mmetric
LO B
Ġyield ing
Ġsplit ting
nA ll
ĠSync UnsafeCell
aa a
Ġenum erate
Hel per
Ġparticular ly
57 1
Ġinv oke
Ġcolle ctions
ĠAtomic Ordering
option al
Ġcompare s
match ing
Pr ice
Ġaccum ulator
Split N
Ġcomput ing
Ġlook ing
ĠTrans muteFrom
Dec imals
ĠDec imal
][.. ]);\
Ġmeaning ful
cont ents
Ġinherit ed
Back trace
Cap ped
ĠDiv ision
Bit And
Ġaffect s
Ġsent inel
NET WORK
ĠâĢ ľ
ĠAss ign
Ġlink s
Revert ed
Votes Upgradeable
Ġpar sed
Ġrespon se
Ġpropag ating
Ġmaintain ed
equal ity
DAT ALOAD
ond on
Ġdisc us
---+---+ ---+---+
ĠShr inks
AO XC
Flashblock Payload
ĠUR I
Ġassumpt ion
ĠMax imum
ĠBorrowed Buf
480 91
133 549
Param Ty
ĠExt ension
ĠVM ErrorCode
yield ed
ĠFlashblock Scheduler
Ġpermiss ions
Ġdur ations
proposal Id
Ġexhaust ion
ĠBoolean Vector
ðĿ Ħŀ
Assert UnwindSafe
1442 11
Ġey re
adAd apter
//////////////////////////////////////////////////////////////////////////////// \
! \".
< \",
> `].\
A n
A mount
C ache
F ree
G ateway
K eys
L ong
M ark
M arker
M ath
R Y
R OP
S load
T yped
V ari
b ine
c cept
d ur
h ab
h ow
j ump
k le
l der
m aster
n with
n can
n Example
s quare
t st
y ear
Ã §
Ã Ł
Ġ ));\
Ġ ],
Ġ quest
in crease
Ġt rusted
re port
\" \");\
\" ],
Ġ= ================================
Ġc oerce
Ġc ryptograph
Ġc itizen
Ġc ycle
Ġ` ==
Ġ` __
un ity
un icast
an ity
Ġ\" \\
Ġo mit
Ġis Precompile
Ġre using
ĠS uch
Ġth ink
00 3
Ġan ce
ul se
li fet
Ġ[ _
Ġcon j
Ġcon form
Ġd ir
ĠA D
con sume
Ġun supported
`] )
.. ].
act ory
Ġde aling
ĠP arent
ĠP adAdapter
Ġmut ex
qu ote
Ġ< *
ĠD st
ĠU N
16 8
ĠM ERGE
Ġse em
St art
ex plicit
ex hausted
slice index
Ġover head
Ġli kes
ail y
wrap pers
Ġonly Owner
::< _,
ci ent
ang ha
Ġany where
14 44
ĠAl though
13 6
read Only
Ġtest ed
RE PLACEMENT
tra variant
Ġtrans l
Ġ9 6
Ġacc ident
15 5
Ch unk
Ex tra
Ex tractIf
Ġback ends
target s
Ġ\\ *
ĠIterator s
nThe se
import s
84 0
18 9
Ġob lig
Ġdis joint
spec ification
idd ing
Ġown ing
Ġ($ (
ĠSt udio
59 7
any on
ĠRe gistry
Char s
Ġdifferent ly
Ġdirect ories
>() `.\
70 9
condition al
(_ ))
Ġes sentially
AC OPY
^^^^^^^^ ^^^^
Ġver ified
SE LF
ubleEnded Searcher
Ġâ Ī
35 29
xd b
31 56
ĠLe gacy
Is Zero
With NulError
CO L
As Ref
Try Into
Ġ&* (
Ġke eping
optim izer
Ġbig ger
Pr otection
ĠBit wise
Ġrelease s
61 79
Ġtask s
ĠMy Struct
Ġturn ed
Ġaccept ed
Ġtempor arily
Key ed
Ġweight s
Write Protection
fork s
Ġco der
Comp at
ĠDiv Assign
Ġtyp ed
Ġsol ver
ici ous
ĠRE T
Ġspecify ing
Ġsucceed ed
Ġduplic ated
DEC OPY
Ġpropag ated
------ -\
writ ing
ĠRawWaker VTable
Ġbid s
Me trics
dealloc ating
support s
Base Fee
ĠAssert UnwindSafe
ĠOccupied Entry
transmut es
Ġfre ed
Ġfre quent
Ġresol ution
ĠHel lo
Log ic
Ġretain ed
ĠFlatten Compat
Ġhighest Bid
Ġimpro ve
Can cun
Oper ation
Te mpor
Async Iterator
ĠOR D
Ġdetect ed
ĠEXP AND
ĠCast s
separ ator
Dep osit
Ġapprox im
Min us
1020 70
PayloadBuilder Attributes
prop osals
ĠAut onomous
tempor ary
OTO COL
Auth n
BAL ANCE
ĠNum Buffer
Ġmonom orph
ROP S
hab ited
lifet imes
angha i
! `],
# \"
* ))
> <
A bstractSigner
B ar
B inary
B erlin
B PS
C lo
C ounter
E mitted
F T
F p
G ated
G RAD
H E
H ub
H omestead
L ine
N AL
S martPointer
T otal
b o
b ro
f ilename
n ip
n ightly
o ult
r ipemd
s wer
s licing
t bits
t ret
w arm
x istent
y mbol
Ġ ))\
on ERC
re at
st yle
\" #
\" `
he alth
it or
Ġf l
is qrt
Ġ` #
un p
un ch
ed e
Ġb az
Ġ\" &
Ġp ack
Ġp age
Ġp atch
Ġp ick
Ġp erson
ar win
() `][
om ething
ct al
de ally
lo ok
Ġn a
Ġn avig
ic ation
ĠS H
ĠS em
ĠS orts
Ġ( ..=
able Float
Ġi o
!( <
as ur
as ked
Ġv ault
ap her
Ġst ates
mut ably
ad ic
ol ym
Ġ1 92
---- -|
ub check
Ġ& (
Ġun able
ĠR a
ĠE very
Ġal though
\\ \
Ġg raph
ĠO b
Ġor d
Ġde allocating
Ġde lta
ĠP O
ĠP ython
em it
ĠB ig
ĠB ack
to kio
get Data
64 6
ir able
ort ized
bu cket
and atory
Ġwh atever
Ġ4 00
In teger
ire ctional
ex cept
Ġ5 2
Ġli es
!(\" \\\\
Ġpre sence
![ \"
>> >
>> </
min max
ĠIn tersperse
Add Refund
struct ural
ĠG it
ĠG adget
^^ ^\
AN GE
ĠCon fig
Ġnon ces
own ership
Ġequ ivalence
Gas Te
AT CH
over e
Ġvari ance
no ubcheck
Ġstart ed
Ġacc om
ll er
]) ),\
Ġcom mit
vari able
vari ance
Ġrepresent ations
000 1
1010 101
79 8
ten able
ine ss
84 277
Ġunder full
Range Full
En v
Ġact s
Hash Set
74 9
ural PartialEq
Len Big
Ġconvert ible
Trans actions
Trans muteFrom
Ġprodu cing
`]( ../
SC AP
So cket
strict ed
DE STRUCT
[.. ],
Ġemit Event
GE NER
ĠSpec F
ĠSpec FromIter
Ġspecial ize
IP S
Core Properties
ĠPro blem
input s
92 5
Safe ERC
ĠBorrow s
EXP AND
As Mut
As ciiChar
Ġunique ly
Ġassign s
Lo op
Ġcalcul ates
Ġfree ly
xD D
**************** ****
Ġq y
solidity lang
Ġscr ipt
Ġlook s
Ġman ual
1438 94
Ġfra me
Ġviol ation
ĠDec od
Ġprocess ing
Layout Error
!(& [
cont ent
ĠIndex Range
1111111111111111 11111111
CH ARACTER
ĠâĢ ¦
FA ST
Ġconcer n
^^^^^^^^^^^^^^^^ ^^^^
ĠAccessControl Upgradeable
Ġmint ing
Ġseparate ly
Ġtrigger ed
Ġefficient ly
Ġpropag ation
DAT ACOPY
ĠIns pect
Ġcollect ing
ovi e
ĠNE G
quen cy
ĠRSplit N
ĠConsider ations
URIStorage Storage
Rec over
EXT CODE
Ġresol ved
]\\ <
ĠIs Zero
>`][ `
ĠUnchecked Iterator
Ġachie ve
Ġachie ved
Ġneural Gated
ĠBook Format
ĠSpecial ization
ris cv
ĠFind s
ĠAct ualT
Ġ|& (
sug aring
ĠRevert s
nF urthermore
ĠInitial ize
ĠBitAnd Assign
Ġlate st
Ġdat at
ĠRound s
Cor outine
Ġsuit able
ĠTree Node
Ġdia lect
ĠAdvance s
ĠMe ssage
Ġobser ved
arrow er
erequis ites
Ġcle ared
1257 35
sock addr
Ġblank et
nHow ever
Derived CoreProperties
ĠINTER NAL
990 69
Ġance stor
cient ific
GRAD ER
nip pet
oult apher
GasTe mp
impl icit
' ][..]));\
( #[
( '\\
( {\
) ]);\
2 17
; ``
A A
C C
F in
H and
H ANGE
I FI
N A
O ptim
P ublic
P ulse
R FC
R ATCH
V oultapher
] ]
` [`
c as
d angle
f use
j or
l is
n from
r position
t a
t VM
u k
} \"),\
Ġ linked
Ġ ),+
in ed
re search
st all
st ances
Ġf at
en ari
Ġs urrogates
Ġb ignum
an an
Ġ\" ),
Ġo lder
Ġp us
() ;\")]\
Ġw itness
-- -\
de s
lo ong
Ġre lying
Ġre member
Ġre pet
Ġre allocating
ĠS cheduler
ĠS entinel
Ġe ight
Ġe mbed
Ġth ou
00 11
ĠT C
et her
Ġ[ &
Ġ[ ];\
Ġst ake
Ġst ability
Ġst oring
Ġcon venient
ig gers
pe ed
ĠI deally
(& \"
Ġun ary
Ġ[` \",
`] ;
`] ;\
ĠC ount
ĠC APACITY
ĠF PU
Ġh ierarchy
Ġthis Function
Ġne x
Ġde leted
ĠP R
ĠP aram
ĠP ausable
fer e
Ġmut ating
ant um
ort h
ĠD ormantMutRef
ĠV ector
and s
12 0
56 2
16 3
ĠM UST
ĠM IPS
ff f
ast Id
Ġcall ers
10 2
Ġ| _,
In sufficientBalance
Ġse gment
Ġiter ated
St op
St age
ĠW hether
Ġ5 9
ile nt
Ġcomp let
Ġli mits
pre s
pre tty
zero es
os ing
wrap s
ĠĠĠĠĠĠĠĠĠĠĠĠĠĠĠĠ ĠĠĠĠĠĠĠĠĠĠĠĠĠĠĠĠĠĠĠĠĠ
ĠĠĠĠĠĠĠĠĠĠĠĠĠĠĠĠ ĠĠĠĠĠĠ
::< $
::< *
Ġwhere as
ĠIn teger
be a
nuse d
14 0
14 4
14 6179
char acter
20 19
Ġ7 6
Ġcur ve
80 7
80 8
Or der
ERC ASE
sh ort
ĠK eccak
ĠK eep
Gas Cost
call GasTemp
pro blem
pro vided
no op
vec deque
99 6
Ġid i
Ġmin SwapStack
Ġmin DupStack
Ġmax SwapStack
Ġmax DupStack
Ġper mitted
Ġcount ed
XC HANGE
Ġinter fere
Ġposs ibility
75 0
OK EN
Ġop posite
19 6
Ġread able
ĠInto Bounds
Ġafter wards
Ġsp in
39 2
Ġformat s
Ġmake Dup
()) ).
dic ates
cre asing
Ġlist ed
ĠCre ated
ĠCre ating
Ġborrow ing
Ġact iv
Ġrevert s
Ġclo sed
ĠSh ift
59 2
exp ose
ĠBy te
Into Future
scr ib
SC RATCH
ĠDo ing
Ġswap ping
Ġinsert ing
(&[ ],
inte gr
Ġcommon ly
Ġ42 5
Ġnum s
Ġnum erator
bin der
Ġma jor
]( #
Mem bers
Ġsuccess fully
Op BuiltPayload
Op TransactionSigned
ob jc
Ġcorrespon d
With Overflow
CO DECOPY
ĠRem Assign
ĠPre vent
Ġincre asing
ĠAtomic U
Ġchain s
Ġassign ing
Ġhold ing
Invalid Receiver
ĠNot ice
Ġvis ited
Ġnormal ized
Ġsearch ing
file A
inf allible
Qu antum
vals TestCase
ny ou
ĠLAN ES
ĠDis criminant
ĠSearch Bound
sy ntax
ĠSub Assign
Inter valsTestCase
Ġtransmut ation
ĠExtend T
Ġduplic ates
RO LL
Ġadv ant
Execution Reverted
ĠUp per
Chain Id
umpt ions
ĠExp ression
dat asize
ĠAsync Iterator
Ġfew er
ĠId entifier
Ġsupports Interface
black list
JUM PI
Ġverify ing
Ġrespons ibility
Ġph ase
Ġsuggest ed
Ġest im
ĠTwo Way
ĠCom mon
âĪ Ĵ
Ġinvol ved
Ġdeleg ation
gre es
ĠFilter Map
iased Fp
ĠVari ables
ĠMul Assign
script s
Ġcol umn
Ġgrant ed
den y
pare n
rand ao
Ascii Whitespace
Ġmanip ulation
Ġinterpret ation
duplic ate
ĠLeft OrRight
855 32
micro s
ĠAligned I
supports Interface
ĠRa ises
ĠOb ject
emit Event
GENER AL
tVM ErrorCode
loong arch
ĠScheduler IntervalsTestCase
Ġthou ght
' ],
) \",\
) ``,
. /
2 12
3 00
5 00
6 58
8 7920
A ST
A uditVoice
B its
B est
C ast
C DSA
F lags
G rant
I ST
L T
M C
M erge
N an
N OT
N ested
O saka
P roposal
R ound
S eq
S um
S ide
S Store
V ote
^ \",
` \",\
` ?\
b ad
c br
c ircum
f ract
f undamental
g lish
h ooks
l z
l ion
m allest
m ovable
n nonzero
n Pr
p aused
t ig
t end
t iming
x dd
y er
{ \"
} \")\
¿ ½
â Į
ï ¿½
Ġ ðŁ
Ġ ÃĹ
Ġt s
on gest
on ym
re view
at ives
le opard
Ġf lex
Ġ{ :?}\",
Ġs ig
Ġs lower
Ġ\" {}
Ġp c
Ġp ad
Ġp aused
Ġm ir
ar n
ar able
() `].
de ed
Ġin con
ab b
ic ated
ic ations
ĠS STORE
able d
00 2
ĠT ext
ĠT AG
li mb
as ses
Ġfor k
Ġfor ms
il ities
Ġd atabase
ĠA R
ad ians
Ġ1 80
Ġ1 24
Ġ1 111
ve al
ĠI m
Ġun bounded
Ġun roll
ĠE mitted
ĠE CDSA
if ferent
Ġh ost
id ening
32 1
32 4
ĠO PER
Ġde li
Ġde alloc
Ġr ational
ain ing
'\\ \\
64 7
Ġ+ --------------------------------
set ters
ac opy
ac red
ĠEx ternal
ĠEx tracts
Ġy ear
ĠD est
56 0
Ġl l
ĠM an
ĠM ust
ĠM anually
ĠM achine
10 40
tern ate
In PlaceIterable
Ġse gments
Ġse ller
Ġres ume
Ġwe i
St ake
ex isting
Ġ5 8
ins ide
!(\" //
Ġalloc ates
ĠL o
Un size
ĠIn te
LE T
>( _
back iter
ĠReturn ing
Ġtra ce
IN EL
^^ \
14 8
Ġconc urrently
20 7
ĠCon cat
Ġ7 00
ENT INEL
13 77
80 80
Ġpanic ked
ass umptions
ĠFor wards
ĠFor ceResult
return Data
pro be
over nor
Ġvari es
ĠIter ate
test s
Ġro ut
Ġ8 5
case s
Ġget ter
com ing
Ref Future
index ed
34 6
Ġass oci
Re ference
ST ART
num f
Map G
Ġgener ics
`. \")]\
port able
ĠErr OutOfGas
ĠErr WriteProtection
Ġsub sec
ATION S
26 5
MIN ATOR
mon str
Ġsp an
()) \")]\
sp arkle
78 5
aw are
Ġad apters
ĠFrom Utf
front iter
54 4
div ision
structor s
ĠCh oose
has hed
round ings
initial izing
Default Hasher
Ġfe es
Ġyour self
EX US
ĠComp ute
Ġsim ulate
(_ :
Ġqu ad
Ġqu ite
Ġqu ery
Ġcondition al
Ġprevious Owner
Ġheap sort
LO W
mant issa
Ġ20 15
)] `\
SE D
(.. )
NAN OS
lib s
Ġpas ses
Ġlimit ation
Leaf Node
Val Mut
ĠPro duct
Ġlong Argument
Ġdescrib ing
CO NT
Lo an
Ġtx n
Ġent er
Of Bytes
number OfBytes
1234 30
Invalid Address
pose s
Ġsc enari
Ġz st
Ġind irect
Ġind irection
02 77
Ġvis it
Ġtop ics
print able
dec imals
transfer From
Ġconstruct ing
Ġdestructor s
ĠMap ping
ĠWh at
Ġhappen ed
Not Paused
Ġed ition
Cap acity
Comp are
============ =\
Bit Or
bul k
ĠZ ERO
Ġexpect s
ĠBlock Cell
Ġappro ve
Ġappro ach
ĠâĢ ĵ
ĠAss um
Ġextract ed
Ġsufficient ly
ĠRever ses
ĠContext Upgradeable
Escape IterInner
Ġaltern ate
Ext CodeCopy
Small A
writ es
Ġintrod uce
Ġmultip lier
Ġquick ly
Ġsetting s
+-------------------------------- -------------+\
+-------------------------------- -----+--------------------------------------------+\
LOC AL
&& &&
Ġprom ise
Ġprom ised
Ġloss lessly
Ġretrie ved
---------- +---------------------------------------------+\
Ġlib m
Ġdiff icult
Valid ation
ĠCursorMut Key
Ġest ab
BASE FEE
nn nn
Arg Safe
Ġinvol ves
Ġ&[_ ]
orph ic
Occupied Entry
Over Gas
cxchg weak
ĠDyn Metadata
Mapping Iter
429 1
ĠRChunksExact Mut
!(\"` \",
mpt ied
calcul ate
lexicograph ical
ĠChunksExact Mut
137 844
guarante e
âģ ¿
Ġpie ce
Capital A
DATA SIZE
Gener ator
Ġill ust
Ġarchitecture s
+------------ +-------------------------------------+--------------------------------------------+\
253 7
ĠOFFSE TS
Ġquot ient
EV ENT
Ġ`> =`
BYT ES
CDE F
VERS ION
Free ze
Typed Data
ĠâĪ Ĵ
look up
Ġna ive
olym orphic
overe ign
Hand ler
anan as
Ġnex us
Ġidi omatic
circum fix
tig er
ĠOPER ATIONS
1377 37
) \",
* )
* ]
* `
, )
1 56
2 58
3 90
5 77
< !
< --
A ff
C D
C TURE
C lient
F use
H S
H ED
I NT
K eccak
S O
S U
S napshot
T wo
U D
U NT
V a
V ar
W ide
` ;
` _
a i
a id
b rew
c rypto
d ir
d ummy
h ib
i li
m iter
m any
n Un
n so
n will
r iter
s pend
s ift
s imple
t w
t LOG
w ait
x ab
x af
} (
Ġ --------
Ġ ],\
in y
Ġt ie
Ġa verage
re cip
st at
or n
Ġf st
Ġc oll
Ġc ircum
al led
is er
un less
un necessary
Ġs impl
Ġs plits
Ġs licing
Ġs cientific
Ġb o
Ġb ind
Ġb idding
Ġ\" _
Ġ\" `].\")]\
Ġp aper
Ġp olled
Ġm al
Ġm ovable
Ġm aterial
() }
Ġw orth
de finit
Ġin fer
Ġin verse
Ġin ferred
Ġn ice
Ġn atur
mp sc
ab ling
ic hest
ĠS can
ĠS SA
ĠS IG
ĠS ecurity
Ġ( ((
li ents
ot er
il ation
Ġd ang
ĠA uction
ĠA nother
ĠA void
== =
`] ),
ĠC ALL
ĠC ancellationToken
ĠR ot
lin ed
Ġas pect
ĠN ulError
str ide
.. (
loc ene
Ġby p
id s
32 0
ĠO ld
nt act
all Tokens
Ġde coded
Ġde crease
Ġde monstr
ĠP lace
ĠP osition
ĠP eters
el apsed
Ġ`` @
ain s
im ed
11 3
11 0000
ac er
qu eried
ĠEx ecut
ĠV ault
ĠV irtual
ĠV ersion
ĠU ses
ĠU UPSUpgradeable
add resses
ĠM ath
Ġ4 38
10 11
10 44
10 110
rop he
In finite
th at
ip fs
mat ched
Ġx s
Ġ5 4
Ġcomp utes
00000000 00
pre compile
Ġpre compiled
Ġpre decessor
Ġpro ve
ĠĠĠĠĠĠĠĠĠĠĠĠĠĠĠĠ ĠĠĠĠĠĠĠĠĠĠĠĠĠĠĠĠĠĠĠĠĠĠĠ
ib ution
Ġbu cket
ĠIn formation
ĠIn variant
ĠIn Place
res ume
Ġ6 67
ref s
ost rophe
IN NER
Ġsu ite
ĠG OVERNANCE
Ġmod ules
block s
Ġup dates
ist le
>` )
Ġab ility
13 4
13 5
ĠH I
sh ow
Ġ&[ ]\
mem chr
RE A
Ġcre ator
atomic ally
77 6
Ġj son
Ġ&' _
signed ness
From Residual
Up grade
29 6
Ġinter ested
Ġ.. ]
28 9
arc inner
base URI
30 4
30 5
30 7
ĠInto Values
ĠInto Keys
================ =\
================ ===\
Ġprint ing
Type Impl
!(! '
Ġmake Call
[] (
40 8
bit op
On es
sp in
78 9
Hash Utils
74 2
ched ules
ĠSt op
ĠY ield
Char Error
ĠAs set
ĠBy zantium
76 6
PD EST
23 1
Ġreg ions
DE NO
Ġoccur ren
Al ready
Ġ(` &
GE ST
Ġali ases
lib erate
ĠTh read
Ġenum s
dif ferent
---+ \
UP GRADER
Ġexponent ial
net work
CO UNT
Ġincre ments
gr ad
numer ator
UN D
Ġsemant ic
owned Tokens
Of Flags
Coerce Pointee
ðŁ Ļ
Ġref lect
Ġrece iving
... (
Ġcare fully
local host
Metadata Storage
\")) ;
ĠChar s
ĠMy Trait
Balance s
Ġskip s
Dec imal
Ġturn ing
Ġarbitr arily
================================ ====
ĠMap Windows
Ġdifference s
Lock State
Ġlevel s
Ġtrunc ate
ynchron ized
ynchron ous
ĠIndex Result
Ġdrain ed
NU M
Ġcombin es
Ġappend s
Slice Error
Ġasset Id
Float Error
Ä± n
chan nel
Ġ`< =`
ĠGet DisjointMut
Ġincrement ed
Num erator
Ext Args
Small Sort
Ġsynchron ize
ĠRChunks Mut
Ġbenef it
ĠZip Impl
All Ones
277 09
,)+ ))
ĠCH C
Ġprot ocol
ambig u
CursorMut Key
ĠBuild HasherDefault
âĪ ŀ
Asset s
~~~~ ~~~~
ĠFin ally
Ġannot ation
ĠPar ser
ĠUnsigned Primitive
ĠArray Chunks
ĠSip Hasher
142 757
ĠSigned Primitive
Ġbenchmark s
riftsort Run
Ġsur round
ĠAllow s
ĠShl Assign
âĶĤ âĶĤ
ĠBitXor Assign
circuit ing
Ġ\"../../ ../
Ġmention ed
Content URI
Front ier
lu ence
ĠVis ual
Ġbelong s
Burnable Upgradeable
ĠDetermin es
anger ine
Under flow
Ġanaly z
PR OTOCOL
eff icient
Ġspuri ously
Ġleg al
report s
Extra Weight
asur y
lis her
Ġembed ded
ilent ly
Ġcomplet ion
integr al
Ġadvant age
onym ous
ĠAR M
Ġdeli miter
Ġyear s
olymorphic Iter
<-- ->
Aff ine
ĠExecut es
ĠmakeCall Variant
DENO MINATOR
! ()\
! \"\
' ]
* ]:
1 72
1 75
2 16
2 54
2 51
3 198
4 56
7 90
8 34
< #[
= {
= \")]\
> ])
> ]>
A ns
B asic
B oost
B LOB
C o
C ur
C ENT
C ancellationToken
C REATE
D rain
D EX
E mergency
E SCAP
F ound
I t
L Z
L AYER
M D
M IT
M ask
O DE
P eek
S omething
T ION
V AL
W itness
Y Y
a ven
b idden
b oost
d oll
e vent
e lems
g an
g cd
h ook
i i
m iddle
n not
o z
o ices
p osed
t re
t ion
t Err
t PrecompiledAddresses
u ces
u ght
w idening
è Ģ
Ġ ]
Ġ ut
Ŀ Į
in variant
in cip
in habited
er v
er ves
er nel
re ason
le ast
Ġc ir
Ġc arr
al ized
al ready
al ancing
is hes
en ed
en alty
un g
un t
ed ition
Ġs qu
Ġs ave
Ġs atur
Ġs nippet
Ġs ilently
an other
Ġ\" \
Ġ\" ,\
Ġ\" {}\",
Ġ\" >>::
Ġo a
Ġp ull
Ġp oisoned
Ġm ix
ar ation
() `](
ct est
lo ating
lo gs
Ġin tr
Ġin her
Ġin fallible
tr acing
Ġre de
Ġre alloc
Ġre ordered
ĠS ort
ĠS rc
Ġ( #
ĠT x
ĠT urn
li fetime
Ġst ays
ro om
Ġ1 16
Ġ1 34
ter r
ĠI mport
con versions
ĠR ep
ĠR AD
ne ct
ith ms
Ġh omestead
Ġh ours
Ġh aven
ra mm
ĠN an
\\ <
.. )
32 7
Ġex cluded
Ġex pres
um in
um ax
Ġnot ice
Ġde coding
ak ed
ĠP ath
ĠP AY
Ġ} ``
em script
Ġr x
Ġr ng
ĠB ob
ĠB erg
Ġconst s
to ck
get MultiSignerERC
** .
11 53
set Target
qu ad
ĠD ual
ĠD riftsortRun
12 6
ero us
56 9
ĠM ain
ĠM arker
ĠM erge
10 3
In stant
Ġiter ates
St itch
Ġcomp ress
00000000 0000
Ġover view
np ro
cc cc
not e
Ġpre lude
ĠL uk
Ġpro cessed
os itive
ĠĠĠĠĠĠĠĠĠĠĠĠĠĠĠĠ ĠĠĠĠĠĠĠĠĠĠĠĠ
>> ());\
>> >(
)) ``\
::< {
ĠIn crement
Con tain
Ġelse where
ci es
back slash
cap tion
Ġ6 7
Ġ6 65
Ġtra il
ĠG u
14 90
ist s
Ġ7 0
Ġcheck er
13 0
80 9
Ġmap s
Ġ10 2
co ef
Ġlo gs
Ġ&[ -
Ġhe alth
Ġspec ulative
start s
start ed
ON D
Ġinst ant
RE PAIR
ĠOr igin
ĠOr son
comp arable
Ġro ugh
Ġ8 00
38 60
com ment
Ref UnwindSafe
gh i
ĠJ UM
count s
ew s
()` ,\
num fmt
15 3
Ġap plication
72 6
Ġcom bine
Ġpl an
ĠErr ExecutionReverted
Ġsome where
allow ances
)? ,\
Ġ\\ \"
79 2
79 6
26 925
Ġop Call
mod ify
Ġleft OverGas
base fee
node s
Ġbase s
84 5
Ġoptim al
18 6
Ġob jc
87 3
Ġad ap
ĠFrom Residual
app ly
Ġdebug ging
wh ole
ĠRange Full
36 2
dia lect
Ġreason ing
ĠTry Capture
58 3
58 5
Ġint ent
ĠAdd ing
ĠComp arison
ĠComp iler
42 2
Ġocc upied
log ical
43 122
AC K
ook ie
(.. ).
Builder Tx
ĠTh ose
Ġround s
ĠCall ers
ĠIP FS
Ġ-- >
)* );\
Ġ>> =
ĠSplit Mut
Ġtx s
ĠAr chitecture
implement ation
67 80
HA IN
Ġrece ives
Ġfind s
Ġhigh ly
Ġhigh light
ĠPer form
Ġtop ic
bitr ary
DefaultAdmin Delay
DefaultAdmin Transfer
ĠMy SmartPointer
balance Of
gor ithms
nb ecause
Transaction Ctx
ĠPr ivate
Ġmeaning less
Ġhappen ing
Ġprogram ming
Return Data
IE W
ĠEscape Unicode
============ ==\
Weight s
Ġabort ing
author ize
ĠTryFrom IntError
Ġbecom ing
De pth
ĠPayload Builder
Escape Default
ĠCor respon
Dis patchFromDyn
ĠRead ing
Ġmaintain ing
------ +\
ĠAp pends
FI VE
Ġwake up
ĠTake While
ĠChunks Mut
ĠGo Down
Ġmeant ime
End ian
Build Hasher
,)+ )
Byte wise
Lim its
Ġprot ocolHash
ĠShr Assign
pat hs
Ġpow ers
]\\ (
stand ing
ĠSkip While
Ġsuggest ion
ĠAddr Kind
Flashblock Number
Bl s
Ġmer ged
ĠOptim ized
ĠDecode Utf
') ]);\
Ġtrim med
Evm Config
ĠFile system
ĠLazyLeaf Handle
Ġsimplif y
Ġfu zz
Word s
ADD R
vis ibility
Ġplaceholder s
nfunction s
aaaa aaaa
ĠValid ates
ĠRepeat N
-------------- \
eeee eeee
77397739 77397739
ĠVi ol
ĠVi ews
ĠReplace s
145 329
Ġapplic ations
PayloadJob Generator
ĠSwap s
Quarant ine
ĠOverr iding
cos ystem
score s
Ġce il
develo p
overr ide
HO ST
interpre ted
Ġdiscus sed
jump Dests
SELF DESTRUCT
Tempor ary
Clo sed
ĠPO W
liberate ly
ambigu ator
Ans wer
CENT ER
èĢ ģ
incip al
Ġinher its
ramm ar
ĠPAY LOAD
emscript en
ĠBerg doll
ĠLuk as
Ġspeculative ly
pub s
' )?;\
' )),
. :\
2 36
5 64
6 36
7 802
< {
> [`
A ccept
B ER
C old
C ovariant
D C
D iv
F D
F actory
G o
H ook
P E
P EC
P rot
S ec
S AT
S LOAD
S ymbol
T ask
T OKEN
U AR
U CD
] >)
] >\
a uto
c str
c nt
c ular
d im
f w
i ction
l ue
l iterals
n Add
n be
n By
n state
n umbers
n Exp
n variables
o ided
s anity
s chedules
t or
t value
t addr
t pc
u ish
Å Ł
in v
er ased
Ġa ware
re ferent
re build
st it
st eal
he ses
Ġf lip
Ġc ame
al let
is ms
Ġ` {}
en sure
en cies
un ately
Ġs core
Ġs napshot
Ġb ook
Ġ\" )
Ġ\" `]
Ġp eeked
Ġm i
Ġm il
Ġm ps
Ġm ixed
() );
om ated
de crement
Ġin deed
Ġre view
Ġre pair
Ġn ature
es caped
ab et
ĠS ize
ĠS mallest
ur ch
ĠT agged
Ġ- \
as cript
Ġv s
Ġv ary
Ġv ice
Ġ[ #
Ġ[ ]);\
ap pear
`` ),
`` ).
Ġcon structs
Ġd ot
Ġd ummy
mut ability
Ġbe havi
Ġ0 11
ĠI mpl
eq tf
`] \")]\
ĠR oyalty
Ġal ter
Ġal gorithms
ver batim
Ġh um
ĠN UL
ĠN exus
safe Transfer
Ġby zantium
32 3
32 5
Ġex its
Ġex pr
Ġex perience
ĠO ur
od o
Ġne igh
Ġde l
Ġ} ]\
Ġ} )?;\
Ġ2 54
ĠB ad
ĠB iasedFp
get ters
us ion
im itives
11 6
11 9
11 00
ac d
ac hes
Ġfrom Balance
ill s
Ġ_ \
ĠV olatile
ĠV FS
ĠV IEW
56 6
Ġl icense
Ġtr ivial
Ġtr iggers
Ġse ctions
Ġso le
Ġdo Something
ĠW rapper
mat cher
Ġcomp arator
!(\" ðŁĴĸ
Ġpre pend
ally Long
Un orderedKeyError
Ġpro ven
![ '
Ġel li
::< ()
ĠIn form
ĠIn stant
ĠIn dicates
Ġmemory GasCost
ard s
======== \
IN E
IN DEX
Ġmod ifies
14 56
14 87
ist ics
>` ).\
ft en
20 2
20 15
ĠCon sume
MA P
MA Y
Ġwhen NotPaused
13 690
13 82
ĠH ole
ĠH EX
read s
Ġme et
80 6
Ġpr inc
Ġhe av
sol test
non negative
Vec WithNulError
Ġorigin ated
ĠUn stable
pr ice
Ġexp Head
RE C
Ġequ ally
return ed
pro cessed
test ing
Ġtrans forms
comp lete
nT rans
77 5
ĠJ oin
Set Uint
Ġalign ments
Ġinternal s
Storage V
Ġav oided
Re peat
Re allyLong
99 571
ST AM
()` ]\
Ġcompil ing
For ceResult
`. )\
cr iption
Ġsome what
001 00
Ġeven s
To AccessList
55 3
ĠID E
ose s
28 8
mod ules
Ġ&& \
base Len
nThe y
Ġsp ans
39 3
39 6
<$ ($
cre te
Ġlayout s
Ġsee k
aw aken
state lessGas
Ġ($ .
Len OnDrop
ĠRange Iter
cal ing
exp ressions
div is
Ġloop back
ĠCh ild
ĠRe ject
ĠRe entrancyGuard
17 0
av ascript
58 9
Ġdiv iding
AR G
Ġprop osals
Ġfe ed
ĠDo ubleEndedSearcher
([ \
48 9
token s
token UR
Initializ ers
inte gers
00000000000000000000000000000000 0000000000000000
Ġ20 19
nA t
nA fter
Ġshift s
Index Mut
Index Range
Ġcl aim
Ġver batim
nI mport
Signer P
(.. .
Ġimp act
PU T
!(\"{ :
Ġtrack ing
ĠIAoxc Cpex
Internal Node
92 791
Op Code
Op Receipt
ĠĠĠĠĠĠĠĠĠĠĠĠĠĠĠĠĠĠĠĠĠĠĠĠĠĠĠĠĠĠĠĠ ĠĠĠĠĠĠĠĠĠĠĠĠĠĠĠĠĠĠĠĠĠĠĠĠĠĠĠĠĠĠĠĠ
loy ment
ĠBu iltPayload
Is ReallyLong
Ġpower ful
Ġprefix ed
ĠPre viously
Ġmain net
Ġrefer red
reference s
ĠSplit ting
Ġtx Index
xf d
ĠAccess Managed
Ġlocal host
owner Of
go ing
compile time
ĠSlice s
ĠSlice Pattern
ĠBit Vec
ĠGener ally
\")) )]\
loss ary
Ġprevent ing
bl ake
gener ate
âĢ ĵ
Sync UnsafeCell
Test s
dec ided
Ġsound ly
Ġdefin ing
Ġbranch less
Panic Hook
upgrade s
need ed
Ġtrunc ating
Ġexception s
1111111111111111 1111111111111111
Ġpred ict
Ġappend ed
Ġden ote
lar ation
Ġnan oseconds
Ġ``. /
ĠSet ting
Ġanal og
coer cion
coer cions
Ġabort s
Float Sec
Ġcoer ced
Ġcoer cions
ĠTryFrom SliceError
Ġ`< `
icast Scope
ĠRE TURN
Ġappro val
ĠSub tracts
RO OT
sim ulation
ĠRawVec Inner
diff iculty
Ġhelp ful
Ġser ves
Ġser vice
recover ed
socket addr
ES PAC
Ġcr uc
ĠParse FloatError
Ġsubstring s
ĠStruct uralPartialEq
ĠLeaf Node
Lazy Leaf
Mult icastScope
Ġâī ¥
One SidedRange
ĠFlashblocks Config
ĠDer ive
ĠVacant Entry
OutOf Bounds
ĠST ORAGE
==================== \
Ġded uct
disable Initializers
aut ore
Ġconstra int
model Checker
Ġfall s
ĠFin al
ĠSI ZE
ĠSI MD
Ġgroup s
Ġexpand ed
AccessControlDefaultAdminRules Storage
Lower Hex
ĠSu ccess
),* )
ĠFail ing
Field Element
separ ated
Ġremapping s
Su per
Ġdraw er
previous Owner
Ġapplic able
ĠElement s
Ġenfor ced
encodeWith Signature
encodeWith Selector
Ter min
col umn
Ġexpir y
comput ation
ĠFreeze Marker
Book Format
MI LL
Ġmigration Id
Delegate Call
+-----------------------------------+-------------------------------- ------+\
Security Veto
nU sing
nat spec
ĠEmit table
Ġambig u
Ġescap es
Blacklist ed
ĠMultip lies
Ġ`== `
Ġaccident ally
Line Feed
\"# ,\
ĠGit Hub
blacklist ed
limb s
spend Allowance
definit ion
Ġdang erous
Ġsurround ing
ESCAP E
ung ible
ĠOrigin al
authorize Upgrade
ĠCorrespon ds
ĠViol ating
referent ial
Ġmil li
Ġmps c
Ġbehavi our
Ġneigh b
!(\"ðŁĴĸ \",
13690 3
Ġprinc iple
STAM P
tokenUR Is
PanicHook Info
FloatSec s
unsafe Memory
) }\
+ ----------------
/ =
2 64
7 18
8 15
8 59
9 30
9 87
9 54
A fter
B LOCK
C oin
D ifference
E PO
F latten
G IST
H as
H EX
M IC
M UL
N et
O s
O ld
O ctal
P atch
P ost
R ede
S er
S im
S ip
S implifier
T R
U SIZE
Y ul
] `.
` ),\
a mt
b ananas
c w
c rosschain
d omain
d arwin
e arly
f our
f ours
g it
g gle
g lossary
h ifts
j ovian
m es
m anually
m ulti
n w
n all
n value
n legacy
n Contracts
p age
p lement
p hantom
r t
s q
s chedule
s istent
s napshot
s peed
t temp
t Get
t odo
u ed
| ``
} )
Ġ ;
Ġ ----
Ġ Qu
Ġ ðĿĦŀ
in order
er c
re pair
st ream
at io
at ivity
le s
le ep
se quencer
or able
it ivity
Ġf am
Ġf oot
Ġc um
Ġc oin
Ġc ategory
al ysis
al ternate
en ates
Ġs ite
Ġb ottom
Ġp ause
Ġp unctuation
() ``,
Ġw ider
de leted
Ġin cur
Ġin compatible
Ġis zero
Ġre ferent
Ġre cent
Ġn ic
ab ilities
ic all
ic ial
ic oder
Ġu c
Ġe lid
ur ally
Ġ( ..
li ves
ap Guard
Ġcon d
Ġd aily
ol ith
ol ution
te mplate
), \"
Ġ& ($($
(& $
(& &
Ġun usable
Ġun linked
Ġun pinned
Ġun filled
`] </
ĠC olle
ĠC oin
ĠC LI
ĠR anges
ĠR ational
ĠE num
Ġal ph
der ived
Ġh it
Ġh ar
Ġh idden
ĠN eed
ĠN ames
str ategy
safe TransferFrom
Ġg reat
nt his
Ġde al
Ġde coder
ign ificant
ĠP op
ĠP ost
ĠP roperties
Ġ} ).
pt ic
pt hs
Ġr and
ant inople
get AccessControl
get AccessControlDefaultAdminRulesStorage
). *\
64 1
64 2
Ġ+ ----------+---------------------------------------------+\
ĠEx tract
ĠEx ecution
ĠD uring
ĠU nused
ĠSome Con
Ġl n
ty ped
ĠM A
ĠM er
ĠM ethod
Ġ4 7
10 24
In Place
up dates
Ġse es
Ġres umed
th rough
th ird
St atus
ex it
mat ic
Ġx ref
Ġ5 3
Ġcomp osed
Ġli mb
Ġ' :
pre ference
Ġimplement ors
ĠL ink
Un it
Ġpro ceed
bytes lice
ĠĠĠĠĠĠĠĠĠĠĠĠĠĠĠĠ ĠĠĠĠĠĠĠĠĠĠĠĠĠĠĠĠĠĠĠĠĠĠĠĠĠĠĠ
![ \
![ ];\
flow info
>> )
Ġbu mp
Ġbu yer
)) )]\
---------------- -\
(\" .
(\" \\
res erved
Ġ6 2
key Index
Ġtra vers
Ġmod Len
code s
Ġhas hed
20 24
ĠCon struct
13 44
ĠH ard
ĠH ead
Ġme ets
ass igned
Ġ@ \
Ġ&[ \
(| (&
Vec IntoIter
ĠUn der
ĠUn specified
pr ot
Ġchar ge
mem cpy
Tree Node
Ġinst anti
Gas CallEIP
Ġtrans ition
ĠWe b
ĠWe i
comp atibility
comp ilation
Ġget Data
sub str
38 4
77 7
Ġj avascript
Ġout standing
Re g
Re v
Re putation
rem ix
Ġpl acing
Ġdefault s
Ġmax imal
Ġcons erved
Ġper mits
oss ibly
29 3
Ġinter action
Ġgas Func
Ġ`& `
Ġbit set
24 2
75 16
26 0
Ġop Push
Ġop aque
ces ses
Ġmult icast
Output Type
sign al
sign aling
Ġtoken URI
30 6
30 30
\") ``
84 8
Ġtime out
39 7
Code Offset
Ġrun Bn
()) ..).
let on
cre cover
Ġdis couraged
Sign al
bits hifts
Ġloc ale
Drop Guard
AM MA
EM P
54 6
ĠSt ack
assign ment
69 7
ĠTrusted Step
Ġreason able
Ġlog ically
av ailable
has Role
scr iption
Borrow Mut
Ġerr BLS
ĠConvert ing
Ġoverride s
([ '
Call RefFuture
(_ ,
Ġqu ote
Sh ares
[.. ])\
SE T
Ġâ Ŀ¤
valu ation
Builder TransactionCtx
pow f
ĠSpec ToString
Payload Transactions
ĠDe velo
ĠSe lect
++ ;\
Ġtransfer From
ĠDrop per
cor outines
Ġform er
Ġform al
eps ilon
Ġ() >)
xc d
Neural Action
Ġload ed
CO ST
ĠPre cision
Ġstrong ly
ĠEn glish
Ġident ify
UN IX
Ġcalcul ations
ĠRaw Float
ĠHandle Type
Invalid InputLength
Ġref count
Ġsc aled
... \");\
**************** **\
cent Sign
Ġq x
Pr imitives
ĠGener ate
Ġind ent
######## ####
Guard ian
Wh istle
Ġextra ction
Function Role
Ġdist ing
VE N
ĠChar Array
ĠâĶ Į
neg ation
ĠMy Backtrace
(_) `,
Ġfra ction
Time stamp
Ġmulti plic
sens ys
Panic Info
ĠWh ich
Ġpush ing
Ġtempor aries
CALL CODE
nS ee
ploy ed
Ġconf ir
require d
ĠOne SidedRange
ĠWith Header
Ġignore s
nY ul
Unicode Data
Ġ`< <
Ġdec ided
Ġtyp ical
Ġpairs OfFlags
Ġsystem s
Appro ved
Appro vals
12345678 9
Ġattemp ting
Tx s
Num Buffer
Ġinterpre ter
Ġpar ser
Ġdes irable
sim ulated
Ġseparator s
ĠCap ture
Execution Result
ĠUp date
ĠUp dates
Chain Spec
now rap
ĠAsync FnMut
Ġcollect ed
Ġcover ed
Ġcover ing
ĠIN F
sequent ial
Ġca ught
Format tingOptions
Ã¼ r
ĠSigner P
ĠRSplit Mut
Ġloss less
Ġsymbol s
TryFrom IntError
Ġrecurs ive
man ent
Ġrepeat s
Ġwithdraw als
ĠLocal Wake
pending DefaultAdmin
nC om
receipt s
Ġoct al
Ġmer ges
Ġmer ging
ĠVa ArgSafe
ĠConst ParamTy
cp preference
Ġded icated
Ġimpro per
ĦâĶĦâĶĦâĶĦâĶ ĦâĶĦâĶĦâĶĦâĶ
Rem oved
Ġdeleg ated
nex us
ĠMult iple
Approval ForAll
Use Gas
Ġfore ver
Param s
AtomicI size
ðŁĴĸ ðŁĴĸ
fort unately
.... ....
Ġsur pr
nP lease
ĠCase MappingIter
lexicograph ically
Com ment
Ġeps ilon
Ġtechn ical
guarante ed
aper back
Ġdraw back
Exceeded Max
Ter minator
Static Call
Ġunp aired
ĠPart ition
TIME STAMP
Ġcaveat s
ĠStrSearcher Impl
Scheduled Op
Invariant Lifetime
ĠLog ical
795 24
ĠAccessControlDefaultAdminRules Storage
BU G
uzz er
Ġpers istent
Ġabstra ction
Upper Hex
Ġreflex ive
ĠTe mpor
ĠUs age
Ġcryptograph ic
ĠAD MIN
Ġoblig ations
ĠLegacy Receiver
irectional ity
749 35
Ġrepet ition
Bits Mask
cbr t
ĠAssum es
LOCAL HOST
Ġillust r
hib its
Ġcircum stances
Ġbo is
Ġoccurren ce
âĪŀ ).\
angerine Whistle
<---> |
ĠNan oseconds
Ġexpres sed
1490 75
UAR TER
urch ase
1382 15
crete Type
ĠReentrancyGuard Upgradeable
Ġcruc ial
LazyLeaf Handle
autore fs
Ġambigu ity
unsafeMemory Access
EPO CH
GIST RY
Rede em
Sim d
Ġcum ulative
ĠSomeCon creteType
fn s
! \"));\
' `
' %';\
( {
) /
* :
+ ================================
. ][
0 123456789
2 24
2 30
3 79
3 18
4 59
9 00
9 10
> ())\
A i
B OR
B efore
C AP
D ef
D est
D ROPS
D NA
E th
F pCategory
G T
L ICE
M ain
M ake
M PL
P l
P ayment
Q ue
R IS
S LICE
T T
T op
T win
U ser
[ {
[ ][
] >`\
] \":\
b order
b iased
b undle
c lient
c leanup
d i
d ay
d ating
d ormant
d ying
d tor
e ss
f ad
f ake
g ot
g rapheme
h at
h ome
h mus
l led
m ation
m af
n atomic
n orm
n State
o or
p ol
p ossibly
s ided
s perse
s implifier
t tr
t mem
t Gas
t RETURN
u ing
u fixed
v il
x s
x de
x FFFF
} ]
} \"));\
Â ²
â Ĥ
Ġ ,
Ġ util
Ġ utility
Ġ èĢģ
ĩ Ĵ
ĺ \
Ġa oxc
re vm
re ns
re levant
st ages
\" ].
le tes
le matic
se curity
Ġf use
Ġf inger
Ġc yclic
is ing
is ions
is Valid
Ġ` >`
:: \",
un zip
ed ges
Ġs us
Ġs load
Ġs che
Ġb v
Ġb erlin
Ġ\" /
Ġ\" <
Ġ\" âĿ¤
Ġo w
Ġm ach
Ġm icro
Ġm asked
Ġm andatory
ar ound
om ent
de sugaring
Ġis Locked
Ġre build
Ġre posit
Ġre putation
ic a
ic ity
ĠS EC
ĠS lot
ĠS LOAD
Ġe mp
Ġe thereum
Ġe lems
Ġ( ...
00 61
Ġi log
Ġi Ã§
li man
as is
Ġv a
Ġv e
Ġv otes
Ġv eto
Ġst ip
Ġst ages
ot able
Ġcon sensus
\", \"
Ġd ying
ĠA lice
Ġ1 10
Ġ1 00000000
Ġ1 128
Ġ1 40
Ġ1 17
ĠI AccessControlDefaultAdminRules
Ġ& (*
Ġun set
Ġun sorted
Ġun yielded
ĠC ON
ĠC lear
ĠC ancel
ĠR ed
ĠR andom
ĠE vent
ĠE dge
ĠF urther
lin er
Ġas ynchronous
ra cle
id ity
ore d
ĠO K
Ġnot ed
Ġde f
Ġde limit
Ġde liberately
ĠP inning
iter ating
ĠB l
Ġ`` *
to o
to ffset
get Stake
pl at
** ,
11 4
set RoleAdmin
ac le
ac cept
qu idity
ĠEx A
ĠEx B
by e
Ġ_ )\
cl ones
cl aim
ĠD oc
TY PE
add Signers
56 56
Ġl ongest
ĠM atches
ĠM ock
Ġ4 256
10 42
Ġ| (),
Ġse m
Ġat om
Ġch apter
ĠW ill
ĠW ait
ins ignificant
Ġimpl ications
Ġ' %';\
Ġnew line
ĠL ine
ĠL ibr
Un wind
Ġcode point
Ġoper ating
Ġen abling
os er
Ġonly Authorized
ĠĠĠĠĠĠĠĠĠĠĠĠĠĠĠĠ ĠĠĠĠĠĠĠĠĠĠĠĠĠĠ
)) ).
)) ),\
)) `\
ĠIn line
Con dition
Con travariant
LE ST
(\" `
raw er
Ġ6 1
Ġoperation Id
load ing
Ġmod ification
code hash
14 6
lid us
ĠAl tern
Ġhas Role
ĠCon trol
Ġ7 89
13 03
ĠH ost
read iness
<'_ >>
80 5
Ġ10 3
Ġlo st
ĠFor Loop
Ġ&[ ]
ded Bid
time point
Stack Underflow
ush ing
ĠUn orderedKeyError
Ġk zg
Ġexp Len
ĠFn Ptr
90 1
90 3
Ġtrans formation
Ġ8 1
sub tle
Ġ9 40
Ref Sized
77 0
77 77
ĠJ ovian
Ġout lives
]) ?;\
99 3
99 4
99 301
ID X
15 9
byte str
rem oving
Ġcons erv
Ġsub tle
Ġsub stit
Ġinter est
Ġinter section
Ġinter sperse
arr ays
trans paren
Ġgas SStore
28 1
26 2
26 3
26 7
Ġop M
Ġop S
Ġcor ru
mod ifier
19 5
Ġam ortized
Ġread er
================ \
84 7
39 1
Data Gas
Ġdis patch
Ġdis appear
Ġloc ally
attr s
Ġbefore hand
wh y
36 8
ĠAcc ount
Clone ToUninit
Ġavoid ing
av ed
58 1
Ġmat cher
initial ization
AR I
AR R
Ġint u
Ġsuper set
Ġoption ally
Ġ<< =
Le gacy
76 5
44 8
23 5
23 7
ĠComp are
ĠComp ares
condition ally
Ġqu x
Ġqu er
contain er
contain ed
>`_ ,\
49 6
convert ible
10101010 1010
nA nother
[.. ]\
ident ical
Ġcl ar
Ġimport ing
Ġâ ĩĴ
Ġim mutably
timestamp s
Ġtrack ed
]( ../../
35 121
xd f
ĠIAoxc Clock
xa e
ĠPro du
Ġparent heses
can Call
66 6
xc f
tex p
xb a
xb d
xb f
ĠRem ix
var s
ĠSplit Result
Ġder iv
Ġexecution Delay
Ġchain Id
Ġfront ier
ĠEn for
ĠAr ithmetic
xf b
Ġcell Id
Ġsimilar ly
Store OutOfGas
Tra cker
Invalid Sender
ĠNot ably
access ible
Ġcarry ing
AB CDEF
Sup port
000000000000000000000000 00
ĠChar Indices
Ġnormal ization
child rens
System Call
Ġsatisf ying
Dyn Metadata
ĠDec re
Th read
partition ed
ĠMap While
even s
Ġprogram mer
ĠInitializ es
mapping s
Ġed iting
Ġed itions
Ġconf using
Ġcombin ing
Ġco ins
ĠSet LenOnDrop
Ġcomm unity
issue comment
Ġsimple st
Ġ{} !\",
Ġdelay ed
Ġexpect ations
success ors
ropert y
Ġbl ack
ĠRE PLACEMENT
ĠRE GISTRY
ĠBuilder Config
Ġtre es
ĠFormat s
ĠFormat tingOptions
ĠOnce With
Ġtransmut ability
cancel led
ĠContext Builder
Ġdecode BLS
Ġdecode PointG
^^^^^^^^^^^^^^^^ ^^^^^^^^
Pro duct
Ġadv ancing
Ġdereference s
Ġfill s
------ \
Sub normal
Sub expression
ĠCl ones
now ledge
ĠRangeInclusive Iter
Per iod
Per centSign
Ġbid der
ĠTra iling
ĠParse IntError
ĠStruct ure
Repair Mode
ben ch
ĠIN V
ĠIN ITI
ĠAssert s
mmetric Difference
Ġcapture s
277 47
),+ )
Ġrecurs ion
tag s
Ġprot ect
Short OffsetRunHeader
BL IC
OFFSE TS
icograph ically
Pointee Sized
ĠValues Mut
Mult Complexity
Ġdelegate call
ĠLO W
Veto Power
Ġph ysical
Ġinteract ing
Ġdivis ible
Colle ct
Mod Exp
MAL LEST
Ġconcept ually
ĠDatabase Ref
Nonces Keyed
exponent ial
ĠFuse Impl
Consecutive Storage
object s
Ġbro adcast
Ġwish ing
gre gate
Phantom Pinned
Ġrust doc
Ġcontin ues
Ġcontin uation
Reverse Searcher
Ġincrease s
Ġredu ced
Ġconsequence s
ĠDyn amic
ris u
vis ual
Ġproje ctions
ĠHas Drop
sug ar
AK ING
ho liman
uff le
release s
iche ver
Ġregister ed
Ġattack s
908 50
xDC A
good bye
Weighted Storage
Ġtell s
ampaign ID
Content URIStorage
ĠEnsure s
>& [
DI V
DI FF
Ġpie ces
ĠLower Exp
`]` <
Ġenfor ces
erg onomic
Web Authn
Ġexpir ation
Ġaccur ate
797 11
Permit Upgradeable
prom otable
decl aration
opcode s
---------| ---------|
ĠVer ify
TrustedRandomAccess NoCoerce
ITER AL
Den ominator
ĠChunkBy Mut
EscapeDebug ExtArgs
Ġblin d
Ġtrick y
Ġsear ched
Sload GasEIP
Vari able
increase Balance
Ġdir ty
Ġapproxim ation
bo ard
bro adcast
ĠIntersperse With
IFI ED
bea con
592 78
nPr erequisites
âĮ ĭ
review s
Ġassoci ativity
Ġenter ed
Ġscenari os
Capacity Overflow
UD IT
recip ient
Ġmaterial ize
REA DY
Ġanalyz ed
Ġrough ly
PEC IFIED
divis or
Ġmilli seconds
Ser vice
Ġelid ed
ttr acer
vil Twin
ĠiÃ§ in
getStake Store
transparen cy
Subexpression Eliminator
! \")\
& '
' -
) âĮĭ
* ][
+ --------
. ,\
. \")]\
2 14
2 20
2 39
3 74
6 78
7 64
8 72
9 80
9 29
= ``
= `.\
> \"),\
> ``:
? \");\
B A
C yclic
C itizenRecord
C LZ
D atabase
E XCHANGE
E VEN
F ungible
K E
L ot
L ondon
L ITERAL
M ENT
N egative
O O
P Y
P ut
P ub
P ayable
P ING
P RO
P ERCASE
R ing
R ule
R isk
R iskScore
S ENTINEL
T ier
T EN
T agged
U LE
V oted
W AY
W orld
W indow
Y eet
Z G
] ::
] ];\
] *\
_ \
` !\
a uth
b s
c anyon
c ookie
d om
d ue
d am
d riftsort
d raft
e valu
e liminator
f ound
g reater
g au
h ad
h ole
i age
i ated
i ous
i liz
j ob
k y
m ins
n h
n z
n code
n spec
n One
n create
n Use
n iche
n Members
n ExecutionResult
p x
p ack
p ost
p ause
p ha
p otent
r atic
r match
s in
s se
s store
s atisf
s Cache
t m
t z
t copy
t length
t world
x ef
x be
} :
} ``
è Ļ
Ġ 00
Ġ ----------
Ĳ \
Ġt y
Ġt ied
Ġt iming
Ġt iny
Ġa arch
Ġa udit
Ġa uditVoice
re me
re plac
re gistry
re cycle
re stricted
st ill
\" ``,
\" ],\
at om
le ave
le aking
se mit
or um
it ert
Ġf un
Ġf ake
Ġc t
al ted
:: _
un til
un decided
Ġ{ :?}
Ġs ample
Ġs ix
Ġb ul
Ġb loat
Ġb ooks
Ġb unch
Ġb asis
an it
an ches
an alysis
Ġ\" ..
ing leton
ing dom
Ġm eta
Ġm ovie
Ġm oment
.\ \
() `],
() },
om ed
ct lz
Ġw indow
-- \
de q
de fer
Ġis bn
Ġre built
Ġre entrant
Ġre veal
Ġre interpreted
Ġn iche
ab ove
ĠS ol
ĠS mart
Ġe crecover
00 4
00 30
ĠT ask
ĠT OD
ĠT ABLE
et y
et ail
et ches
!( (*
Ġ[ ^
Ġst aked
Ġd y
ĠA L
pe er
pe ers
ter m
Ġassert s
(& -
## \
Ġun conditionally
Ġ[` ?
Ġ[` [
ĠC ycle
ĠR HS
ĠE V
ĠE vm
ĠF EE
rust doc
Ġh older
ra sed
ĠN B
ĠN AM
ĠN egative
safe Mint
Ġex change
Ġex iting
Ġg rammar
Ġg lue
ore m
ĠO ut
ĠO ffset
art in
Ġde let
ĠP rot
ĠP acked
ĠP olymorphicIter
Ġfunction ally
em in
Ġ`` {
get ter
Ġ+ \
Ġ+ ---+---+---+---+
ĠEx C
Ġ_ ))
ĠD AO
ĠU til
12 4
12 67
Ġl aid
ĠM any
ĠM artin
ke ep
ke eping
10 59
10 43
In Drop
In AccessList
Ġse lection
St andard
Ġat tr
ex pl
ool s
ip s
ĠW on
Iter ate
00000000 11111111
Ġover written
`, \")]\
Ġli bc
Ġ' [
Ġnew Schedule
Ġnew MemSize
pre pend
!(\" ./
Ġpre view
ĠL ON
ĠL iteral
ĠL iterals
ĠL Ã©
Un lock
Ġpro gress
Ġpro xy
ance Check
>> ;\
min Num
row n
ee e
ĠIn v
ĠIn variants
Add Istanbul
---------------- \
(\" ,\
raw Signature
am ing
======== =\
ref ix
so ft
ell er
14 77
Ġup dating
Ġconc urrent
fin al
ĠCon t
Ġ7 34
Ġab icoder
13 1
13 9
ĠH orn
Ġme as
80 1
80 3
co in
sh ares
Ġlo se
Ġ&[ &
Ġ&[ ];\
Ġ&[ ],
Ġhe art
Ġneed ing
non ly
ĠUn ion
ĠUn fortunately
data Copy
Ġcontain ers
90 4
90 7
RE F
ĠK ingdom
Gas Limit
String Error
pro val
pro du
Ġvari ety
Ġinitial ised
comp ute
Ġset up
Ġstart Gas
1111 0
sub slice
com bin
ms b
77 8
77 9
77 998
None xistent
Set One
From Utf
From Elem
From Limits
place holder
Re achable
]) >
ID TH
Ch oices
72 7
max Num
Ex change
inter val
ĠIt s
vari adic
Ġright most
Ġ>= \
Ġper mit
Ġinter vals
55 5
trans ition
trans ient
core Address
Eq Ident
Ġversion ed
79 3
75 9
28 6
ĠAn Error
mod ate
mod ulo
cast s
Ġread ability
ĠInto Future
Ġsp awn
Ġtime point
ĠSafe ERC
rans parent
Code StoreOutOfGas
18 7
18 84
Ġexecut able
[] ``
ilt in
chain id
En ough
En gine
78 6
aw ner
74 5
74 7
74 48
ĠFrom Fn
ĠFrom VecWithNulError
state DB
app le
Se lection
ĠRange Mut
36 0
prec ation
ok es
ĠCh apter
swap ped
ĠRe ference
ĠRe member
58 92
{} '
ĠAoxc ore
ĠAoxc Vault
round s
initial ize
]` )
AR ATOR
ced ure
//////////// ///\
State Provider
termin ated
76 0
76 3
So lidus
<_ >`
<_ >,
Ġ16 0
42 168
Ġocc up
Ġsy m
Ġsy ntact
AC TI
>`_ ).\
convert To
Ġemit ting
89 4
Ġcharacter istics
Ġpair ing
Ġinvalid ating
Signer ECDSA
Signer RSA
Ġte am
Builder Metrics
Ġim age
Ġlimit ations
Ġenum er
xd a
ĠIAoxc Storage
ĠIAoxc AutoRepair
inherit ance
nthe y
ĠDrop s
ĠBorrow Type
ĠĠĠĠĠĠĠĠĠĠĠĠĠĠĠĠĠĠĠĠĠĠĠĠĠĠĠĠĠĠĠĠ ĠĠĠĠĠĠĠĠĠ
ĠUse Cloned
Ġext reme
__ __
OT AL
With Accept
CO PY
ĠRem aining
ĠPre condition
Ġmain ly
Ġrefer encing
sup plied
update WithAccept
ĠSplit Internal
Ġder iving
Ġdepend encies
Ġguard ian
ĠAtomic I
Ġrot ation
optim ization
UN ROLL
nIn ter
ĠAccess ing
xD FFF
Ġside s
Invalid OpCode
Ġref unds
Ġprim ary
Ġsen s
Ġter m
Exp ir
Ġrel axed
AccessControl Enumerable
Ġbr anches
Ġextra Weight
Ġunwind s
Ġextend s
gin es
IAoxc Storage
IAoxc Build
Spec ial
transfer Ownership
ĠTrans mut
Ġconfig ured
Ġfour s
ĠPr ints
ĠState DB
ĠState Provider
fail ure
Ġshort hand
][.. ],
][.. ]),
Ġaccept ance
ĠX OR
nS MT
Ġdrain ing
Ġexceed ed
stri ctions
00000000000000000000000000000000000000000000000000000000 00
AS SU
ĠEscape IterInner
ĠWith draw
7540 2
ĠRes erves
Float ToInt
ĠDrain Sorted
Ġaccording ly
ĠTryFrom FloatSecs
Ġbl acklist
Ġclean ed
Ġformatter s
ĠSub normal
Ġhard coded
ĠAss ociated
Ġtransmut ed
ĠUniqueRc Uninit
Ġincrement ing
ULT I
ĠCor rect
ĠUniqueArc Uninit
Ġer ased
RO UND
//////////////////////////////////////////////////////////////// ///////////////\
sim ulate
ĠQ UARTER
Ġra re
Small G
ren cy
Ġfill ing
ĠAp proval
iteration Count
dat acopy
Ġencode PointG
Ġpartition ed
ĠAsync FnOnce
Ġcover s
Ġvtable s
Ġauthor ity
ĠIN FINITY
Ġdistin ction
Ġpost fix
ĠFloat ToInt
Match Indices
lip page
ĠOver writes
example s
Ġprom ises
),+ >
,)+ )\
---+---+ \
Flashblocks Txs
je ctions
Ġconflict ing
pending Delay
Ġest imate
ĠMore over
Registry V
==================== =\
Sp awner
Oper ator
Ġshow ing
Pairing Istanbul
imate ly
Precompiled Contract
Message HashUtils
Ġforget ting
Ġgcd pow
Ġintegr ity
ĠExt Data
execute NeuralAction
Ġinclusive ly
Ġredu ces
Ġsubtract ing
++++ ++
ĠSu per
Ġpermiss ion
Ġbenchmark ing
ĠAct ive
ĠMaybe Escaped
STRU CTURE
Ġclamp ed
Mode xp
ĠProposal State
======================== ==\
-------------- -\
ĠOper ation
ĠPhantom Pinned
calcul ation
(...) `.
ĠSplitInclusive Mut
ĠTransfer s
Dep loyment
Ġreject ed
ĠGeneric SplitN
RAD IX
Ġai Node
Ġai Sentinel
******************************** \
Capital G
322 90
ĠDef ines
Quarant ined
Vacant Entry
ster dam
asset s
validate Reachable
RA STRUCTURE
prom ise
Ġmon ster
ĠWrap ped
************ *\
ScalarMul Istanbul
Ġelimin ate
Ġlift s
ĠLoad er
Ġfulf ills
ĠSy mmetricDifference
Ġanomaly Id
construct ed
LÃ¶ f
LÃ¶ we
Rate Bps
Ġdoub led
Confir med
Ġquest ion
Ġ[_ ]
Ġconj unction
1444 19
Ġpatch Logic
ĠSH ORT
Ġaccom modate
Socket Pub
ĠSpecF ill
ĠDecod ableFloat
Ġdatat ype
Ġ),+ )\
ĠPausable Upgradeable
ĠUpper Exp
ĠTwoWay Searcher
ĠObject ive
Best PayloadTransactions
Grant Delay
Round ing
Ġincon sistent
Ġ+-------------------------------- -----+--------------------------------------------+\
Handler Context
Ġsimpl er
ĠStop ping
SmallSort TypeImpl
ĠmakeCallVariant GasCallEIP
VAL UE
gan ization
Ġut iliz
Ġcir cular
Ġsqu aring
Bytewise Ord
Ġ`{} `
Ġhum an
Ġelli ptic
nTrans ient
ARG S
ESPAC ED
Ġdeduct ed
Super Type
MILL I
954 39
Sip Hasher
Ġdisting uish
ĠINF RASTRUCTURE
manent ly
Ġdrawback s
RIS K
ĠèĢģ èĻ
Ġreposit ory
1303 64
496 72
gau ge
potent ially
replac en
semit ransparent
itert y
ĠTOD O
ĠFEE D
ĠNAM ESPACED
Ġ+---+---+---+---+ ---+---+\
ĠLÃ© opard
rawSignature Validation
5892 34
updateWithAccept anceCheck
ASSU ME
validateReachable Threshold
SocketPub lisher
ĠèĢģèĻ İ
fn ptr
! )
! `,
' '
' \"
( ()))\
( ())`
) \"
, )*
. **\
0 44
0 100
1 32290
2 72
2 29
2 26
5 12
6 87
6 54
6 70
9 128
: |
: ])\
A SON
A rrays
B N
B e
B ased
C oll
C opied
C HAIN
D A
D AO
D ragon
E valuation
F mt
G OV
H o
H igh
J SON
J OV
L ar
L ittle
M S
M is
M aybe
M iri
M atches
N EXUS
P ar
Q U
R ew
R OR
R Split
S ent
S ingle
T OTAL
W A
W ITH
W IDTH
[ $
] ))
] ],
] ))\
] `][
a ff
b ab
b id
b zz
b ignum
c ad
d id
e ab
f r
f acing
g iven
g onomic
k zg
m u
m ary
n v
n into
n own
n call
n we
n Re
n On
n contracts
n Contract
n more
n While
n when
n arrower
n inside
o len
p ite
p roperties
q x
r b
r int
s l
t address
t v
t res
t EXT
t ADD
t GAS
t defer
w it
x ce
x ad
x ac
x ee
y eet
} }\
â ĿĮ
Ġ ####
in ux
in finity
in stall
Ġt al
Ġt rust
Ġt imed
Ġa Type
re ction
re built
re quency
st ion
st udio
se u
se ct
Ġf ac
Ġf ault
Ġf sh
Ġf shr
Ġf shl
Ġf resh
Ġc d
Ġc os
Ġc ateg
is u
Ġ` ()`
Ġ` >>`
en abled
un pin
Ġ{ /*
Ġs b
Ġs plic
Ġs olve
Ġb al
Ġb undle
Ġ\" \\\\
ce c
Ġp enalty
ar ches
ar bitrary
ar ica
Ġw indows
Ġw allet
de lay
de lta
de pths
de ployed
Ġis ol
Ġis Operation
tr ip
Ġre size
Ġre order
Ġre allocated
Ġre ordering
Ġre aches
Ġn arrower
es ome
ab aaa
Ġto ward
Ġto ggle
ic y
ic ol
Ġle aking
ĠS up
ĠS HA
ĠS EL
ĠS PAC
ĠS overeign
ĠS MALLEST
Ġe mits
Ġe mergency
Ġe mptied
ur g
ur ls
Ġ// #[
Ġ( <
00 41
ĠT oo
ĠT AB
Ġan swer
et ter
int her
Ġ- (-
ck nowledge
ue l
Ġv int
Ġv acant
`` <
`` @
Ġst ra
Ġst ated
Ġst olen
Ġcon nect
Ġfor ces
Ġfor mul
ĠA udit
ĠA LI
ĠA mount
Ġ1 20
Ġ1 001
Ġ1 19
Ġfn ptr
con sensys
Ġun s
Ġun related
`] ).
ĠC ustom
ĠC lients
ĠR ight
ĠE ither
ĠE vents
ne ven
ĠF e
ĠF etches
lin ing
Ġas m
Ġuse less
ĠN ull
ĠN ext
ĠN ormally
ĠN ucleotide
.. ,
.. `
.. ]);\
use Nonce
Ġg it
Ġg overnor
ĠO ften
um ing
Ġne ar
Ġde struct
Ġde grees
ĠP C
ĠP l
ĠP ending
ĠP ossible
ec b
Ġr find
Ġr ichest
ĠB U
ĠB est
ĠB MC
el n
get Main
us r
new line
new Owner
out side
11 10
ptr s
ac OS
ac cesses
==== ==\
qu ick
ĠEx D
Ġy es
cl ang
ĠD O
ĠD AT
ĠU P
ĠU NU
iv able
check Authorized
56 1
Ġl int
16 1
ty ping
ĠM etadata
init ion
Ġ4 80
10 8
10 58
Ġ3 00
Ġse aled
ex istent
Ġdo omed
ip ly
ĠW arning
Ġcomp os
np aram
pre ad
!(\" {}
ĠL ar
ĠL ong
ĠL ooks
Un reachable
Ġen cap
![ &
)) ]
ĠIn ner
am ma
res umed
ref resh
so le
so ever
ĠReturn To
Ġtra verse
IN V
ument ed
ĠG overnance
ĠG apGuard
Ġmod ular
>` ]\
>` :\
ĠAl gorithm
ĠCon tain
ĠCon version
Ġ7 70
Ġar m
ĠH TT
ass oci
sh ip
Ġlo sing
Ġhe ur
(| (_,
gra ms
non ces
ep rint
Ġorigin ally
ag ain
ag ine
Ġk ernel
ON S
Ġchar ged
mem set
Ġinst alled
ĠK ind
ĠK ey
String s
tra verse
over ned
comp onents
Ġ8 6
sub scrib
nT h
nT hen
af fect
cur r
und ant
Ġcurrent Delay
ll ll
Set ValZST
Ġass ist
Ġout come
Ġout going
count ing
ollow ing
Storage Offset
Re set
99 2
()` \"\
Ġap art
72 3
Map s
Ġgener ically
Ġper fect
Ġsome one
Ġeven ly
29 5
29 8
allow s
To Cell
Ġ.. ,
Ġgas Create
79 39
24 4
($ ._
ĠAn swer
MIN UT
Ġleft most
Ġbase line
Ġsp am
borrow ing
18 8
Ġmake Gas
()) ),\
Ġamount In
Ġamount Out
vers a
cre ation
]> ());\
******** **\
Ġdis k
87 4
87 155
spec ifically
Ġatomic s
74 6
state ment
dyn amically
Ġ($ ._
result s
36 5
36 6
36 7
ĠSh ared
59 74
exp ensive
Ġaddition ally
ĠRe present
ĠRe presentation
Address ToAccessList
noun ce
Ġlog ger
Ġlog ging
Ġ% =
float s
Ġmat ters
Trans ient
{} ):
Step Storage
track er
Ġthrough out
Point Evaluation
Ġsuper trait
53 5
Default Royalty
ĠDefault Hasher
>() ).
ĠAdd itional
Ġexist ence
76 314
ĠOp Receipt
ĠOp FlashblockPayload
ĠOp PayloadBuilderAttributes
ĠOp EvmConfig
Ġaccount ed
Ġ16 8
NonZero Inner
Ġinsert ions
(_ ))\
Ġqu otes
Ġcondition ally
store d
Role Guardian
100 450
Ġsy s
43 5
Once Future
>`_ ,
Ġ20 18
Sh anghai
DE BUG
nA lice
nA rray
verse ly
Ġnum fmt
Ġver ifies
89 6
Ġag ree
Ġforward ed
Ġ(` ::
alias ing
ĠFold s
ĠSpec Array
Ġevery where
Token Royalty
ilar ly
ts lot
ts witch
Ġtrack s
Ġtrack er
ĠSe arches
++ )
Ġmode xp
Ġpartic ip
ZST s
Ġsuccess ors
Ġdecl ares
Ġ$( :
ĠBorrow RefMut
Ġwhat soever
Ġ() >,
ĠĠĠĠĠĠĠĠĠĠĠĠĠĠĠĠĠĠĠĠĠĠĠĠĠĠĠĠĠĠĠĠ ĠĠĠĠ
ĠĠĠĠĠĠĠĠĠĠĠĠĠĠĠĠĠĠĠĠĠĠĠĠĠĠĠĠĠĠĠĠ ĠĠĠĠĠĠĠĠ
xc a
xc b
Neural Veto
big ModExp
xb b
xb c
27 18
equ ivalent
Ġbreak s
As Id
As Address
As Hex
Ġinv olve
Ġselect ors
remove Signers
Try Type
He aling
Ġaut omated
Ġdepend ent
ĠEn able
ĠEn coding
gr isu
implement ing
xf c
aking Storage
optim ized
Ġlocal ity
Ġdown side
Ġdown stream
total ExtraWeight
Ġindic ated
ĠNot es
Check ed
ĠSlice Ord
Exp ired
Const antinople
Excluded FromLimits
Ġvis iting
Ġdigit bits
Wh ite
word s
ey re
account s
print f
Bool Error
Ġstrict er
Ġmark s
Ġmark ing
Ġrole s
)> );\
abc def
gram ming
IAoxc AutoRepair
Ġ66 60
Memory Gas
Time TestCase
Ġviol ates
Dec laration
Ġconfig ure
Ġfour th
Ġstructure d
Supply Storage
>[ &
And State
zip ped
Ġben ch
inf ra
ĠGasFast Step
Ap ostrophe
ĠSign ature
Ġinherit ing
ĠWh y
Ġtrunc ation
alph abet
Ġden otes
Comp lete
uplic ated
power pc
Bit Len
ĠDis ambiguator
Enumer ation
ĠRE ASON
Ġhard forks
Ġconcer ned
nde cl
Ġattemp ted
solc js
ĠCor oll
Ġextens ions
Ġer ase
Ġer gonomic
Ġra ce
ĠRead y
export ed
Ġmaintain s
Ġcommand line
RAC T
ĠCap acity
Execution Error
Execution Info
Ġadj usted
ĠRequire s
recover able
operator Approvals
ĠExp onent
ĠExp ands
roy alty
RawWaker VTable
ĠAsync Fn
Never ShortCircuit
Ġrecover y
Jump Dests
under flow
elt a
Init Rew
fallback s
Ġconsist ency
ĠEX T
Ġready At
ĠSigner ERC
ĠSigner ECDSA
ĠSigner RSA
Ġloss y
ĠTryReserveError Kind
Parse IntError
Ġfre quency
Big Endian
fra structure
clo se
Ġpending Returns
Ġdevelo pers
Refund Gas
Ġmis aligned
ĠNew Contract
UNS PECIFIED
reg ard
reg ister
reg olith
ĠST AKING
Eip s
nE very
ĠCom m
Position s
nB ecause
Ġburn ed
Ġinf luence
Ġinstall ing
Ġreceipt s
Ġappear s
Ġtermin ate
Ġtermin ated
Ġtermin ating
NN NN
cv c
ĠUnsigned T
ĠSI GN
Ġcontin uing
symbol ic
Sstore Clear
Sstore Reset
nH ere
-------------------- ---+\
Bridge able
Royalty Info
ĠSu ffix
ĠSigned T
Ġconvent ions
ĠMaybe Done
Ġ|& (_
ICUL TY
ĠChange OutputType
Ġ``- ``
ĠPhantom InvariantLifetime
============================ \
============================ ==\
Ġunderstand ing
ampaign s
smt checker
Web SocketPublisher
Ġscop ed
Ġscop ing
ri ends
comput ed
Ġ)+ };\
nM ore
ĠMatch Indices
ĠNonces Upgradeable
Ethereum Hardfork
+-----------------------------------+-------------------------------- -----------------------+\
Crosschain Upgradeable
ĠMark s
Ġabstra ctions
Ġmanage ment
ĠURL s
Ġsl ashes
ĠSp lice
ĠAb orts
ĠRet ains
Ġsear ches
Confir mation
ĠDecimal Seq
Ġquest ions
ĠRegistry StorageV
Ġmonomorph ization
Ġfl ushing
Ġord inary
EXTCODE SIZE
EXTCODE HASH
Fin al
Ġpus hes
ĠParam eters
Stop Token
binder s
ĠAtomicU size
Merge IterInner
ĠMan ual
ĠInte gr
Ġquad ratic
Ġindirect ly
Ġmal icious
Ġnatur al
ĠRot ates
ĠPlace holder
grad ed
ĠGetDisjointMut Index
Co Var
ĠImport ant
Ġadap t
Prot ocolHash
Termin ate
815 13
Old Function
plement ary
Ġfoot print
Ġnic er
ĠColle ct
Ġinstanti ated
Ġ`<< `
Dest Cache
MPL I
Ġstip end
Ġdelimit ing
Ġinterest ing
ĠEnfor ces
satisf ied
Ġbul k
etail s
ĠUtil ities
REF COUNT
iltin Deref
ĠRemaining TimeTestCase
ĠSuper Error
Modexp Gas
9128 5
Coll ision
JOV IAN
stion Mark
ĠSPAC E
Ġstra ight
ĠALI GN
quick sort
ĠUNU SED
Ġencap s
MINUT E
InitRew riter
! )\
! `\
! `.
! {\
' ..
' ]));\
' ]),
' ][..]);\
) -
) \"\
+ --------------------
. \",\
/ >`_.\
0 11
0 10
0 101
2 38
2 57
3 597
4 16
4 13
4 34
4 906
5 34
5 15
5 23
6 00
6 15
6 50
6 88
7 11
9 24
9 19
9 005
: .
= '),
> ),
> `].
A F
A U
A ULT
C S
C alcul
C ASE
C leanup
D D
D ao
F lag
F loor
I gn
I NTER
I FT
J K
J ovian
K ET
M Store
N ON
N ames
O UR
P ad
P HA
P urpose
P aperback
R et
R ational
R ng
R JUMP
S int
S kip
S UP
S MT
S STORE
S tock
S eller
T oo
T ypes
T asks
V is
Y T
Z miri
[ ^
] *
] |
] :\
] ).\
] ``,
_ .
` &
b urg
c dd
c itizen
d ist
d ibly
d atabase
e ks
f u
f af
f iling
f uzz
g g
i dering
i eee
m ar
m ies
m sterdam
n l
n per
n ake
n Some
n static
n source
n Errors
n without
n Struct
n Mod
n Mapping
n variable
p lies
p oison
r pc
r matches
r adians
s Of
s acred
s nake
t n
t ic
t uint
t input
t Ä±
u per
u gin
v oter
w eek
x ed
x cc
x EE
x DB
| |
} >`
Î ²
Ġ her
in ally
in variants
er gency
Ġt id
Ġt ight
Ġa w
Ġa mp
Ġa ux
on s
on t
re es
re alloc
re cur
re cv
\" ][
at spec
he nt
he less
Ġ= ===\
it map
it ute
Ġf lat
Ġf unnel
Ġf ilename
Ġc make
Ġc tt
al gorithm
Ġ` %
Ġ` ..=
un er
un op
un its
un box
ed ger
Ġ{ \")]\
Ġs he
Ġs erve
Ġs acred
Ġs wit
ut ed
Ġb other
an onymous
Ġ\" )?;\
Ġ\" >()
Ġo saka
lf uzzer
Ġp y
Ġp ol
Ġm ist
Ġm iri
() ..
() ``.\
ct tz
Ġw all
Ġw ast
Ġw ild
Ġw inning
Ġw ides
-- -
de grees
de scription
lo om
Ġin Size
Ġin equality
Ġin coming
Ġis Sign
Ġis qrt
Ġre co
Ġre used
Ġre create
Ġn ightly
ab ic
Ġto do
ic ed
ĠS te
ĠS ING
ĠS QRT
Ġu ri
Ġe ff
ur d
Ġ// !
00 39
ĠT otal
Ġan gle
et place
ul ner
!( ![
Ġv ulner
Ġ[ $
Ġ[ ])
Ġ[ $($
ap e
ap prox
`` '
`` --
Ġst ops
Ġst uff
ert z
ot on
ot one
Ġcon su
Ġcon sole
Ġfor ced
ro ys
ro uper
Ġd i
Ġd q
Ġd ay
Ġd irectionality
ĠA bstractSigner
ad a
ad oc
Ġ1 38
Ġ1 96
Ġ1 98
Ġ* (*
ĠI stanbul
ĠI AccessManaged
ĠI SO
te en
Ġassert ing
(& []
## ###\
Ġun icast
Ġun ambiguous
Ġun leaking
`] &
ĠC ross
ĠC BOR
ĠR ather
ĠR ob
ĠE s
ĠE uler
ĠE cosystem
ĠF p
ver ify
Ġh on
Ġh ack
Ġh ook
me try
ĠN ormal
\\ \",
.. );\
size Inner
ĠO f
um mies
nt ail
Ġde ep
Ġde scend
Ġde creasing
Ġde initializing
Ġstr ide
ak ers
ĠP ort
ĠP IS
ĠP roperty
ĠP refix
Ġ} ``\
Ġ} >(),\
ec f
Ġ2 40
em ire
em ergency
Ġr split
Ġr adians
Ġr atio
ĠB id
ant ed
Ġ`` %
Ġ`` >
Ġ`` ==
Ġ`` >>
Ġ`` ../
get RegistryV
new Delay
==== ===\
ĠEx E
ĠEx isting
ĠEx poses
Ġ_ ]
Ġ_ ])\
val mut
uct ive
ĠD A
ĠD I
ĠD IG
ĠD ragon
ĠD ROPS
ĠV AL
ĠV otes
and line
iv ation
check On
check Role
check Selector
56 5
56 7
Ġl ay
Ġl iter
ĠM ed
Ġwh ichever
for ced
10 7
Ġadd end
Ġtr ie
In itial
Ġse c
Ġwe eks
ex ists
ip lier
Ġ5 000
ile s
Ġcomp ens
00000000 006
Ġover all
Ġover writing
Ġli ves
256 5
np m
Ġ' !
Ġ' \"
Ġ' {}'
cc d
Ġnew er
pre compiled
next Up
next Down
not ably
Ġpre p
Ġpre fetch
ĠL N
ĠL S
ĠL oss
ĠL ook
ĠL INE
ĠL inux
Un checked
Un defined
Ġcode Bit
ail ability
alloc ates
Ġen coder
Ġonly Entry
>> >`
>> >::
row s
ĠIn correct
ĠIn sufficientBalance
Add AddressToAccessList
Con cat
---------------- -------\
128 281
128 044
back wards
Ġstruct Hash
est im
Ġ! _
code Hash
block chain
14 1
14 9
14 100
14 43
ist ers
ist ency
AN ON
Ġ7 2
Ġ7 86
unk nown
13 5974
ĠH ex
ĠH aving
ĠH eb
ĠH ints
read able
<'_ >,\
Ġpr incipal
Ġthan ks
Or Self
ass ociated
Ġnon negative
âĶ ĦâĶĦâĶĦâĶĦâĶĦâĶĦâĶĦâĶĦâĶ
AL F
sh are
**** **\
Ġ&[ \"
Ġhe ld
Stack Overflow
Item Context
non ascii
Ġoverflow n
ach ing
ĠUn ix
Ġarr ives
<& (
Ġexp osing
su ally
mem move
Cell s
90 2
ĠAlloc ate
ĠAlloc Init
call back
pro of
Ġinitial Admin
Ġtrans formed
ĠWe ight
no alias
Ġ8 3
Ġ8 8
case d
sub typing
38 55
Ġ9 99
Ġ9 44
Ġ9 37
af l
Ref unded
Debug AsHex
Ġcurrent Allowance
Ġout lined
valid ity
From Slice
Ġ) +\
99 5
()` \"]\
Up percase
Ġkey Index
15 2
15 7
72 8
Ġcom ma
ous Dragon
Ġmin len
inter ior
inter sect
plic able
Ġsub err
Ġsub type
IC ODE
29 2
29 4
29 7
Ġcap ital
allow ance
VER T
Ġthere by
To Owned
âĶĢâĶĢ âĶ
55 2
Ġgas Selfdestruct
Ġgas ExtCodeCopy
Ġlast Pulse
24 1
24 3
24 5
24 7
24 9
75 1
75 2
26 6
Ġop posed
Ġcor ner
ĠPanic Info
)` )
Ġmult Complexity
30 3
nd o
nd igits
ĠInto Chars
ĠInto StringError
\") ).
\") ),\
Type AsId
84 9
84 90
Ġsp un
39 5
rans form
18 1
18 2
18 3
orm als
Ġob viously
Ġamount s
50 6
50 7
]> `][
******** *\
40 4
bit ops
On Panic
mul mod
Ġmost Sent
78 23
78 83
Ġown s
74 1
74 4
74 8
ĠRust docs
54 5
36 70
par sed
exp Len
SH L
SH R
SH IFT
ĠCh annel
ĠRe trie
Ġcopy sign
17 3
ethereum js
Ġlog o
58 2
ĠAs VecIntoIter
Trans itions
ĠAoxc Registry
Ġhash Operation
Point OrSelf
`]( `
Ġint end
Ġdst ChainId
pin Vector
>() `,
>() ])
Ġerr StopToken
Le vel
76 7
ĠCopy ing
70 2
abs f
ĠOp BuiltPayload
ĠOp codes
Ġconsider ation
Ġallocator s
ĠComp ared
([ -
dicate Searcher
NonZero I
Ġreg isters
(_ ),
token URI
Ġpure MemoryGas
43 99
Once Lock
AC HED
00000000000000000000000000000000 00000000000000000000000000000000
Ġ20 14
Ġ20 21
DE G
nA l
[.. ]
ĠItem s
BITS ET
PI E
Ġnum er
Ġ^ \
Al ways
Ġâ Į
(.. );\
evm one
Ġoptimiz ing
Builder TransactionError
33 1
33 3
33 7
ceed s
ĠSpec FromElem
prev randao
ĠTh in
IP V
Ar ch
Ġstored Data
ĠIntoIter Sorted
ĠIAoxc Registry
nthe ir
ĠPro cess
92 7
Op ChainSpec
ĠBorrow Ref
lt imately
Ġ-- -
ĠĠĠĠĠĠĠĠĠĠĠĠĠĠĠĠĠĠĠĠĠĠĠĠĠĠĠĠĠĠĠĠ ĠĠĠĠĠĠĠĠĠĠĠĠĠĠĠĠĠĠĠĠĠĠĠĠĠĠĠĠĠĠĠ
)* )\
)* ])*
ĠUse ful
ĠAll Included
27 1
27 64
entr alized
Ġbreak point
With in
(' ðŁĴ©
(' ='),
IG H
Ġaut hent
ĠSplit Whitespace
Ġguard ing
tuple s
Ġident ified
Ġstatic s
ĠAr abic
Ġdown load
Invalid Appro
Ġref s
qr tf
ĠNot Enough
------------ \
------------ -\
Pr int
Exp osed
Const ParamTy
ĠGener ates
Ġfind ing
Split Inclusive
ey ond
ĠtokenId s
ĠChar Searcher
Block Number
Block Env
Ġsum s
Ġskip ping
1438 74
------------------------ \
Spec FromIter
Dec ode
trunc ated
ĠDec omp
Ġret Size
Th inBox
Pre dicateSearcher
ĠAt tribute
Not Empty
Not AllOnes
Not Found
Ġpresent ed
ĠInitializ ing
ĦâĶĦâĶ ĦâĶ
ĠCursor s
Ġimmutable s
ĠEscape Ascii
clamp ed
Ġaccord ance
Ġappend ing
Ġden ormals
Borrowed Cursor
UT ION
lar ations
Ġ``. ``
trod uc
Bit Op
(|& (
Ġsol vers
ici ency
ARD IAN
Ġreport ing
ĠGet ting
Ġjump s
Ġ)* }\
Tx Context
Tx nExecutionResult
miss ion
Ġ200 8
Pro xy
Ġsynchron izes
Ġput ting
ĠAp pend
ĠCl oning
free ze
Ġmultip lying
Ġexclusive ly
ĠPU BLIC
rfc s
Ġgrow s
Ġgrow able
Ġ$(#[$ ($
Ġbenef icial
Ġcontr ibut
Ġcontr olled
ĠRun s
leg al
ĠBITS ET
Init iated
Ġrev oke
Ġ255 3
Ã¼ ÃŁ
necess arily
Decod ableFloat
Ġsymbol ic
Byte Size
man ager
tag ged
1234567890 123456
Ġresol ves
Ġconcaten ated
Ġdevelo per
())) )\
Ġdete ction
Ġvot er
Ġvot ed
Ġlib std
Ġpreced es
Ġpreced ence
Ġinteract s
ĠAddr Tracker
CodePoint s
ĠBuild Arguments
Ġsa fer
ĠOptim izer
ĠVa List
Ġconcept s
Nonces Upgradeable
Sp ender
ĠRangeFrom Iter
highest Bid
Position Info
âĪ Ī
Consecutive Id
ĠBorrowed Cursor
Evm ExecutionError
Rem ix
nB oth
133 125
hemat ically
Use Cloned
gre en
arant ine
563412 9078563412
Ġsimplif ied
Ġannot ated
ĠMod ifier
ĠUnsigned BytewiseOrd
Cl amp
Phantom Covariant
Word Gas
basic s
ĠVM Error
ĠVari able
Reverse Solidus
ĠSpecExtend Front
fort h
request ed
-------------------- \
ALI Z
Ġexpand ing
ension al
429 49672
={} \",\
Lower case
Lower Exp
ĠFail ure
Ġauction End
Ġclamp s
AK E
ho locene
Su ccess
[: ],
mpt ion
Ġthrow n
ĠArgument Type
Ġrecommend ations
Ġapprox imate
ĠSplitN Mut
Ġpe ers
Ġpe ople
ORK S
Ġtechn ically
10101010101010101010101010101010 1010101010101010
Ġreplay ing
Ġsuit ably
Ġrelation ship
nL et
Ġoverload ing
aterial iser
Flash Loan
Ġindependent ly
Ġ)+ )\
Ġclass ify
CHUNK S
Next BlockEnv
Ġ\"* \":
ĠInt ErrorKind
ĠVer ification
ĠNonces Keyed
************ ***\
itizenRecord s
ĠDes cription
CodeSize Exceeded
xxxxxxxx xxxxxxxx
Cre ator
Den ormal
direct ory
nEx ternal
nEx plicit
Ġir relevant
Ġambig uous
Ġescap ing
Ġreflex ivity
guide lines
Ġsl ither
ĠOOM ing
Unauthorized Account
9078563412 9078563412
ĠAssign ments
Vari ables
Ġconform ing
Ġdir s
Ġseem s
1444 26
Ġtransl ation
709 55
#\" {\"
unp ark
Ġpack ages
ĠSem ant
Ġaccom pl
ĠSpecF old
Ġframe work
ĠâĢ¦ ,
ĠRSplitN Mut
Ġdatat ypes
Ġpus hed
Ġmajor ity
Ġflex ible
Ġflex ibility
'\\\\ ',
Ġll vm
LET ONS
Ġrout ines
Ġestab lished
TypedData V
Va ListImpl
ai Node
Ġbyp assing
Cur ve
Peek Mut
Ġcarr ies
alancing Context
Ġrede signed
Ġrealloc ations
ĠSort ing
ĠRAD S
ĠMain Storage
ĠJUM PDEST
ĠTryCapture With
Temporary Allowance
SAT ransform
dim ensional
fw d
ĠVIEW S
Ġsole ly
1456 86
MIC RO
domain Separator
Ġhar ness
ĠExecution Info
Ġ': '
ĠWeb Authn
Rev oked
Ġindent ation
Ġmerges ort
Ġsurpr ising
ĠPartition State
ĠTempor arily
459 83
910 79
Def inition
Que stionMark
Ġmach ines
ĠClear s
plat form
TYPE HASH
448 38
Ġclar ity
Support ed
ĠINITI ALIZ
Lot sOf
Ġsix teen
anit ize
Ġdelet ing
ĠLON GEST
coin base
ACTI V
Ġextreme ly
nInter face
Ġblacklist Reason
589234 589234
Ho ister
Lar ge
bzz r
Ġcateg ories
icol on
ĠSEL F
Ġformul a
ĠContain s
associ ative
affect ed
MPLI ANCE
615 84
Dao Manager
Pad Bytes
xDB FF
Ġtid y
Ġctt z
Ġwides pread
ĠisSign Minus
ĠSING LETONS
Ġconsu mption
ĠVotes Upgradeable
checkOn ERC
ĠcodeBit map
ĠonlyEntry PointOrSelf
1443 36
ANON ICAL
ĠHeb rew
ĠpureMemoryGas cost
InvalidAppro ver
NextBlockEnv Attributes
! ());\
! ()`
! \";\
! \").
' :\
( ()).
) \":
) `],
) ].
) `][
) ])),\
* ::
+ '
, +
, )*)
. ].
/ [`
0 60
1 32
1 64
1 90
1 84
2 28
2 19
2 23
2 794
2 309
3 13
3 50
3 53
4 64
4 28
4 30
5 84
6 19
6 840
7 36
7 843
8 64
8 11
8 000
8 84
9 55
9 83
9 52
9 51
9 82
; }\
< (&[
= \"
> \",
> :\
> ``.\
A ut
A msterdam
B B
B E
B re
B en
B ad
B ra
B MC
B ACK
C A
C op
C itizen
C asing
C AK
D i
D omain
D ormantMutRef
E ther
E LE
E num
F ra
F inite
F rozen
F ORKS
G r
H ARD
H ING
H EL
H andshake
I Z
I LL
I LD
L ex
L ib
L AN
L edger
M AN
M ULTI
N ul
O ICE
P run
P unctuation
P eeked
P REC
S ig
S RC
S SA
S overeign
S ynchronized
S printf
T C
T LOAD
T STORE
T RY
U size
V oting
V OICE
Y ear
] -
] >(
] (\
] ].
_ :
_ ;
` *.
a de
a ab
b i
b of
b tre
c ac
c ard
c ounter
c md
d x
d ays
e mptied
f lash
f aa
f maf
g ov
g ather
h or
h ap
h istic
h ours
i um
j k
j an
k a
k th
m al
m is
m et
m ov
m asked
m ovie
n c
n es
n able
n bits
n marker
n Offset
n storage
n Of
n Block
n Events
n Comp
n zeroes
n available
n Variables
o osing
p map
r ational
s a
s pect
s sembly
s ink
s ynchronized
s leep
s istency
t k
t loc
t val
t lement
t data
t index
t default
t log
t wice
u ss
u jan
v able
v end
v ault
v anced
v oted
v oting
w r
w s
w as
w arning
w arn
x add
{ :
} );\
} `,
} \");
} \"))\
} \"#,\
Ã ľ
Î £
Ġ ',
Ġ ();\
Ġ ()`
Ġ utils
Ġ 00000000000000000000000000000000000000000000000000000000000000
Į ı
Ĺ »
// __
Ġt w
Ġt Out
Ġt ables
Ġa fl
Ġa cknowledge
re pe
re set
st mt
st hmus
at s
se ven
it f
it ate
Ġf oc
Ġf ash
Ġf rag
Ġf rozen
Ġc enter
Ġc rypto
al though
is ol
is Schedule
Ġ` :
Ġ` ^
Ġ` \",
Ġs pe
Ġs op
Ġs ib
Ġs lash
Ġs ale
Ġs ink
Ġs aved
Ġb iased
an omaly
Ġ\" !
Ġ\" +
Ġ\" \";\
Ġ\" ..=
ce b
}\ \
Ġp ackage
Ġp oor
Ġm inter
Ġm acOS
ar ujan
() ]\
om etimes
ct ree
Ġw ent
Ġw inner
Ġw akers
de em
de ps
de allocated
lo ys
Ġin equal
Ġin comparable
Ġis olate
Ġre act
es ides
ab e
Ġto ctree
ic ially
Ġle arn
ĠS Y
ĠS ide
ĠS ingle
ĠS pace
Ġe p
ur bof
00 75
00 69
00 63
ĠT ELE
Ġan onymous
ul ating
ul ong
!( -
li ance
li kes
Ġ[ ]\
Ġ[ ],
ap ping
`` /``
Ġst ory
Ġst eal
ert ypes
ot o
Ġcon ve
Ġcon travariant
Ġfor um
Ġfor bidden
ro cal
Ġd r
Ġd ig
Ġd ict
Ġd riftsort
Ġd raft
Ġd anger
ĠA C
ĠI S
ĠI NT
ĠI AN
ation ale
con tr
Ġun i
Ġun size
Ġun ix
Ġun conditional
Ġun necessarily
`] -
`] )\
`] /[`
ĠC P
ĠC ampaign
ĠR isk
ĠE LF
ĠE XCHANGE
ĠE vilTwin
ĠE rased
ĠF unnel
lin dedBid
Ġval s
ĠN e
ĠN amed
ĠN EXUS
.. .,
id ually
line Tests
Ġex tracts
Ġex cluding
Ġex hibits
Ġg r
act ers
nt hen
Ġnot ify
Ġnot Frozen
Ġor acle
Ġde sugaring
ign orable
Ġstr onger
ĠP ush
ĠP lat
Ġ} ``.\
ec d
em ap
ĠB F
ĠB alance
ĠB eyond
ant ic
Ġcan cell
Ġcan did
Ġ`` +
Ġ`` ^
Ġare as
get Ownable
us ually
im ize
64 0
64 8
11 77
set Threshold
set Authority
ac f
ĠEx F
Ġ< -
Ġ< [
Ġ< _
Ġ_ );\
cl usion
ĠD ST
ĠD ifferent
ĠV ariant
ĠV AULT
ĠU ser
ĠU sually
check ing
ĠSome Type
ef b
ef fort
ty method
ĠM ode
ĠM AN
ĠM igration
ĠM andatory
ff c
init ions
Ġ4 20
ast ion
10 100
Ġ| <--->|
In crease
In spect
Ġse cre
Ġwe ird
Ġat op
Ġat Stage
ex perimental
ex perience
Ġdo ctest
Ġch ance
FE N
Ġcomp letes
00000000 00000
Ġ' .
Ġ' );\
cc c
Ġnew T
Ġnew Admin
pre decessor
bug s
ĠOption s
Ġpre pare
Ġpre tty
Ġsh a
ĠL ast
ĠL ist
Un known
ind uctive
Ġpro grams
ance led
vi ate
![ (\"
>> `.
>> >());\
row ser
)) </
::< (
Ġwhere ver
ĠIn it
ĠIn finity
ĠIn clude
ĠIn lining
Add ed
Ġmemory Call
Ġmemory Cop
Con s
Con sum
(\" :
am ortized
res olution
be low
======== ===\
Ġ6 9
Ġstruct urally
IN IT
IN BASE
Str ategy
Ġsu ff
umb its
Ġ! ;\
code size
code gen
14 79
ist ence
ead ing
oo ses
Ġhas n
20 18
Ġ7 5
Ġ7 77
Ġ7 30
Ġ7 69
Ġab sent
Ġcur r
Ġcur ly
MA ssembly
Ġar ise
13 99
13 85
ĠH ave
80 4
80 24
Ġpr erequisites
Ġpr iced
Or igin
AL YT
sh orter
non positive
ĠUn wraps
ĠUn movable
pr uner
Ġno op
Ġexp ort
Ġexp onents
Ġsign um
su ite
Cell V
Cell Hash
90 5
RE AS
RE SS
Ġshould n
Ġstate lessGas
ĠAlloc ations
ĠOr der
pro ved
EC CAK
Ġtrans itivity
comp lex
Ġro b
Ġ8 2
we i
ĠResult s
ĠResult AndState
Ġ9 7
Ref ill
34 0
77 72
77 25
Ġj t
valid ations
From Err
Ġpublic ly
Re ified
Re ached
ld arica
ST ACK
()` '
Ġ? \
15 4
byte wise
max depth
Ġmin Delay
Ex ist
For bidden
Ġdefault AdminDelay
Ġcons idering
ĠErr CodeStoreOutOfGas
Ġper f
Ġper ma
Ġper manently
Ġsome how
Ġsub group
To Snapshot
)? );\
55 0
trans itive
Ġbet a
Ġlast Token
wise Eq
28 3
28 4
Ġins pected
26 8
Ġop port
Ġop Ext
mod ifiers
Ġ&& &&&&
19 1
19 67
30 2
30 40
nd ifferent
bool s
Ġbase Len
================ ==\
\") }
\") ),
ĠString s
ĠString Literal
84 2
84 6
opt imal
air person
Ġob vious
let ter
50 4
50 60
cre ated
cre ating
-------------------------------- ----
Ġdis cover
Ġdis crimin
Ġdis ables
40 73
chain spec
En abled
Ġloc als
bit and
78 2
78 3
Size IntoIterator
74 3
74 265
Ġad here
54 2
ĠSt ability
cal c
assign ments
36 9
36 30
hash map
exp n
prec ed
gas price
ĠRe fer
ĠRe ceipt
Address InAccessList
ĠDebug Set
ĠDebug Map
ĠDebug Struct
ĠDebug Tuple
Ġdiv ides
ĠBy RefSized
(( _,
stack Len
has hes
Ġdirect ive
Step By
]` ,\
AR GEST
Ġprop ose
Ġwrit able
Ġwrit eln
Ġwork around
Borrow er
SC HED
foo bar
termin ate
44 3
44 4
ĠOp GasLimit
ĠOp NextBlockEnvAttributes
Ġconsider ations
23 3
hel p
Ġunderlying Token
Ġsim ulation
([ $($
Ġinsert s
vent ions
Ġinit code
Ġreg istry
ME TRY
Ġqu ality
Ġqu eried
(&[ -
token Metadata
Ġsy nthe
Ġ20 24
sender s
Sh r
Sh ift
Sh unt
nA BI
nA ny
[.. ].
ook ies
Ġcl asses
)] `.\
89 2
UR Y
110 1
Ġimport ed
Ġ(` [
Ġimp osed
60 49
ĠBasic Block
33 5
Run ning
ĠSend ing
ĠSpec ification
Ġevery one
nth us
abiliz ed
Ġcompile time
ĠSe cond
++ \
encode s
ĠIAoxc Build
ĠIAoxc Sentinel
ĠIAoxc AuditVoice
ĠPro gramming
ph an
Ġparent s
66 5
66 8
Op code
Op aque
Op FlashblockPayload
Ġevalu ating
Ġpacket Hash
IS ION
Ġ-- -\
)`` .
ser vice
ĠAll Excluded
27 3
Ġlarge ly
Is SystemCall
Ġincre dibly
(' \"
IG IN
ĠSplit AsciiWhitespace
ude st
xf a
Transfer Limit
Ġlower ing
ðŁ Įı
ðŁ Ĺ»
cd c
do ctest
ĠNot Clone
ĠNot AllOnes
fb d
Check points
ĠSlice Chain
fc f
Ġprob lematic
ier Gas
Ġstandard ized
Ġbr and
Ġaccum ulate
Ġ$($ ($
prox imate
Split ter
gener ator
account Positions
âĢ Ķ
ĠChar PredicateSearcher
Ġfact ory
ĠMy Error
ception s
Ġman ner
Ġman ages
Raw Float
Spec ifically
cb f
ĠTrans ient
ĠTrans mute
ĠMIN S
Ġviol ating
ĠPr otection
sc ending
sc atter
Ġmask ing
CE SS
otent ial
output s
nS im
extra Weights
CH C
Ġed it
Ġconf use
olve Payload
require s
xA F
ĠWith Opaque
Ġregard ing
Ġden omin
Ġneg ated
Name IsReallyLong
tc ost
tc arry
batch Size
Ġincorrect ly
Ġsol ution
ĠRE PAIR
CT ION
thread ed
ĠInternal Node
ĠFormat ting
Appro ve
small sort
Ġlink ing
Ġtransmut es
Value Transfer
Get Balance
Get DisjointMut
Ġrecip rocal
ĠOwn ership
ĠPayload Id
ĠPayload Config
Revert ToSnapshot
Tx Index
Max Init
Ġduplic ating
Ġmint s
Signature s
Ġtrigger Emergency
)); \"\
Ġadv is
Ġclear ing
Ġclear ly
Ġra ised
New Contract
------ -
Extend T
ĠAp proximate
Ġkeyword s
Ġmechan isms
ĠExp osed
ĠExp ensive
Ġregular ly
Ġcr iter
Ġcr ashes
Ġencode s
Ġbenef its
Ġ``< <
xB D
Ġ23 00
ĠPrecompiled Addresses
Ġ4194 38
Pair s
sequent ly
ĠFloat ErrorKind
:?} \"),
ource s
Ġdeposit or
ĠAccessManager Locked
Left Over
Build HasherDefault
TryFrom Error
JUM PDEST
EXT EN
consider ations
ĠCH ARACTER
---------- -|
ĠDisplay Buffer
Ġprior ity
Ġconcaten ating
]\\ ([
Ġstop ped
Mult iply
ĠLO C
Ġopen ing
Search Bound
Do uble
LI MIT
Ġph one
Ġvot ers
Ġsuggest s
Ġdiff iculty
Ġmis use
ĠFlashblocks BuilderTx
ĠWrit ing
000000000000000000000000000000000000000000000000000000000000000 1
000000000000000000000000000000000000000000000000000000000000000 3
My Lib
Ver kle
uri ousDragon
ĠCan cun
Ġachie ving
Ġ([` &
ĠConst SizeIntoIterator
==================== ==\
Sp lice
nE nums
Ġded up
Ġimpro ves
structure s
Arg Ty
Ġinvol ving
aly z
Ġburn ing
Ġred undant
ĠAN ALYT
Ġdeleg ates
Ġprecompile s
Ġ&[_ ],
ĠAttemp ting
mint Consecutive
\"`` )\
Ġunexpected ly
Ġtermin ates
Ġjoin ed
Ġsimplif ies
Ġindiv idually
ĠPar is
ĠPar ses
ĠMod ifiers
Ġdisplay ed
Sealed Header
Phantom Contravariant
Word Size
ĠArray Windows
Ġlinear ization
Ġredu cing
ĠSip Hash
Selfdestruct Gas
Ġsubsequent ly
closure s
Ġcol on
Ġproject s
general ized
âĶĢâĶĢâĶĢâĶĢâĶĢâĶĢâĶĢâĶĢâĶĢâĶĢâĶĢâĶĢâĶĢâĶĢâĶĢâĶĢ âĶĢâĶĢâĶĢâĶĢâĶĢâĶĢâĶĢâĶĢ
ĠMaybe Sized
Yield ed
Ġreach ing
ĠProposal Core
Ġinspect ing
======================== =\
ĠRepeat With
Ġattack er
Su ite
[: ])\
ĠðŁĴ© \");\
ĠJump DestCache
Action Arg
Com mit
Ġcross ing
122 742
ĠSplitN Internal
ĠEnumer able
ĠAlways Escaped
Ġtechn ique
Ġodd s
ĠLower Hex
12345678901234567890 1234567890
Gener ic
smt lib
ĠDef initions
Ġoverload ed
duplic ates
Flash Borrower
843 644
TryReserveError Kind
Ġscop es
ĠMultiCharEq Searcher
ALIGN MENT
ĠExplicit ly
Ġaccur acy
âĶĢâĶĢâĶĢâĶ¬âĶĢâĶĢâĶĢâĶ¬ âĶĢâĶĢâĶĢâĶ¬âĶĢâĶĢâĶĢâĶ¬
âĶĢâĶĢâĶĢâĶ´âĶĢâĶĢâĶĢâĶ´ âĶĢâĶĢâĶĢâĶ´âĶĢâĶĢâĶĢâĶ´
enter ing
ĠDep ending
PR ICE
tstack value
Ġoffer s
644 87
Ġlift ed
ĠLoad s
Ident ity
ĠUnwind ActionArg
overr iding
ĠPrint able
HO UR
Security Tier
oder n
Ġ`| |
ĠDE FAULT
ĠLines Any
Upper Exp
TokenSupply Storage
person al
ĠâĶĶ âĶĢ
GasChangeCall LeftOver
beneficiary Addr
ĠMultip ly
nN ow
Ġ000000000000000000000000000000000000000000000000000000000000000 3
Ġbra ces
Ġbra cket
Ġrestore d
ĠFill s
Ġdoub ly
Capped Storage
Ġcryptograph ically
consume ScheduledOp
ĠUN ROLL
*)) .\
ĠSem Ver
-----| -----|
ĠSpecFromIter Nested
^^^^^^^^^^^^^^^^^^^^ ^\
Optim ized
Optim izer
ĠthisFunction NameIsReallyLong
750 27
ĠByte wiseEq
ĠLo op
Reference s
nnnn nnnn
Two Way
ili ar
ili ary
tw anted
Ġaspect s
Ġdemonstr ates
Decimal Seq
ĠARM v
790 24
Basic DataGas
BLOB HASH
BLOB BASEFEE
tre asury
Ġsatur ate
Ġintr usive
ĠTurn ing
ĠRep air
Go al
iction ary
nAdd itionally
nExp ression
ensure s
ĠNexus Storage
Ġdel ays
INDEX ED
Ġheav y
OneSidedRange Bound
Coin base
Ġfam iliar
),\" ::
Ġtravers al
ĠHead er
prot ocolHash
EMP TY
Approved ForAll
Ġillustr ates
Pl us
Ġethereum js
ĠMatches Internal
ĠLibr aries
ĠAltern atively
ĠForLoop InitRewriter
ĠgasSStore EIP
Ġcorru pt
ARR AY
Ġquer ies
visual studio
evalu ated
ĠTask Spawner
Ġstaked Balances
1267 99
ĠCont ents
Expir y
Special Casing
DA Config
Ġtimed Transitions
getMain Store
ĠLar gest
Ġheur istic
ToCell Map
nounce Role
ĠCoroll ary
3597 843644
dist ance
Ġaw aken
Ġamp lif
Ġaux iliary
Ġ\">() );\")]\
Ġreco gn
ĠRob ot
Ġliter ally
Ġsec ure
Ġprep ared
ĠâĮ Ĭ
Ġaccompl ish
domainSeparator V
Ben cher
HARD FORKS
HEL LO
Prun er
btre emap
cmd lineTests
histic ated
vend or
Ġfash ion
isSchedule Set
Ġsop histicated
Ġsib ling
urbof ish
ĠTELE METRY
ĠIAN A
ĠmemoryCop ierGas
REAS URY
7725 845
ĠReceipt BuilderCtx
SCHED ULE
ĠOpGasLimit Config
ĠWithOpaque Header
GetDisjointMut Error
$ .
' ;
' ]\
' ][
' ][..]),
( (\"
( (\
( ..=
( {})
) </
) \")\
* )\
, )>
. \"));\
. `[`
/ -
0 23
0 33
0 1010101
3 000
4 14
4 79
4 24
4 36
4 69
5 38
5 29
5 70
6 12
6 16
6 30
7 87
8 69
8 52
9 40
9 53
= &'
> \\
> \"\
> `](
A mb
C ancel
C anyon
C anceled
D ay
D ead
E ven
E arly
F OR
F LOW
G ov
G AMMA
G overned
H G
H alf
I Votes
I JK
J avaScript
K ick
L t
L emire
M EM
M ANCE
M issing
N atSpec
N ucleotide
O NT
O racle
P as
P rop
P os
P ays
P adding
P SILON
P added
R ID
R equ
R OS
R SplitN
S qr
T ake
T ext
T IP
U B
W ait
X OR
X leopard
[ ((
] *.\
^ âĪĴ
_ ,\
` \"]\
a h
a ap
a min
a decimal
b v
b w
b ed
b fs
c ab
c ale
c aa
c da
c ircu
c ampaignID
c itizenRecords
d ig
d up
d af
d irection
e ec
e per
e be
e bb
f i
f ce
f ab
f ives
f rozen
g round
i est
j ord
k t
l om
l ord
l Ä±
m alloc
m load
m ix
m oving
n i
n st
n se
n signed
n any
n version
n Call
n Internal
n should
n number
n using
n while
n New
n library
n Hex
n compiler
n radix
n Mult
n Only
n Oper
n Over
n Other
n arguments
n calls
n generate
n Running
o h
o ch
p le
p ct
p ill
r ng
s ip
s oul
s ave
s ses
t const
t set
t num
t OR
t mod
t mult
t consumed
v ote
w ould
x sub
x chg
x NN
x ffffffffffffffff
y on
y es
y cl
y gen
{ {
} \")]\
Â ¹
Ã ³
Ì ħ
Ì Ĩ
Ï ĥ
× ¢
× ª
Ġ Quick
ľ ħ
// #[
in p
in verse
in sensitive
in stant
er ial
Ġt rap
Ġt In
Ġt ends
Ġa ge
Ġa ff
Ġa head
Ġa ka
on line
re c
re en
re present
re members
st ar
st uff
\" `.\
\" `,
\" ``.\
le q
le th
le ew
se m
se al
or c
or p
or ial
or ough
it ting
Ġf mul
Ġf ilen
Ġc ircuit
Ġc rosschain
Ġc raft
Ġc lients
is Authorized
Ġ` @
Ġ` !(
Ġ` #![
en chmark
en gine
un e
un linked
un sound
un ities
un moved
un yielded
ed Type
Ġ{ \"
Ġs aves
Ġs ingleton
ut orial
Ġb are
Ġb ail
Ġb rew
Ġb rowser
an imal
Ġ\" ;\
Ġ\" )?.
Ġp x
Ġp ops
Ġp iles
Ġm ot
Ġm im
Ġm unch
ar ithmetic
Ġw o
Ġw el
Ġw atch
de structors
de precation
lo ops
ss a
Ġin bounds
Ġis Member
Ġis Blacklisted
Ġis Quarantined
Ġis ExcludedFromLimits
tr igger
tr uffle
Ġre p
Ġre name
Ġre ts
Ġre constructed
Ġn digits
Ġn zeroes
Ġn umbits
Ġto uched
Ġto day
ic rop
ĠS ty
ĠS warm
ĠS ENTINEL
ĠS tock
ĠS pinVector
ĠS SATransform
ĠS ometimes
Ġu y
Ġu ltimately
Ġe mul
Ġth orough
Ġ( {\
Ġ( ..).
Ġ( âĪĴ
Ġ( âĪŀ).\
Ġ( {}):
able SmallSortTypeImpl
00 40
00 73
ĠT er
ĠT yped
ure s
ure Evm
ul y
ul ates
li Error
Ġv d
ent ire
`` ),\
Ġst aking
ot ion
Ġcon fused
ro lled
il itate
Ġd ate
mut ex
ĠA B
ĠA g
ĠA bstract
ĠA uditVoice
ĠA ccept
ĠA UDIT
ad vanced
Ġ1 143
Ġ1 44
Ġ1 00000
Ġ1 996
Ġ* ;\
Ġ* ****
Ġ0 10
ĠI CE
ch ap
ch oose
ch anging
Ġun bound
Ġun ordered
Ġun des
`] ></
ĠC o
ĠC ACHED
ĠC liError
ĠR ecur
ĠE D
ĠE ise
ĠE PSILON
ne ach
ĠF ast
ĠF ence
ĠF actory
ĠF requency
lin d
Ġas k
Ġas semb
Ġal one
ver ifier
Ġh al
Ġh ot
Ġh am
Ġh yp
Ġh ides
Ġh ertz
ĠN ested
.. ]`
Ġreturn Gas
32 86
Ġex clude
Ġg ov
Ġg rand
Ġg overnance
ĠO ctal
nt here
Ġnot es
Ġnot able
Ġor phan
Ġne arly
Ġde v
Ġde generate
Ġstr ange
ĠP ut
ĠP atch
ĠP ower
ĠP ositive
ĠP urchase
ĠP otential
Ġ} \",\
Ġ} }`\"\
ome brew
per form
Ġr b
Ġr t
Ġr ate
Ġr anging
ĠB ASE
ĠB LOB
ĠB enchmark
-------- -\
el m
Ġ`` !
Ġ`` &
Ġ`` :
Ġ`` |
Ġ`` ++
Ġ`` >``
ow ards
im it
). `[`
64 5
64 21
11 5
11 100
set N
set Pending
qu es
qu iet
qu ery
qu arantine
ĠEx G
Ġy s
Ġ_ >>
ĠD own
ĠD rawer
ĠV eto
ĠV oter
and ling
ĠU b
ĠU nt
ĠSome Err
ĠSome Options
12 38
12 71
add mod
56 3
56 78
Ġl z
Ġl at
Ġl ayer
ox ygen
16 2
16 7772
ĠM at
ĠM OD
ff fe
for um
Ġcall Gas
10 57
10 41
In Qu
Ġse al
Ġse ed
Ġse ven
Ġse quent
Ġres ort
lock Storage
ER S
St ages
Ġch ooses
Self Destruct
Self Healing
FE DC
doc umented
Ġstd lib
Ġcomp rom
00000000 0
00000000 000
Ġmem cpy
np ut
Ġ' {
cc b
Ġnew Name
Ġnew Curve
!(\" ,\
Ġcontract Addr
Ġsh aring
ĠL ow
ĠL imit
Un its
Un supported
Ġpro be
Ġpro cedure
Ġen comp
flow An
>> );\
>> ().
>> `,
>> ],\
)) ?
)) .\
Add Byzantium
Ġmemory Create
Ġmemory Log
Con vert
LE FT
---------------- ---\
>( *
(\" \").
(\" ðĿĦŀ
vert heless
cap es
======== ==\
Ġ6 00
ref ill
Ġtra de
Ġtra vel
Ġ> ,\
ĠG ateway
ĠG AMMA
ĠG risu
Ġany one
block hash
14 50
14 58
ist em
ist ory
>) `,
IT E
IT IE
Iterator Impl
Ġdata Offset
20 5
ĠCon dition
ĠCon versions
ĠCon structors
ĠCon versely
Ġ7 4
Ġab sence
Ġend lessly
MA KE
Ġ: <
13 6909
13 58
ĠH e
ĠH ence
ĠH OR
ĠH omestead
text ual
read ing
ass uming
sh anghai
Ġlo oked
ĠFor ms
ĠFor ward
Ġ&[ $
Ġ&[ (
Ġ&[ ]),
ĠUn wrap
ag on
ag ing
Ġ{}\ \
Ġno body
Ġsign ing
nf ile
mit ting
Ġpart ies
RE D
RE S
Gas Frontier
return Gas
call code
ia leq
); ``
EC OND
sent inel
comp act
Ġset Target
Ġget Target
1111 1
sub tree
Ġ9 76
ms cript
ĠNon Drop
Ref Searcher
Ref Spec
34 7
77 3
77 56
und o
und ing
Ġcurrent Threshold
Ġj ovian
Set up
count Table
From Fn
From Within
Ġ) ?\
Ġav ailability
99 7
Ġwor se
15 1
Ch oice
Ġtarget ing
Ġcompil ations
byte set
Ġcom ing
Map Windows
Ġmin utes
Ġmin imize
Ex it
inter op
For Value
Ġpl ugin
Non Ord
Ġdefault Admin
Ġmax len
Ġmax Assets
Ġmax Shares
Ġback ed
Ġcons ult
ĠErr Depth
part y
part ialeq
Ġsub tree
1010 35
Ġcap abilities
Ġinter le
Ġinter im
To Big
ĠPartial Drop
55 35
arr iage
contract Addr
contract Address
XL ayer
Ġoff icially
OVER FLOW
trans act
core Token
79 58
ĠRc s
ĠCore Storage
75 3
($ (
28 2
By Owner
26 12
Ġop T
Ġop Jump
Ġop Create
Ġop Blob
Ġcor outines
Ġcor rection
ĠPanic Message
Ġbehavior s
19 3
Ġwrap pers
Ġtoken Address
\") ``.\
Access CostEIP
import ant
Ġoffset ting
tf p
ever y
39 4
39 89
Data Copy
Data Src
Code Chunks
Range Gas
Range Setup
18 5
Ġht tp
Ġmake Log
50 1
50 2
50 9
cre ments
cre ased
-------------------------------- \
Ġdis count
Ġdis pose
Sign aled
87 6
87 30
87 36
40 2
chain Id
Ġsup plementary
En ter
En code
En coder
En forced
Ġ12 34
On Exit
On Enter
Ġact ively
last Pulse
fo orc
78 8
aw esome
74 56
ĠFrom Bytes
Ġdebug ger
Ġclo sing
54 3
ĠSt atic
ĠSt ages
ĠSt akingStorage
ĠSt abilized
ĠPoint ers
ĠY our
36 56
hash TypedDataV
ĠSh uff
gas left
:` \"
Ġcursor s
69 3
ĠRe ified
ĠRe strict
ĠRe build
ĠRe putation
Ġprov ed
uc ceeded
ivalent Pair
hed Post
open group
ĠDebug Inner
ĠTry Into
Ġsupport ing
ian a
ĠAs sembly
has Schedule
ĠAoxc Cpex
ĠAoxc Nexus
rain ed
Contract Address
Point Sub
Ġprop oser
Ġconstant inople
53 7
Borrow Counter
>() ]
70 80
Ġchange log
ĠComp aring
Call er
Call IsReallyLong
Err InvalidOpCode
NonZero Usize
Ġqu orum
BI AS
Role Member
Role Revoked
Ġheap s
43 7
ffect s
>`_ .
Ġcould n
Ġ20 1
Ġ42 59
DE ST
10101010 1010101
46 5
[.. ]`.\
current Delay
)] ));\
89 792
Buf Drop
param eter
(.. )\
Ġ(` \\
valu ed
valu ate
Ġlife span
lib m
Ġdescr ipt
Payload Handler
Payload sCache
Token Bridge
Token Legacy
Ġspecial izations
ĠTh ank
constant inople
ĠDe construct
Control Word
bin aries
run nable
]( ../
Deref Pure
ĠIAoxc Nexus
nthe se
Ġposition al
91 642
Ġstabiliz ation
ph abetic
Ġtransfer ring
Ġspace s
can cun
ĠCheck ing
Op PayloadBuilderAttributes
UP PER
UP PERCASE
FIN ITE
Ġtotal Mint
ĠBorrow Error
ĠBorrow Counter
Ġ() ),\
Ġ() >,\
Ġ() >);\
ĠĠĠĠĠĠĠĠĠĠĠĠĠĠĠĠĠĠĠĠĠĠĠĠĠĠĠĠĠĠĠĠ ĠĠĠĠĠĠĠĠĠĠĠĠĠĠĠĠ
ĠĠĠĠĠĠĠĠĠĠĠĠĠĠĠĠĠĠĠĠĠĠĠĠĠĠĠĠĠĠĠĠ ĠĠĠĠĠĠĠĠĠĠĠĠĠĠĠĠĠĠĠĠĠĠĠĠĠĠĠ
ĠĠĠĠĠĠĠĠĠĠĠĠĠĠĠĠĠĠĠĠĠĠĠĠĠĠĠĠĠĠĠĠ ĠĠĠĠĠĠ
ĠWeak s
Ġ... )
Ġ... `
ĠPoll Fn
)* ],
)* )?
big gest
kn itting
ob vious
Ġext ending
ĠBu iltinDeref
Is Uint
Is Prague
Is Deployment
entr al
With Uint
Ġload ing
ĠRem apping
As sembly
As Uint
(' :
ĠSplit Iter
ĠSplit Terminator
xx x
oper and
oper ability
ĠAr m
ĠAr chitect
optim izations
Transfer Received
96 3
96 999
limit ed
Ġfree ze
Read s
istr ibution
PER FOR
ached Reads
Invalid Jump
prefix free
do gs
------------ ---+----------------------------------------------------------------
... \",\
Ġbig int
**************** *\
my File
Ġcare s
Ġz u
Ġz v
Ġcost ly
ĠOther Contract
Metadata URI
Ġcounter parts
deref mut
Ġstandard s
role Members
Ġsignificant ly
Ġsend s
Split Result
Split AsciiWhitespace
fused Multiply
allib ility
VE TO
âĢ ¦
Ġmark ers
000000000000000000000000 000
ĠChar Slice
ĠChar ErrorKind
Block Event
Ġsum mary
<_>> (),\
------------------------ ---\
comm andline
---+-------------------------------- +----------------
Time lockStorage
Ġviol ations
Ġconfig ur
ĠBe low
Th an
hes is
)+ \
================================ \
05 99
Ġfinal ize
Ġfinal ized
Lock down
Lock Active
Ap plication
Ap plicable
cont in
bb bb
cat s
output Selection
Key Type
Not ice
Not Clone
nS uch
Ġimportant ly
alle l
aoxc Stock
Return Arg
ĠNeural Packet
Ġed itor
Ġed elta
ĠTr unc
Ġconf usion
require Owned
eb c
eb f
hig her
ĠFunction Hoister
ĠRes olvePayload
Ġ``. /``
============ ===\
ĠBase Fee
author ity
bc f
Ġcoer cing
(|& &
Ġ{} ,
Ġhole s
Ġexpect ing
success or
blob basefee
Ġbl ake
ĠBlock PayloadJob
Global LockActive
(()) `.\
Ġ22 00
Ġtre ating
small er
Ġlink er
ĠFuture s
Ġjump dest
clear ing
Get Code
Get Ptr
This Year
Escape Unicode
fit ting
Ġ`! `.\
Ġdecode AsUint
Ġcancel s
Pro cessed
ĠAccessControl Storage
ĠAccessControl EnumerableStorage
ĠAccessControl Enforced
Ġwr ote
Signature Checker
Enumerable Upgradeable
Dis countTable
Ġclear s
Ġpop ping
decode AsAddress
Ġpropag ate
Ġrestrict s
export s
CODE SIZE
ĠCap Words
Ġput s
ĠAp plication
]<[ `&
fd im
recover y
xxxx x
Ġkv s
Ġenc lo
Ġenc losing
Ġadmin Role
Ġrelative ly
Ġrecover ing
!(!( ..=
ĠRun PrecompiledContract
ĠGo ing
Ġallowance s
ĠStruct s
Base Gas
Ġauthor ization
ĠId ent
ĠUnsafe Unpin
ĠAssert ions
ĠAssert Kind
Wrapper Upgradeable
Ġca ution
Ġopt b
Ġpay ing
:?} \"),\
:?} \");
Ã¼ n
Ġlowercase d
ĠSim d
Lazy Lock
Ġprom oted
Ġclose ly
URIStorage Upgradeable
EXT CODECOPY
fra ctional
Ġflatten s
Ġretrie ves
---------- -\
Ġdiffer s
Account AccessCostEIP
'..= '\\
Ġwithdraw al
Ġconcaten ate
ATE WAY
Ġalternative ly
pat ched
top ics
Do ubleEndedSearcher
group s
nC urrently
Ġnest ing
Ġdivis ors
One Ring
Ġmis match
ĠFlashblocks State
ĠFlashblocks Builder
ĠFlashblocks BuilderCtx
ĠDer ivable
000000000000000000000000000000000000000000000000000000000000000 2
reg ion
ĠST RU
ĠST OP
ĠCan not
Ġho locene
ĠMut ably
Failed Execution
Root Provider
Ġmed ium
==================== ===\
ĠDoes n
Sp ent
nE ven
Ġded uplicated
Can not
Asset Token
Rem aining
Rem aterialiser
nB e
Pairing Byzantium
################ ####
################ ################
Ġintroduc ing
Batch Size
Batch Mint
Batch Received
Es cal
Ġannot ate
ĠMod ifying
Ġdiscard ed
Ġdiscard ing
Dst DataSrc
Element Location
Phantom Invariant
ĠCast ing
ĠVari ance
ĠBuf T
ĠEquivalent ly
Sstore Set
SLOT NUM
Bridge ERC
Pool Transaction
ĠFlashblock HandlerContext
ĠFlashblock PayloadsCache
Ġintention al
âĶĢâĶĢâĶĢâĶĢâĶĢâĶĢâĶĢâĶĢâĶĢâĶĢâĶĢâĶĢâĶĢâĶĢâĶĢâĶĢ âĶĢâĶĢâĶĢâĶĢâĶĢâĶĢâĶĢâĶĢâĶĢâĶĢâĶĢâĶĢâĶĢâĶĢâĶĢâĶĢ
Ġfp u
ĠHas hedPost
Yield RateBps
Ġguide lines
======================== \
ĠðŁĴ© \")
Ġlex icographically
Ġstay ing
nThere fore
AccessManaged Storage
ĠEncode s
ĠEncode Utf
ĠEncode Wide
tcontract Addr
Ġreject ing
setSigner Weights
ĠGeneric Shunt
attemp ted
ĠAlways Applicable
MultiExp DiscountTable
Cor rect
145 203
)} (
mus ic
lig ible
`]` (
`]` ()`.\
ĠVis ibility
Flash Mint
crit ical
Static CallEIP
commit ed
ĠOverr ide
ĠMultiCharEq Pattern
Ġgadget s
ĠDetermin e
Ġaccur ately
IAN A
Ġmon oton
Ġ([ ],
ĠPool Bounds
CallCode EIP
ScalarMul Byzantium
/>`_ ,
nCon sider
ane ous
ĠOFFSE T
ĠDes ign
ĠDes pite
Ġ&[[ '
Ġexplo it
((* [
Delegate CallEIP
ĠClamp s
Blob Verify
Ġanomaly Ledger
ĠRec over
Ġdecrement ed
ĠDE LET
withdraw als
197 99
Withdraw als
GasChangeCall FailedExecution
dereference able
ls x
tM UL
tM STORE
Ġ000000000000000000000000000000000000000000000000000000000000000 2
Ġbra ce
109 342
Ġloan ed
Ġdiscus ses
Long ReturnArg
square Root
Ġconj ure
ĠPadAdapter State
^^^^^^^^^^^^ ^^\
WithNulError Kind
temporary Allowance
ĠNumBuffer Trait
Ġ`# `
Ġnavig ate
Ġnavig ating
******************** **\
Ġscript s
Recover ed
Ġwitness Gas
ĠthisFunction CallIsReallyLong
120 301
Ġspin lock
ĠUpper Hex
Ġverifying Contract
Ġestim ation
ĠTwoWay Strategy
ĠCommon SubexpressionEliminator
Grant ed
NOT HING
Round s
Side Kick
ĠDest roy
ĠDest roys
ĠConcat enates
Ġrout ine
CONT RACT
Ġestab lish
tiger Xleopard
<! ,
Two Drop
Wide T
nUn used
Ġ-------- -\
stat ue
Ġnatur ally
10110 1
ĠAsset Type
grad ing
ownedTokens Index
==================================== \
LockState Changed
Ä±n Ä±
ĠGetDisjointMut Error
'] ]);\
Cur ly
Peek able
Witness Gas
ii ii
ĠRAD IX
ĠMain net
Contain s
Contain edType
ĠGu ide
ĠGu arante
Ġhighlight s
Ġhighlight ing
ReturnData Copy
ReturnData OutOfBounds
Ġfuzz er
aaaaaaaa aaaaaaaa
eeeeeeee eeeeeeee
7739773977397739 7739773977397739
PayloadJobGenerator Config
Temporary Approval
Cold AccountAccessCostEIP
DC MAKE
FD FD
ĠTagged Option
ĠRoyalty Info
Ġheav ily
Ġanalog ous
ĠSuccess ors
+---------------- ---------------+----------------------------------------------------------------
Os Str
git ter
nw ould
icall Upgradeable
Ġdaily TransferLimit
getAccessControl Storage
getAccessControl EnumerableStorage
ĠMA IN
ĠMA NTISSA
ĠMer ges
InPlace Collect
ĠConstruct ing
697 80
ĠSelect s
############ ###\
ĠCharArray Searcher
ĠCharArray RefSearcher
Ġmultiplic ations
angerineWhistle InstructionSet
[][ ]
tmem Offset
isValid Signature
Ġsus p
Ġ\"âĿ¤ \\
Ġow ed
ĠSEC S
ĠDoc ument
ĠWait ForValue
Ġconserv ative
ARI ANT
Ġintu ition
ĠDecre ment
ĠINV ARIANT
Service Builder
+-------- +--------
Fungible Upgradeable
Put Element
Tagged Option
pack ages
Ġct lz
ĠProt ocol
1477 50
produ cing
Ġoccup y
Ġsyntact ic
ĠextraWeight Removed
ĠTransmut ing
ĠTryFromFloatSecs ErrorKind
670 57
:| ---
Be gin
kzg PointEvaluation
seu do
Ġfac ilitate
Ġsplic ed
Ġconnect ed
Ġuns izing
ĠBest FlashblocksTxs
ĠDAT A
nparam eter
INV ALID
ĠmakeGas Log
ĠRepresent s
Ġdownside s
alphabet ical
SstoreReset GasEIP
ĠMatchIndices Internal
ĠImportant ly
Ġstraight forward
+-------------------- ---+--------------------------------+----------------
011 00100
Calcul ator
Vis ual
week s
Ġshe ll
Ġeff iciency
Ġunambiguous ly
ĠPort ability
ĠDIG ITS
estim ated
âĶĦâĶĦâĶĦâĶĦâĶĦâĶĦâĶĦâĶĦâĶ ĦâĶĦâĶĦâĶ
ĠgasSelfdestruct EIP
Ġnumer ical
Always Escaped
IGH T
Ġauthent ication
ĠNotEnough Ether
Print able
Bra cket
Fra ction
IZ ONT
LAN ES
PREC ISION
Voting Units
flash Fee
hap s
itf all
isol test
Ġspe aking
anomaly Id
ĠAC CESS
1177 29
astion Sealed
Ġsuff ices
1399 11
Ġopport unities
Ġdiscrimin ants
preced ence
ĠNotAllOnes Helper
Ġadvis able
ĠAccessManagerLocked Role
EXTEN D
ĠLOC AL
uriousDragon InstructionSet
alyz er
ĠEnumerable Set
GasChangeCallLeftOver Refunded
Ġamplif ication
({}) \",
Amb ivalentPair
MEM BER
Pas sed
TIP PING
aap cs
circu its
nOper ators
ycl able
Ġaff ord
online pubs
star lord
leew ay
Ġfilen ames
Ġwel come
Ġrets z
ĠStock s
Ġ(âĪĴ âĪŀ).\
Ġundes irable
ĠEise l
InQu ery
FEDC BA
ĠnewCurve Point
flowAn alyzer
Ġtravel led
1450 36
ITIE S
1358 94
ĠHOR IZONT
mscript en
CodeChunks RangeGas
Encoder V
ĠFromBytes WithNulErrorKind
hasSchedule Passed
PointSub group
96999 19799
PERFOR MANCE
fusedMultiply Add
ĠCharSlice Searcher
ĠBaseFee Params
DstDataSrc BufDrop
ĠAlwaysApplicable Ord
+-------------------------------+---------------------------------------------------------------- -------------+\
+-----------------------+--------------------------------+---------------- -------------+\
ĠHORIZONT AL
! `]\
$ }\",
$ ([$($
' :
' `,
) (&
) ..
) \"),\
) `].
+ )
+ ]
, ))
- )
. ).\
. \")\
/ ../
/ *\
0 80
0 90
0 50
0 46
0 110
0 51
0 47
1 77
1 79
2 11
2 10
2 13
2 80
2 75
2 76
2 52
2 101
3 11
3 56
3 16
3 38
4 99
4 86
4 23
4 142
4 646
5 99
5 000
5 28
6 60
6 57
7 32
7 30
7 84
8 30
8 58
8 57
9 12
9 14
9 34
9 77
9 15
9 36
9 86
9 44
9 42
9 48
9 49
: \\
: ],
: .*
; `
; ``\
= +\
> ...
? `
A UDIT
A WA
B ob
B ody
B OO
C enter
C AST
C alled
D ER
D ST
D irect
D IS
D AY
D iff
D ormantMut
D rawer
E Q
E ither
E AR
E ldarica
F err
F ER
F AC
F ilter
F ALL
F IR
G t
G it
G roup
G rouper
H i
H ow
H ashes
I A
I F
I SC
I AccessControl
I AccessManaged
K i
K ZG
K ECCAK
L ow
L ink
L etter
M L
M M
M COPY
N C
N G
N ATE
O ff
O ps
O FC
P e
P arent
P AD
P oisoned
P olymorphicIter
P references
P ARATOR
Q m
R S
R IT
R UN
R AND
R IGHT
S ha
S Load
S ucceeded
T here
V C
V TABLE
W i
W arning
X ghi
Y es
[ (
[ *
[ ])
] ]);\
_ (
a con
a os
a ea
b log
b fb
b cb
b eta
b ca
b loom
c ce
c de
c op
c ify
c af
c make
c ertain
c ategory
d p
d r
d ot
d cc
d aily
d ummies
e ac
e af
f h
f ac
f add
f min
f max
f ma
f loating
f uel
f riends
f jord
g y
g ar
g overnance
h ard
i ents
i quidity
i Ã³
j ure
k os
k ernel
l a
l int
l amb
l ondon
m as
m ac
m igration
m une
n address
n G
n m
n il
n add
n its
n ary
n sub
n ative
n always
n saturating
n contain
n current
n memory
n mapping
n Fixed
n within
n user
n ames
n amed
n Order
o od
p i
p ast
p ark
p ie
p ired
p oisoned
r ating
r isk
s m
s w
s ive
s load
s Map
s Schedule
s nap
s anitize
t ip
t base
t blob
t JUMP
t CREATE
t jumpDests
t statelessGas
t stateDB
t iterationCount
u f
u ck
u key
v s
v eto
w g
x ec
x iv
x ffffffff
x EF
y per
y ntax
z ing
| :
} ).\
¦ Ģ
Ä °
Î Ķ
Ġ ())\
Ġ 000
Ġ ::\
Ġ ]);
Ġ ï¿½
Ġ Î²
Ķ âĶĢ
in coming
in liner
Ġt un
Ġt ro
Ġt weak
Ġt ier
Ġa im
re p
re ally
re mapping
re putation
st ed
st op
st ood
\" ``\
\" )?\
at in
at able
at hs
le e
he never
se p
se ss
se que
or al
it ig
it ution
Ġf il
Ġf ig
Ġf air
Ġf ancy
Ġf undamental
Ġc f
Ġc he
Ġc str
Ġc br
Ġc ryptography
Ġc ampaignID
al k
al m
al anced
al Nonces
al pha
al Preferences
is Signer
is Sealed
is Blacklisted
en esis
un like
ed a
ed b
ed up
ed Node
ed itor
Ġ{ ...
Ġs q
Ġs pend
Ġs ine
Ġs Len
Ġs peed
Ġs caling
Ġs lippage
Ġb c
Ġb h
Ġb i
Ġb at
Ġ\" >
Ġ\" ()
Ġ\" \"\
Ġ\" []
Ġ\" ]></
Ġ\" `.\")]\
ce iling
ing ly
ing Mul
Ġp ra
Ġp ict
Ġp urchase
Ġp seudo
Ġp itfall
Ġm ere
Ġm eter
Ġm odern
Ġm itig
ar xiv
() ]
() ]);\
() ];\
() ].
() ``\
]\ \\\
ct ests
Ġw it
Ġw ishes
de b
Ġin c
Ġin size
Ġin State
Ġin habited
Ġin hibits
Ġin frastructure
Ġis Valid
fe fe
fe es
fe span
Ġre ve
Ġre map
Ġre vm
Ġre cently
Ġre borrowed
Ġre jections
Ġn atspec
mp ro
ab solute
ic on
ĠS O
ĠS ep
ĠS ever
ĠS ender
ĠS SE
ĠS EP
ĠS witch
ĠS eparator
Ġe th
Ġe ax
Ġe of
Ġ( /*
00 8
00 86
00 21
Ġi le
Ġi ot
Ġi sthmus
ĠT op
ĠT ools
ĠT REASURY
ĠT ukey
et ting
int ention
ul p
!( @
li est
li ved
as ible
as cending
Ġv ast
Ġv irt
Ġv db
Ġv oice
ap in
iz able
ot ers
Ġfor cing
Ġfor got
ro ck
ĠA S
ĠA ction
ĠA FL
ĠA uto
ĠA SS
ad t
ad apter
Ġself destruct
Ġbe acon
Ġ1 84
Ġ0 1
ay ments
ub b
ĠI TER
ĠI nput
ĠI mpro
ation Count
ation Mark
ch aos
con omic
con nect
con jure
Ġassert ed
Ġun rolled
Ġun documented
ĠC r
ĠC aveat
ĠC LOCK
ĠC itizenRecord
ĠC HAIN
ĠR ules
ĠR MatchIndices
ĠR Matches
ĠR ISC
ĠE dition
ĠE mbed
ne sted
ĠF ut
ĠF ix
ĠF lags
ĠF UN
Ġal pha
ver kle
Ġh is
ra se
me work
ĠN umbers
ĠN omicon
ĠN inther
str ument
\\ _
.. ]
.. ))
.. ])\
Ġreturn data
Ġreturn Uint
Ġreturn Tr
Ġreturn datasize
32 38
Ġex amin
use Checked
Ġg h
Ġg ain
Ġg ating
ore ign
ĠO mitted
nt ypes
0000 11
Ġnot ification
od ds
Ġde p
Ġde cision
Ġde allocation
Ġde ferred
Ġde structure
Ġstr ateg
Ġstr ongest
xt ens
Ġon line
ĠP ick
ĠP ayment
dd b
Ġ} ],\
Ġ} )),\
Ġ} >>::
Ġfunction al
Ġ2 50
Ġpub lish
fer s
em antic
Ġr pc
Ġr ings
ĠB ody
ĠB LOCK
ĠB undle
ĠB alancingContext
-------- \
ĠThe orem
Ġ`` ~
Ġ`` ..
to string
to Uint
to TypedData
get AccessManagedStorage
im age
new Authority
Ġ+ -|
pl ain
** ``
oc umentation
11 44
11 62
11 408
set GrantDelay
set RoleGuardian
qu x
qu ot
ĠEx H
ĠEx pected
ĠEx change
Ġ_ };\
ĠD B
ĠD irection
ĠD etails
ĠD istribution
ĠU Double
iv ile
12 09
add itive
age ment
Ġl ack
Ġl ints
16 19
16 88
Ġ$ ,
(). _
ĠM S
ĠM is
ĠM ant
ĠM IC
ĠM ask
ĠM AS
ĠM agic
ĠM ILL
ff b
ff d
Ġ4 34
Ġ4 30
Ġcall able
Ġcall Context
10 6
10 72
10 11111111
tern ational
Ġadd To
Ġtr ip
Ġtr iple
Ġtr uly
Ġ| <
rc un
In te
In sufficient
In liner
up ca
Ġres ized
lock ed
ER I
ER ROR
th us
th ash
th umb
ex ist
ex ception
ool down
Ġch oosing
mat erial
Ġx layer
Ġ5 55
Ġother Contract
ace ans
Iter ationCount
Ġcomp ound
Ġcomp ose
Ġcomp leted
00000000 0000000
00000000 000000
Ġmem move
Ġli ght
np ossible
Ġ' ).
Ġ' }'
Ġ' ðŁĴ
Ġ' âĿ¤
cc a
Ġnew Id
Ġnew lines
Ġnew Istanbul
Ġnew Byzantium
Ġnew Cancun
Ġnew Berlin
Ġnew Homestead
Ġnew Frontier
Ġnew London
Ġnew Shanghai
Ġnew Constantinople
!(\" (
!(\" <
!(\" \".
!(\" {},
Ġpre sorted
Ġpre pends
Ġpre tend
Ġsh ape
Ġus ages
ĠL ock
ĠL HS
ĠL eading
ĠL iquidity
ĠL atin
Un movable
Ġcode s
Ġcode copy
Ġen gines
Ġonly After
Ġonly Seller
ĠĠĠĠĠĠĠĠĠĠĠĠĠĠĠĠ ĠĠĠĠĠĠĠĠĠĠĠĠĠ
![ ],\
>> `.\
)) ));\
)) );
)) ))\
)) ``.\
ee a
ĠIn herit
ĠIn finite
ĠIn creasing
Add Balance
Con gress
---------------- --\
(\" %
Ġ6 50
Ġtra des
IN FINITE
Ġsu cc
Ġsu gar
ĠG AS
ĠG oto
ĠG ATEWAY
Ġ! \
Ġ/ \
14 85
Ġup graded
>) ?
>) .\
IT AL
Ġdata offset
>` ),
Error f
char acters
Ġcur rency
Ġindex es
Ġ: )\
Ġar ms
Ġcheck sum
ĠH OUR
ĠH andling
read the
Ġme ss
80 55
80 40
Ġpr ivile
form ing
Ġ10 4
Ġ10 9
Ġnon null
âĶ ĶâĶĢ
AL PHA
Ġlo ans
assert ion
ĠFor ces
Ġspec ifiers
start Gas
VM Error
ĠVec s
ĠUn it
<& $
pr otection
pr incipal
Ġk on
Ġsign s
nf irst
nf ollowing
su ggest
mem Offset
lic ense
Ġvalid ated
Cell Id
90 9
RE V
RE AD
RE MAIN
RE NA
RE SET
RE QU
RE VERT
Ġstate DB
ĠOr ganization
ecut ing
write up
call ing
call datasize
Ġvari ation
ĠIter ation
less er
wind ow
Ġinitial ise
Ġtrans pose
no inline
Ġro sen
Ġro lled
Ġ8 9
Ġ8 55
Ġset back
wi der
1111 111
sub ject
38 8
nT ypes
Ġ9 8
ms k
Ġnext Stage
index ing
77 1
Ġj ar
Set CallCode
Ġout size
valid ation
From Big
Ġpublic Key
Re stricted
Ġbyte set
Ġbyte Data
Ġorder s
]) ?
]) </
]) +\
99 14
99 45
ST EM
ST OP
ST ATE
()` )
()` :\
()` ).
Up date
Ġkey Nonce
Ġtarget Cell
72 2
72 32
72 44
Ġcompil ers
Ġcom mitted
max imal
Ġvers a
Ġpl ayer
Ġback sl
Ġper mutation
Ġper haps
cr ib
plic ations
Ġsub types
Ġsub directory
IC ITY
std out
Ġinter op
To Check
To StorageOffset
Ġ.. *
ĠCO LD
)? );\")]\
55 98
55 724
Aoxc Storage
ĠArc s
ĠArc EqIdent
Ġlike wise
<[ \",
Ġgas Copy
Ġgas Eip
Ġgas SLoad
Ġ`& &
Ġlast Mint
ose lect
ĠRc EqIdent
br id
24 8
($ ,
28 18
28 45
Ġins pired
26 1
Ġop Selfdestruct
Ġop Undefined
mod ified
)` ).\
Ġmult is
19 4
mon SubexpressionEliminator
lang uages
Ġread Only
ume Ty
super trait
84 00
default RoyaltyInfo
39 45
Ġunder scores
Ġunder stood
Ġpos itives
18 88
vers al
Ġexecut ions
50 28
50 374
cre ates
Ġdis gu
Sign als
87 1
87 90
chain s
Ġsup posed
Ġ12 2
Ġ12 51
bit mask
Ġact ivate
last Token
last CellHash
sp ub
78 1
ĠFrom Iter
ĠFrom Coroutine
state ments
Ġdebug info
Ġclo ser
54 1
Se gment
ĠSt age
Clone Into
Clone FromCell
exp and
SH A
69 1
69 6
69 480
ĠRe ce
ĠRe order
ĠRe lies
ĠRe ceiver
17 6
Ġdifferent iate
ĠDebug List
ĠDebug info
ĠTry Type
msg Data
SI S
pop count
pop cnt
<&' _
ĠAoxc AN
ĠAoxc Storage
ĠAoxc Core
ĠAoxc AuditVoice
ĠAoxc Factory
Ġmultiple s
AR S
AR AM
sec p
Point Error
Pin CoerceUnsized
ĠError Kind
Borrow RefMut
>() `\
86 18
Ġequivalent ly
Ġsrc ChainId
76 1
Ġswap s
70 3
70 5
70 7
44 9
med i
ĠOp TransactionSigned
nan osecond
the y
Ġhel pers
23 00
ĠComp liance
Ġsim ult
Call Create
Call OnceFuture
Err StackUnderflow
Ġ16 5
Ġreg ressions
42 5
ME DI
strict ly
Role s
Ġless er
down load
>`_ )\
49 32
83 5
83 7
Ġsplit n
Ġsplit point
Ġ20 2
nA r
current Allowance
^^^^^^^^ ^^^\
89 23
89 379
UR ATION
AD CAST
Ġag gregate
SE PARATOR
nI m
PL US
param eters
Ġâ ĿĮ
evm Version
Ġconsum er
Ġconsum ers
60 8
60 50
Ġali ased
ĠBasic PayloadJobGeneratorConfig
33 34
select ors
Ġim agine
ĠSpec New
ĠSpec InPlaceCollect
lib rustdoc
!(\"{ :#
Payload Config
Token From
Token URI
Ġspecial izes
ĠTh rows
ĠDe legate
ĠDe allocates
arry ingMul
og ene
++ ,
++ .\
++ )\
35 7
xd c
ĠShort ens
22 2
22 5
22 7
88 5
88 581
ĠIAoxc Vault
ĠIAoxc Gateway
Assign Eliminator
---+ ------------
---+ ------------------------
Ġsuccess or
Ġsuccess ive
92 1
Ġtot ally
66 7
Op Spec
Op Deposit
Op EvmConfig
Op Inspect
Safe Mul
lear n
bra cket
Ġtotal Voted
Ġform ally
IS QRT
IS ZERO
NE URAL
NE SIS
Ġdetermin istically
ĠĠĠĠĠĠĠĠĠĠĠĠĠĠĠĠĠĠĠĠĠĠĠĠĠĠĠĠĠĠĠĠ ĠĠĠĠĠĠĠĠĠĠĠĠĠĠĠĠĠĠĠĠĠĠĠĠĠĠ
ĠWeak Inner
Ġ... }
57 3
xe a
xe b
ĠABI EncoderV
)* ])?
Neural Handshake
source File
Is Homestead
Is NotEmpty
Is Amsterdam
With Header
82 766
CO MPLIANCE
CO INBASE
ĠRem oving
Ġprefix es
ĠPre pends
sup ply
remove TokenFrom
(' .
Ġaut onomous
partial ord
Ġexecution Func
ĠEn gine
oper ations
Ġident ifies
Ġident ifying
ĠAr ch
implement ors
Ġcell Hash
Ġ`{ :
Transfer Failed
Transfer Day
nIn line
nIn side
Ġcalcul ating
Ġfree zing
Owner Enumeration
Ġdown grade
1234 5
PO P
PO INT
PER TY
PER MIT
total Sup
total Cells
Invalid Code
Invalid Signer
Invalid Spender
Ġref act
Ġref ill
Ġref unded
Ġ`* `
... \"
ĠSlice PartialEq
ĠSlice PartialOrd
ĠSlice Contains
Exp ensive
Target Closed
65 408
ĠBound ed
Ġbr id
build ing
Ġvis ual
Wh at
king s
pers istence
db d
gener ation
}' ),
Ġtop most
Ġrespect s
Ġcomput ations
ĠChar ge
93 16
93 99
ĠâĶ ľ
abc de
abc abc
ĠMy Account
03 19
Block Bytes
<_>> ());\
>`] ,\
Ġskip list
>: <
Ġman aging
()? ,\
child ren
Ġvery LongReturnArg
()`] ,\
Ġ66 59
Spec Extend
Ġnam ing
Ġ40 96
Ġadvance s
cb b
ĠTrans poses
Ġabs urd
ĠDec larations
Ġuppercase d
Ġshr unk
][.. ]).
Ġaccept able
Ġsigner Addr
Ġbranch lessly
ca e
inf luence
09 7
bb d
Ġcustom izes
Ġobtain ing
Ġtempor al
Ġtrunc ates
position s
aoxc Token
Ġeas iest
Ġweight ed
Return Ty
nin cluding
ĠNeural TimelockStorage
stri ction
ĠTr igger
Ġconf ident
00000000000000000000000000000000000000000000000000000000 00000
eb d
Ġ*/ },\
df d
Ġregard s
Ġregard ed
Ġco ord
Ġneg ating
Ġneg atives
ĠRes olution
============ \
============ ===
The OneRing
Ġcertain ly
trod uction
fee Numerator
fee Denominator
ĠEqual ity
Ġcomm un
Bit Vec
Bit Xor
Ä± ÅŁ
skip ping
Ġ{} \",\
Ġproposal Li
Ġ{_ ;}\
ĠTryFrom CharError
Ġ`< =
ĠInter action
Ġbl ah
ĠBlock PayloadJobGenerator
Ġappro vals
Global LockStateChanged
Ġnative ly
0000000 1
Ġsuffix es
(()) `.
ĠSub tract
Ġhard fork
thread fence
Ġtre asury
123 646
Ġconcer ning
Ġjump Dests
nde pending
Ġscalar s
Value Locked
Get Copy
Get CodeHash
istic Rng
Ġ)* };\
Ġnames pace
Ġ`! `.
Struct uralPartialEq
^^^^^^^^^^^^^^^^ ^^\
Max CodeSizeExceeded
ryptograph ic
RO ADCAST
Ġpar allel
py thon
US ER
sim ons
Ġpop ulated
Ġpropag ates
Execution Power
Sub Type
Ġser ver
Ġintrod uction
Ġintrod uces
Ġrepe ater
ĠAp ply
ĠUp hold
ĠUp percase
Chain ID
Pausable Storage
fd c
imp ly
GH IJK
SEC OND
DerefMut Helper
Ġcr ater
determin ed
Ġgrow ing
Ġgrow th
Array Chunks
ĠAcquire s
Ġ``< ``,
Ġ``< =``,
Ġpartition s
ĠParse BoolError
Ġ4194 34
TER NATE
Ġrecover Signer
!(!( ..
Ġcontr ibute
Ġbug gy
Repair Initiated
ĠUnsafe ly
na ive
Ġpay ments
Ġrev oked
!([ [
!([ \"
Ġconsist ing
ĠOccupied Error
Left OrRight
Ġstand s
ĠRSplit Terminator
Nonce UintOverflow
Ġfee Numerator
ĠRcInner Ptr
Flashblocks Task
Ġflatten ed
Ġflatten ing
ĠAd just
Ġunsound ness
Ġabstract ed
Ġprot ot
Account Check
Ġfence s
Ġpeek able
ĠPrecompiledContracts Prague
ĠPrecompiledContracts Berlin
je ction
Ġpending DefaultAdmin
Ġretain s
Ġconflict s
top ic
())) ]
def Xghi
Ġreal alloc
capture End
capture Begin
Refund EIP
pending Owner
Ġide ally
Ġpreced ed
Ġmer it
ĠCan onical
ĠOptim izations
ĠMut ating
ĠMut ability
Ġesc row
EL AST
Ġ``/ ``,
ĠConst ants
nE ther
Can Transfer
Oper ational
ĠExtractIf Inner
Ġfinish ing
ĠCodePoint Inner
Im mune
Ġburn s
Ġinf lu
ĠAN D
Ġrule d
Ġshow ed
Async Fn
ĠFile s
cour age
process ing
Precompiled Contracts
itness Gas
ĠSimple Allocator
eters burg
ĠFin ishes
Ġdesign ated
ĠData flowAnalyzer
(! _
Ġip nsort
ĠMod ule
ĠMod ulo
Ġdisplay ing
Ġencounter s
Ġdiscard s
Ġbin der
Ġredu ction
-------------------- -\
Ġterminator s
Field Struct
nD ue
consum ing
ĠHas TwoDrop
ĠChange Pointee
SIGN EXTEND
Ġzip per
Ġzip ped
ĠValid ate
kes hed
nF inally
intr o
Ġreborrow s
ĠClient Bounds
Ġ``- ``,
======================== ===\
Slot Num
Ġthrow s
ĠOper ations
ĠOper ators
ĠPhantom Covariant
ĠInitial ise
branch less
============================ =\
============================ ===\
Ġrecommend ation
Action Choices
Ġtell ing
ĠInvalid Contract
single threadfence
Ġ:: =
Ġscan ning
Ġdat asize
Ġdat acopy
Ġmanip ulated
ĠInterface s
âģ »
ĠPerson ality
ĠPerson alPreferences
314 34
nL ibr
prop ag
Ġtool ing
Ġdia gnostic
ĠVis its
ĠStepBy Impl
+------------ ---+------------
Assert Kind
ĠSwap ping
\\\" \");\
Ġ``[ [
execution Id
]<[& ]
ĠOverr ides
ri end
Ġunp ack
Ġunp ause
Ġstrip ping
validate Threshold
Executed Block
Ġobser vable
Ġadjust able
Ġadjust ment
TIME LOCK
Power Confirmed
Ġflash Fee
Ġ\"* \")]\
ĠPool Transaction
ĠBreak ing
ĠDep osit
span ish
Sorted Iter
erequis ite
Path Buf
micro soft
ane ously
Ident ifiers
ĠUnwind Continue
Ġtransitive ly
Ġminted ThisYear
Ġfulf illed
BU ILD
Cre ated
tcode Len
ĠSy ntax
Ġproof s
Ġtransform ations
Ġspuri ous
Ġacquire d
ĠBorrowMut Error
Withdraw al
BYT E
nN atSpec
Ġblin ded
ĠTe chn
ĠRole s
ĠUs ers
interpre t
BitAnd Assign
ĠAssign ment
An imal
nExample s
Ġcitizen Id
Ġcycle s
Ġomit ting
Start ed
Ġtransl ated
^^^^^^^^^^^^ ^\
SELF BALANCE
ĠhighestBid der
Tempor al
Ġapproxim ations
HE AD
bro ck
unp ause
Ġnavig ation
ĠBack slash
Ġcommit ed
111111111111111111111111 11
^^^^^^^^^^^^^^^^^^^^ \
Recover y
ĠMessage HashUtils
des ired
ĠCount s
Ġ59 52
Ġactiv ated
ĠDiscriminant Kind
âĮ Ĭ
ĠIm mutable
Ġdealloc ates
647 15
ĠInte gers
>(_ :
LOW ER
Ġenter ing
Ġscenari o
decimals Offset
ĠMapping s
ĠMapping Example
EVENT S
Freeze TypeImpl
CTURE S
stat s
Ġcoll ision
Ġcoll isions
Ġsimpl icity
Ġbind ing
=== +================================
Ġbyp ass
allTokens Index
ĠVault Storage
precompile s
ĠInPlace Drop
ĠInPlace Collect
ĠInPlace DstDataSrcBufDrop
ðŁĻ Ī
ðŁĻ ī
ðŁĻ Ĭ
ĠMapWindows Inner
NUM BER
SmallSort FreezeTypeImpl
ĠmakeCallVariant GasEIP
Ġintr oselect
setTarget AdminDelay
setTarget FunctionRole
ĠMarker Trait
ĠMerge State
ĠMerge IterInner
cccc cccc
Ġinstant iate
ĠJUM P
Ġplan ned
ĠComparison s
BuilderTx Base
Ġscore s
Ġmixed Case
ĠUnstable SmallSortFreezeTypeImpl
Repeat With
(... ).
ĠAccessManaged Storage
Ġpredict ed
Ġneighb ors
Ġneighb oring
/= /
BLOCK HASH
crosschain Transfer
Ġfam ily
Ġdaily Spent
Ġalph abetic
ĠExtract ing
InPlace Drop
(\". .\\
EMP OR
ĠDevelo per
ĠDevelo pers
Ġconfir m
Ġconfir ming
Ã¼r gen
pendingDefaultAdmin Schedule
pol icy
âĤ ĥ
Ġsche mes
Ġberlin MultComplexity
Ġow ing
Ġmicro seconds
Ġveto ed
ĠRed uces
ĠRandom Source
Ġdef ense
Ġsem icolon
Unwind Terminate
Ġconserv atively
Ġintu itive
ĠProdu ces
ĠProdu cer
Ġderiv ative
Ġderiv atives
^^^^^^^^^^^^^^^^^^^^^^^^ \
DIFF ICULTY
PRO PERTY
Ġ00 10
Ġ{:?} \",\
Ġ\".. \")?;\
ĠEV MAssembly
ĠOffset s
ĠnewMemSize Words
Unlock Time
Ġmeas ured
combin ed
Nonexistent Signer
Nonexistent Token
convertTo Assets
convertTo Shares
nSMT Checker
Ġrare ly
pendingDelay Schedule
Ġutiliz ing
CHAIN ID
Little Endian
Mis matched
Ġcos ine
Ġisol ation
ĠAudit Signal
Ġnear by
Ġcompos able
Unreachable Threshold
ĠHTT PS
subscrib er
creation Code
Ġsys root
ĠSpecArray Eq
Ġmodexp IterationCount
Ġergonomic s
regard ing
SstoreClear sSchedule
ĠIntegr ated
ĠSuperError SideKick
Ign orable
nMapping s
Ġswit ched
Ġpol ling
Ġmist ake
Ġvulner abilities
ĠEs capes
verify NeuralHandshake
Ġdescend ants
Ġ``== ``,
Ġ``../ ``
Ġcompens ation
ĠLook up
14100 65408
ĠgasExtCodeCopy EIP
ĠRetrie ve
Decode Utf
ĠDecomp oses
Ã¼ÃŁ e
highestBid der
âĪĪ ðŁĮı
ĠVMError FromErr
42949672 95
ĠSemant ically
ĠINITIALIZ ATION
nInterface s
951 74
hor se
jk stra
uss ian
Ġfoc us
arujan NeuralVeto
ĠSY STEM
Ġep och
Ġconve ys
Ġdr ive
Ġsecre t
transitive ly
nSim ilarly
ĠtriggerEmergency Quarantine
ĠANALYT ICS
Ġjoined At
âĶĢâĶĢâĶĢâĶĢâĶĢâĶĢâĶĢâĶĢâĶĢâĶĢâĶĢâĶĢâĶĢâĶĢâĶĢâĶĢâĶĢâĶĢâĶĢâĶĢâĶĢâĶĢâĶĢâĶĢ âĶĢâĶĢâĶĢâĶĢ
ĠMaybeSized Type
123456789012345678901234567890 12
âĶĢâĶĢâĶĢâĶ¬âĶĢâĶĢâĶĢâĶ¬âĶĢâĶĢâĶĢâĶ¬âĶĢâĶĢâĶĢâĶ¬ âĶĢâĶĢâĶĢâĶ¬
âĶĢâĶĢâĶĢâĶ´âĶĢâĶĢâĶĢâĶ´âĶĢâĶĢâĶĢâĶ´âĶĢâĶĢâĶĢâĶ´ âĶĢâĶĢâĶĢâĶ´
Ġcorrupt ing
Cancel led
lom uto
nHex adecimal
nMult iple
oh n
ĠQuick ly
Ġmunch ing
Ġwo ken
icrop ayment
ĠAB CDEF
ĠAg ain
ĠAuditVoice Store
ĠICE s
Ġhal ves
ĠDown casts
ĠUb Check
1238 85
ĠMat hematically
Ġ'{ '
))? )
Convert s
ĠShuff ling
ContractAddress Collision
contin uation
ĠSTRU CTURES
nBe low
Escal ation
SstoreSet GasEIP
ĠðŁĴ©\") [
Ġmonoton ically
:|--- :|---
AWA RE
BOO L
Diff iculty
FAC E
FALL BACK
OFC REATE
RIT ICAL
dr iven
iÃ³ s
Ġtro uble
seque l
Ġfil ters
Ġfair ly
edup SortedIter
Ġmere ly
]\\\\ <[\",
ĠSEP ARATOR
Ġiot a
intention ally
ĠAction Choices
ĠFUN CTION
ĠreturnTr ue
useChecked Nonce
xtens a
ĠBundle State
toTypedData Hash
ĠUDouble Size
ĠMIC ROS
ĠMAS K
ĠMILL IS
upca stable
thumb v
Ġlight weight
ĠnewIstanbul InstructionSet
ĠnewByzantium InstructionSet
ĠnewCancun InstructionSet
ĠnewBerlin InstructionSet
ĠnewHomestead InstructionSet
ĠnewFrontier InstructionSet
ĠnewLondon InstructionSet
ĠnewShanghai InstructionSet
ĠnewConstantinople InstructionSet
1485 19
ĠHOUR S
readthe docs
REMAIN DER
Ġrosen brock
Ġbacksl ashes
ĠlastMint Timestamp
CloneInto Vec
ĠReorder s
CallCreate Depth
ĠSpecNew Impl
arryingMul Add
ogene ous
---+------------------------ -+\
OpSpec Id
OpDeposit Receipt
OpInspect or
totalSup plies
ĠproposalLi fespan
simons apin
FlashblocksTask Metrics
ELAST ICITY
Ġinflu enced
ĠHasTwoDrop s
+---------------+------------ ---+-------------------------+\
SstoreClearsSchedule RefundEIP
unsafe cell
! !
! `.\
! `].\
! \")
! ())
! \"),\
! \")]);\
$ }!\",
' ',
' `.\
' \");\
' ].
' +'
' )]));\
( <
( (-
( \\\"
) %
) '
) >(
) ],
) (),\
) ..(
* \"
* ,\
* ).\
* ))\
+ ][
+ ----------+---------------------------------------------+\
. :
. \"
. ;\
. {}
. *\
/ {}\",
0 56
0 77
0 74
0 48
0 96
0 800
1 00000000
1 99
1 78
1 74
2 32
2 90
2 18
2 74
3 32
3 77
3 30
3 17
4 32
4 90
4 87
4 78
4 74
4 17
4 000000000000000000000000
5 24
5 78
5 74
5 267
6 99
6 28
6 53
6 52
6 51
7 56
7 38
7 39
7 40
7 17
7 31
7 320
8 13
8 87
8 23
8 21
9 64
9 76
9 31
9 81
: /
: {}\",
; ``.\
; ÃĹ
< ...
= '
> =
? '
A g
A st
A uction
A udit
A bs
A Arch
A UTION
A bi
B ecause
B ottom
B iasedFp
B lindedBid
B HG
B ROADCAST
C c
C LE
C ON
C urrent
C rashTestDummy
C LI
C KET
C ANONICAL
C achedReads
C RITICAL
D F
D es
D ual
D FFF
D irection
D URATION
E vilTwin
E ffects
E OFCREATE
F P
F b
F ail
F IG
F RAC
F unnel
F latMap
G R
G ER
H ooks
H ALF
I L
I mplement
I AGE
I AccessManager
I Authority
I MPORTANT
J son
L s
L ast
L ER
L ang
L ines
L ane
L ibr
M B
M u
M al
M as
M id
M copy
M PI
M IR
M STORE
M igr
M igration
M Load
N e
N ow
N othing
P u
P ot
P ast
P ause
P oison
P atches
P enalty
P ositive
P ARAM
Q UE
Q kth
R ed
R ATION
R JUMPI
R ROR
S ince
S PL
S ingleton
S lippage
T W
T i
T v
T ab
T FE
T ea
T EST
T AU
T Ls
U ME
U ARDIAN
V OT
V ARI
W X
W oo
W ARD
W allet
X abc
X Di
Y et
Y ap
Y abc
Z ip
[ _
[ ];\
[ ],
] _
] \")]\
] ]``
_ `
_ {
_ )\
` \",
` );
a ad
a ec
a us
a ight
a ee
a Type
a uction
a udit
b re
b ce
b mp
b low
b ptr
b ef
b ose
b ottom
b idding
b alancing
b lematic
c m
c ut
c li
c ause
c fa
c otone
d on
d one
d ff
d be
d ict
d ys
d fb
e u
e ager
f at
f fe
f dd
f to
f sub
f rem
f mul
f div
f icient
f da
f absf
g i
g cc
g amma
h unks
h fs
h omestead
h ardfork
i lf
i ang
i versal
j usted
l li
l ation
l ite
l ca
m eth
m oo
m store
m oves
m Start
m ips
n O
n en
n con
n sh
n non
n data
n range
n String
n case
n Storage
n wrapping
n derive
n Data
n Code
n En
n result
n like
n has
n name
n So
n convert
n Sh
n unsigned
n With
n reference
n option
n compile
n forward
n most
n Layout
n see
n Source
n Local
n ormally
n Base
n such
n sequence
n little
n cannot
n may
n Under
n ucleotide
n how
n compilation
n optimization
n JSON
n blockchain
n Optimizer
n Notice
o a
o j
o urn
o XDi
p k
p m
p ass
p asses
p wr
q BHG
r w
r ix
r ific
s b
s ample
s qu
s nd
s ys
s izes
s plits
s alt
s caling
s qrtf
s fh
t g
t i
t ab
t to
t new
t start
t ener
t Set
t panic
t ical
t ie
t dis
t args
t balance
t points
t onom
t DATALOAD
t blake
t angerineWhistle
t RJUMP
t urbofish
t owards
u N
u ge
u itive
u NNNN
v d
v v
v ailable
v oters
w ell
w hether
z VE
z xy
| +
} \")
} ],\
} !\");\
} \")?;\
} )\");\
~ \
~ ')\
§ ¡
¨ ×
± ±
Ì ģ
Î ³
Ï Ĥ
Ï Ħ
Ï Ĩ
× ĳ
× ¨×
ä ¸
ä º
å ±±
Ġ ;\
Ġ ðŁĴ
Ġ -------
Ļ ×ª
// ``
in i
in et
in cl
in ject
in struction
in Offset
in lined
er ying
er ving
Ġt utorial
Ġa id
Ġa mt
Ġa wo
Ġa ÄŁ
on i
on k
on Send
on FlashLoan
on TransferReceived
re al
re ating
re vers
re member
re deem
re nounceRole
re material
\" `\
at ched
le nt
he y
he et
he xadecimal
se ded
se mant
or a
or ust
it oring
Ġf s
Ġf ed
Ġf ract
Ġf unda
Ġf maf
Ġf uel
Ġf riends
Ġf absf
Ġc w
Ġc ult
Ġc nt
Ġc od
Ġc lock
Ġc math
Ġc pex
Ġc ampaigns
Ġc ookies
Ġc entral
Ġthe orem
is ation
is bn
is Expired
is ApprovedForAll
Ġ` \
Ġ` '\\
Ġ` <[
:: <'
un set
un ix
un link
un pinned
un typed
ed c
ed d
ed Hash
ed rock
Ġs s
Ġs ac
Ġs inf
Ġs nap
Ġs NaN
Ġs qrtf
ut ions
Ġb b
Ġb t
Ġb und
Ġb oost
Ġb atches
Ġb ananas
Ġb esides
an es
Ġ\" ?
Ġ\" >>
Ġ\" ));\")]\
Ġ\" )\")]\
ing ScheduledOp
ing BlindedBid
}\ \\\
Ġo be
Ġp ausable
Ġp oison
Ġp aid
Ġp leth
Ġp etersburg
Ġm ass
ar b
ar s
ar ter
ar ization
() \"
() >(
() ],
om m
Ġw a
Ġw id
Ġw spub
-- -|
de creasing
de scending
lo l
lo gram
lo ctests
Ġin vert
Ġin Offset
Ġis Active
Ġis Immune
tr iple
tr ibution
fe c
Ġre lin
Ġre const
Ġre write
Ġre pro
Ġre defined
Ġre cei
Ġre export
Ġre writing
Ġre claim
Ġn oun
Ġn ine
Ġn inf
Ġn omicon
Ġn pm
es ar
es pecially
ab d
Ġto Addr
Ġle verage
ĠS ec
ĠS uc
ĠS equ
ĠS LOT
ĠS urrogates
ĠS martPointer
Ġu v
Ġe g
Ġe t
Ġe lect
Ġe ta
Ġe cosystem
Ġe conomic
Ġ// ...\
Ġ( '
Ġ( ,
Ġ( @
Ġ( {
Ġ( <$
00 9
00 10
00 65
00 800
Ġi rr
Ġi pv
Ġi mb
Ġi stanbul
ĠT H
ĠT s
ĠT yp
ĠT ies
ĠT aking
ĠT INY
ĠT RA
ĠT HE
ĠT OKEN
ĠT AU
Ġan ch
Ġan sw
et c
int ended
int uitive
ul ia
!( __
ue fi
li mits
as semb
as Singleton
Ġv n
Ġv x
Ġv y
Ġv frac
Ġ[ .
Ġ[ (\"
Ġ[ {\"
ent y
`` -
`` `
`` ):\
Ġst e
Ġst ating
ot he
ot ic
ot ationMark
Ġcon cise
Ġfor th
Ġfor med
Ġfor Votes
Ġfor bid
ro red
ature s
Ġd u
Ġd im
Ġd Len
Ġd rift
ig hest
mut ate
ĠA RENA
ol ves
Ġbe aring
Ġ1 36
Ġ1 70
Ġ1 48
Ġ1 95
Ġ1 97
Ġ1 000000
pe p
pe ll
---- -\
ter ed
ter ance
ĠI AccessControl
ch art
ch anic
con form
te am
ment ally
Ġ& ())
(& (&
ge x
Ġun ions
Ġun pin
Ġun do
Ġun fused
Ġun reliable
Ġ[` #[
Ġ[` <*
ĠC I
ĠC lo
ĠC FI
ĠC REATE
ĠC LZ
ĠC Make
ĠC ARR
ĠC ANONICAL
ĠC arryingMulAdd
ĠC AUTION
ĠC TFE
ĠR SA
ĠR UN
ĠR PC
ĠR WA
ĠR ussian
ĠE spec
ĠE arly
ĠE book
ĠE SCAP
ĠE MUL
ĠE GAMMA
ĠE NG
ĠE kos
ĠE RROR
ne ction
ne lement
ĠF IN
ĠF ollow
ĠF ully
ĠF under
ĠF etch
ĠF loating
Ġas ked
Ġal ters
Ġal loctests
ver ses
Ġh ur
Ġh ide
Ġh az
Ġh arm
Ġh ooks
ra ces
ra mework
me ow
ĠN ON
ĠN OR
ĠN UM
ĠN either
ĠN FT
\\ '
.. $
.. ),
.. \".
loc ations
id ence
id entifier
32 14
32 79
32 92
32 192
32 169
Ġg old
Ġg raphe
Ġg rapheme
Ġg ains
ore an
ĠO S
ĠO wner
ĠO RAC
ĠO saka
ĠO racle
ĠO rcun
op ics
op posite
um ulate
act s
act ual
act ivate
nt ime
0000 001
ack s
Ġde fer
Ġde letes
Ġde precation
Ġde eper
Ġde ques
ĠP I
ĠP e
ĠP os
ĠP ragma
ĠP RO
ĠP oison
ĠP aperback
ĠP aths
Ġ} }\
Ġ} ),
Ġ} >::
Ġ} ``,
Ġ} },\
Ġ} ``:
ec otone
Ġ2 29
Ġ2 39
Ġ2 43
Ġ2 88
Ġpub lisher
per ly
iter able
iter ate
fer enced
Ġr id
Ġr value
Ġr chunks
Ġr ipemd
Ġr ationale
ĠB r
ĠB ew
ĠB ottom
ĠB etter
Ġmut ations
-------- +--------+--------
from str
el ve
Ġcan yon
ĠThe ir
Ġconst itute
Ġ`` ,
Ġ`` ///
Ġunsafe ly
ow ment
Ġare na
to ut
to ff
to String
to WordSize
get EIP
get RoleMember
get PausableStorage
get Past
us age
us ions
im ally
new s
new ly
new Threshold
new Rep
new Signers
64 9
64 90
64 82
64 509
Ġ+ /-
Ġ+ --------+--------+--------
** :\
out Debug
11 19
11 86
11 96
11 98
11 289
set URI
set immutable
set ApprovalForAll
set DefaultRoyalty
set TokenRoyalty
ac quire
qu otes
ĠEx I
ĠEx act
ĠEx ceptions
Ġ< &'
by zantium
Ġ_ `
Ġ_ ).
Ġ_ `,
Ġ_ >(
Ġ_ ):
ĠD et
ĠD irectionality
ĠD oxygen
ĠV im
ĠV ER
ĠV ote
ĠV Table
ĠV oting
ĠV etting
mt uf
ĠU F
ĠU np
Ġ=> \
check Aoxc
ĠSome Trait
12 20
12 15
12 39
12 96
12 90785634129078563412
12 1458
12 6482
add f
add ition
add rs
add Token
56 8
56 88
56 237
56 6490
ef a
16 6
16 75
16 39
16 98
16 70955
16 6050
ĠM on
ĠM int
ĠM aking
ĠM UL
ĠM STORE
Ġwh ite
10 1111
10 678
10 9316
ound ation
tern et
tern ary
Ġadd mod
Ġ| --------------
Ġ| ---------|
In crement
In active
In Sub
In creased
up led
Ġres erves
Ġiter able
Ġso lfuzzer
err ata
ex cess
ex iting
ip ping
ip ient
ip ulation
Ġch oices
Ġch airperson
Ġelement ary
ĠW or
ĠW akes
ĠW AK
Ġx y
Ġx Sqr
Ġ5 12
Iter Eq
Ġcomp act
Ġover blow
Ġli quidity
np art
Ġ' -
Ġ' ðŁĴĸ
cc i
Ġnew D
Ġnew Map
Ġnew Hash
Ġnew DefaultAdmin
Ġnew Balance
Ġnew Threshold
Ġnew Rep
Ġnew Lim
Ġnew Sp
Ġnew Signers
Ġnew Authority
Ġnew Prague
Ġnew Decimals
Ġnew Merge
Ġnew Osaka
Ġnew Symbol
Ġnew RateBps
pre ci
pre ser
pre fetch
next end
next ConsecutiveId
not hing
!(\" \",
!(\" \\
!(\" ...
!(\" âĿ¤
Ġcontract Address
old Schedule
Ġpre dicates
Ġpre determined
ĠL I
ĠL ARGEST
Ġcode size
Ġcode Len
Ġcode Offset
Ġpro vider
ance stor
alloc DropGuard
vi olate
vi kings
os ite
Ġ== \
ition Penalty
Ġonly Active
ib ar
![ (
>> `\
>> >\
>> >(),
min numf
gn ark
)) `,
)) )`
)) `,\
)) ``.
::< <
ĠIn fo
ĠIn div
ĠIn side
ĠIn crease
ĠIn equality
ĠIn stall
ĠIn stances
ĠIn frastructure
ĠIn crements
Add Gas
Add Assign
Ġmemory Array
Ġmemory MStore
LE WX
---------------- ------\
>( <
>( #[
(\" ðŁĴ©
(\" }\")\
(\" ðŁĹ»
res ol
128 379
ps is
back DefaultAdminDelay
be b
so ur
so lid
so lfuzzer
key Nonce
Ġ> \
Str aight
load ed
struct Hash
ĠG r
ĠG host
ĠG OTO
ĠG rapheme
ĠG overnor
ĠG rammar
ĠG enesis
ĠG UARDIAN
Ġ! )
Ġ! >(
Ġ! >`]
^^ ^
code copy
code Len
Ġany ways
block ing
14 7
14 84
14 54
14 23
14 46
14 326
14 159
ist anbul
ist hmus
>) &
Ġdata Array
AN Y
20 1
20 17
20 368
ĠCon s
ĠCon sequently
Ġ7 50
Ġ7 96
Ġerror Count
ENT S
Ġab bre
Ġend point
Ġend Time
Ġar ith
Ġar tif
Ġcheck points
Ġrem ote
13 8
13 72
13 05
13 3214
13 56237
ĠH oor
ĠH ALF
ĠH omebrew
ĠH ighest
Id Based
Ġme chanic
80 50
80 82
80 1688
form al
Ġmap JumpDests
ERC EP
Ġ10 6
Ġnon overlapping
Ġnon Padded
co inductive
AL S
AL WAY
AL TERNATE
RC hunks
sh al
sh orts
**** *\
Ġsafe TransferFrom
ĠFor mal
Ġhe ll
own ing
Addr ParseError
sol vers
VM Context
Sized Value
Sized TypeProperties
ĠUn ary
ĠUn less
ĠUn icast
ĠUn authorized
data offset
data ElementLocation
ag ree
Ġno pe
Ġexp f
Ġsign ifies
nf loating
Ġvalid ating
Ġvalid ations
:// ``
Cell Pointer
90 45
90 67
90 325
90 993
RE TF
RE WARD
Ġstate ful
ĠK ural
AT OM
String Pattern
pro jections
); `.\
); )+\
Ġvari adic
0000000000000000 0
Ġinitial Val
Ġinitial DefaultAdmin
Ġinitial isms
Ġinitial izable
Ġtrans itions
Zero Address
Zero ablePrimitive
point ed
no pe
Ġ8 80
Ġ8 88
Uninit ialized
]: {}\",
Ġset X
Ġget Position
Ġget RoleAdmin
Ġget Gateway
Ġget Remaining
Ġget Current
push ByteSize
Ġcore tests
Ġstart Time
38 7
38 9
38 58
38 96
38 894
we ed
com ments
Ġ9 29
Ġ9 19
Ġ9 43
pect ive
Ġbound ing
ĠNon FusedIterator
cur ve
index N
34 38
34 07
34 150
34 3656
77 4
77 46
77 258
77 236
77 293
77 1072
77 5598
77 9399
Debug List
ĠJ Ã¼rgen
Set Val
Set tlement
Ġass oc
Ġout str
valid ated
Arc Slice
Ġ) ));\
Ġ) |+
Re entrancy
Re striction
Ġbyte wise
]) `
99 1
99 99
99 84
99 40
99 246
ID ITY
Ġcal lee
Ġcaller Confirmation
15 14
15 42
15 480
15 3286
Ch unkBy
Ch onk
Ġtarget ed
72 9
Rc Slice
max Quantum
max numf
max Redeem
Ġmin er
Ġmin Num
Ġmin numf
Ġmin ExecutionPower
Ex pected
Ex ecuting
For Payload
For Static
Ġpl aus
Ġright s
Ġmax Transfer
Ġmax Num
Ġmax numf
Ġback iter
tx Index
ĠErr InsufficientBalance
ĠErr StackUnderflow
ĠErr StackOverflow
Ġper mut
cr ash
Ġsome Integer
Ġrepresent ative
001 00000
Ġsub stant
Ġsub system
Ġsub scrib
1010 10
std def
29 1
29 44
allow ing
Ġinter conversion
Ġinter pol
none mpty
Box edNode
To Op
To SocketAddr
]. *\
)? )\
55 9005
55 1196
contract URI
Ġ\\ ![
Aoxc Core
Bu yer
ĠArc FromSlice
Ġwas m
Ġgas Call
Ġgas Exp
Ġgas Ext
Ġgas CallEIP
Ġgas CodeCopy
core AssetToken
ĠBox Iter
item Name
79 489
79 3238
Ġlast s
Ġlast Vote
Ġlast TransferDay
ext ender
Ġbit size
Ġbit width
Ġbit mask
ĠRc FromSlice
24 60
24 400
75 26
75 144
75 8400
75 24400
28 7
28 318
28 747
28 8490
28 69480
By Zero
By RefSized
26 53
Ġop P
Ġop Add
Ġop Gas
Ġop Mul
Ġop ExtCodeCopy
ĠCONT RO
ale t
)` )\
19 18
19 231
Ġinner most
base YieldRateBps
mon itor
Ġtoken Index
30 54
30 96
30 98
30 102
30 258
30 422
nd ifference
du mp
du ced
Ġbase URI
super seded
\") ],\
ĠString Error
84 1
84 58
Ġsp ent
Ġsp ot
default Admin
default Account
39 00000
39 269
39 7448
Data Error
][ ]
][ .][
dev doc
Ġpos sess
Ġaccess ors
18 15
18 96
18 68
Ġmake SelfdestructGas
Ġob serve
50 3
50 40
50 48
50 92
50 807
50 534
cre ator
]> :
]> ;\
]> ()
-------------------------------- --------------------------------
******** \
******** ***\
Ġdis allows
Ġdis agree
FF ICULTY
87 0
87 49
40 9
chain Config
bit xor
On board
On Opcode
Drop ping
collect ed
collect ible
Ġact ing
Ġact ors
last GasCost
Ġview ed
sp arc
78 30422
74 83
74 46
74 4073
74 5028
Ġad mins
ĠFrom B
EM D
ĠRust aceans
54 8
54 775
54 235
54 7756
54 7524400
Se ction
ĠSt n
ĠSt ableSmallSortTypeImpl
ĠPoint s
ĠPoint List
ĠY EAR
assign ing
59 7746
ĠAcc umulate
gas Call
first ConsecutiveId
Ġaddition s
ĠCh unk
69 25
69 314
ĠRe borrow
Ġprov ing
Ġprov es
uc g
uc ially
Ġcopy Offset
17 1
17 656
17 9914
ready At
Ġlog f
extend s
cei lf
ĠTry ing
58 72
58 68
SI X
stack exchange
Ġavailable Gas
{} ]:{}\",
ĠAoxc Change
ĠAoxc Build
ĠAoxc Sentinel
ĠAoxc Clock
ĠAoxc Gateway
ĠAoxc DaoManager
round f
initial Admin
]` ),
name Reg
Into Bounds
Contract URI
AR Y
Copy Length
Ġcalls ite
length s
Ġsuper traits
53 13
Ġwork flow
lapping Indices
Borrow Error
>() ;
86 5
SC AL
foo foo
ĠAdd ed
exact ly
State And
State Root
76 13
76 74
76 02
76 393
ĠCopy OnDrop
70 4
44 1
44 5
44 269
44 874
med ian
med ians
ĠOp Evm
ĠOp DAConfig
gate way
Ġaccount ing
Ġaccount ToStorageOffset
23 37
ĠComp iling
ĠComp lexity
Context Builder
onent Synchronized
Ġ'\\ ''
Ġ'\\ \\'
<_ >)
Call GasEIP
vent ion
Ġinit iate
(_ ));\
(&[ ]);\
Ġroot s
Identifier List
48 93
48 8736
token RoyaltyInfo
Role Granted
ĠTo ArcSlice
ĠTo RcSlice
100 21
down graded
Once With
AC oXDi
49 4
49 5
49 8
00000000000000000000000000000000 00000000
Ġsplit Signature
Ġ20 3
DE LT
DE FEN
46 0
46 264
46 0599
46 744073
nA ss
nA bstract
current DefaultAdmin
89 3
UR ITY
Ġ32 1
Ġag gress
Signer Weight
Signer Removed
PL Y
Ġword Gas
52 5
52 137
52 7446
ali se
Al phabetic
valu able
GE NESIS
Ġoptimiz es
Atomic Inner
Ġimp ose
60 93
60 8458
ĠBasic s
pow if
calar s
Ġuphold ing
ĠSpec ifies
ĠSpec Next
ĠSpec RangeSetup
ĠSpec CloneIntoVec
ĠSpec IterEq
lib solidity
!(* (
Token Creator
Ġspecial ly
Ġspecial izing
ĠDe al
ĠDe vice
IP EMD
Ġround f
Ġlimit ing
lex ivity
Ġhapp y
ts calars
Ġcompile s
Ar m
Ġ`[ +][
++ ]\
++ ).\
35 1
35 36
35 99246
encode Call
88 1
88 896
ĠIAoxc Constants
ĠIAoxc Change
ĠIAoxc Factory
ĠIAoxc DaoManager
nthe m
Ġstabiliz ing
ĠPro vider
ĠPro cedure
Ġour selves
Mem Ptr
Ġcast ed
Ġcast Vote
Ġtransfer Ownership
Ġtransfer AndCall
ĠCall Code
ĠCall RefFuture
ĠCall OnceFuture
Ġlong itude
66 1
66 564
66 19231
Op ened
Ġ$( <$
Safe Active
Safe Cast
Ġtotal Burn
Ġtotal Order
Ġtotal VetoPower
21 566490
ZE D
eip Num
Ġ() ),
Ġ() >;\
ĠĠĠĠĠĠĠĠĠĠĠĠĠĠĠĠĠĠĠĠĠĠĠĠĠĠĠĠĠĠĠĠ ĠĠĠĠĠĠĠĠĠĠĠĠĠĠĠĠĠĠĠĠĠ
ĠĠĠĠĠĠĠĠĠĠĠĠĠĠĠĠĠĠĠĠĠĠĠĠĠĠĠĠĠĠĠĠ ĠĠĠĠĠĠĠĠĠĠĠĠĠ
ĠĠĠĠĠĠĠĠĠĠĠĠĠĠĠĠĠĠĠĠĠĠĠĠĠĠĠĠĠĠĠĠ ĠĠĠĠĠĠĠĠĠĠĠĠĠĠĠĠĠ
ĠĠĠĠĠĠĠĠĠĠĠĠĠĠĠĠĠĠĠĠĠĠĠĠĠĠĠĠĠĠĠĠ ĠĠĠĠĠĠĠĠĠĠĠĠĠĠ
)`` ,\
57 69
57 391
ĠABI s
big ty
kn ow
ob b
Ġparameter ized
function Pointer
ĠAny thing
heap sort
51 560
Random State
ber lin
Is Istanbul
Is Byzantium
Is Cancun
Is Berlin
Is Osaka
Is InSub
Ġ(& *
Ġ(& **
fet ches
CO MPI
change DefaultAdminDelay
As VecIntoIter
ĠPre compile
ĠPre fetches
Ġinv okes
sup ertypes
37 9067
85 0086
IG GER
Ġreplace ments
Ġder ives
Res erved
ĠImplement ers
ĠImplement ors
Ġchain Config
Ġfront iter
Ġident ically
Ġstatic call
47 1
47 3
Ġ[] ).
Ġ[] ))
ĠAr bitrary
81 001
81 798
81 90325
Ġcell s
Transfer red
Transfer Batch
Transfer Single
45 17
UN ICODE
96 374
Ġfree ing
Store Eliminator
Tra ce
Tra its
ĠType Name
ðŁ §¡
67 1
cd b
cd f
total Weight
total Order
total VetoPower
Invalid Owner
Invalid DefaultRoyalty
Invalid TokenRoyalty
Ġref resh
Ġsen try
Ġinline able
... \"\
Ġbig gest
**************** \
**************** **********\
my math
No High
fc a
Exp ression
01 000000
Ġ`. /
Ġz one
mitted State
Ġmaximum f
65 1209
normal ize
Ġ30 8
Ġvis its
Ġiteration Count
solidity SHA
7913 1296
enum s
Ġminimum f
######## #####\
Function s
Split Internal
Split Whitespace
word Gas
db g
gener ators
omatic ally
tt ier
Ġextend hfs
âĢ ĺ
ĠChar TryFromError
ĠâĶ Ĭ
abc XX
61 803
Ġnormal izes
ĠMy Dst
ĠMy ContainedType
Block Hash
Block Info
<_>> ::
DIG IT
Test ing
41 7232
IAoxc Sentinel
IAoxc Cpex
IAoxc Nexus
System Contract
------------------------ --\
Ġ[' `
transfer s
transfer VotingUnits
ĠTrans forming
Dec re
trunc f
ĠDec laration
73 1619
104 8490
Ġprocess ors
Ġret Offset
Ġoverlap s
Ġshort en
Ġshort ened
Ġprovenance s
shift OnDrop
)+ ))\
Ġaccept ing
71 7958
71 8055
draw er
Ġmask s
Ġ(`` \"
Ġ(`` --
Ġmsg sender
05 640
And Match
And LotsOf
CE LL
((& *
Place holder
bb c
'. ',
ns ame
Pre sent
Pre image
Ġpush ByteSize
ĠAt tributes
Ġdynamic Cost
Not Scheduled
nS cop
nS yntax
nS emantic
see k
Ġtrunc f
Ġtrunc sfh
Ġpresent ing
indirect ly
ĠIndex es
Ġexception al
1111111111111111 1111
1111111111111111 111111
Ġexceed ing
ĠNeural Validation
ĠNeural Risk
ĠNeural CellV
Ġneedle s
CH ERI
Ġconf usions
Ġ*/ ,
Ġ*/ ;\
ĠSystem Time
DUP N
Ġchunks z
Ġexecute Patch
uplic ate
ĠRes ources
ĠRes umeTy
ignore d
Change Reason
Ġmul mod
trod uce
trod uces
Receiver Pays
Local Type
98 544
mark etplace
<() >,\
<() >,
Float y
Ä± tÄ±
ĠSearch Result
Enumer ate
Out er
Ġ{} );\
Ġ{} )\",
success ful
Ġbeg ins
ĠInter mediate
Ġperiod s
ĠâĶĤ âĶĤâĶĤ
399 35
blob hash
Ġsol ving
Ġbl ue
ĠRE AD
ĠBlock Context
ĠBlock Event
BytesTo Str
fa e
Ġclean ing
operation alNonces
(()) ),\
ĠBuilder Tx
123 123
123 392
Ġagainst Votes
Threshold Bps
Ġexpl or
Ġdeploy ing
101 0000
Inter actions
Ġjump i
Ġtransmut ations
âĶĢâĶĢâĶĢâĶ ĺ\
âĶĢâĶĢâĶĢâĶ Ĳ\
Value Type
Ġ\"[ {
Ġ\"[ +]
Ġrecip ients
ĠPayload Job
member Count
GU ARDIAN
Tx Env
ĠExtend s
Ġextens ive
Ġdecode s
Pro of
ĠRel ated
ĠNo OpInspector
Ġcreation Time
>()` )
cf i
Enumerable Set
Enumerable StorageLocation
ret Offset
Ġaltern atives
Ġtrigger ing
Ġmember Count
Ġpop ular
dest ination
Ext code
Ġrestrict ive
Ġnone xistent
Small N
Small R
Small T
ren amed
Ġmy Array
Ġmy Number
Ġ(! $.
Sub Balance
Sub Refund
Ġser ious
ĠAp prove
ĠAp ostrophe
ĠAp ple
ĠUp grade
ĠUp grading
Chain s
Right Up
Right PadBytes
imp lying
Ġmultip lied
umpt ion
Ġ115 7920
ĠExp ressions
Ġlock Expiry
Ġbid irectional
Ġbid ToCheck
Ġ<$ (
floor f
Ġ``< ``
GasChange Witness
ĠDerefMut Example
ĠTra its
ĠParse CharError
ĠParse PointError
844 362
Ġcontr ad
ĠRun ning
ĠStruct ural
accum ulator
Jump dest
Ġauthor s
under s
ĠLike wise
begin DefaultAdminTransfer
leg ation
ĠConsum er
PA USER
Wrapper StorageLocation
kind a
Ġrev ision
!(' âĿ¤
ĠFloat s
quen ess
Format ted
LOC ATION
:?} ,
:?} \",\
ĠZip Fmt
255 3
All Tokens
Match Only
INSER TION
ĠAccessManager Upgradeable
ĠAccessManager Unauthorized
End Already
rel ative
rel ish
rel axed
Ġinstr umentation
ĠOver write
ĠOver loading
ĠSigner WebAuthn
Left PadBytes
Ġloss ily
transmut ed
transmut ing
Ġsupplied Gas
URIStorage StorageLocation
Fee Bps
Parse BoolError
Ġren amed
Ġren aming
Byte code
Byte Len
IntError Kind
man a
man ipulation
Ġretrie ving
ĠAd min
ĠAd apter
Bid Increased
mer ged
ĠWAR M
ĠLet ters
ĠPrecompiledContracts Istanbul
ĠPrecompiledContracts Byzantium
ĠPrecompiledContracts Cancun
ĠPrecompiledContracts Homestead
ĠPrecompiledContracts Osaka
Ġpow f
Ġpow i
Ġpow if
Ġpending Withdrawals
icograph ical
ĠFlatten ing
999 566
Ġ$(, )?
Ġreal istic
user doc
user ToCellMap
Ġcontiguous ly
Ġtransfers Value
Ġshrink ing
Veto Signal
nC reating
xffff ff
Ġide al
ĠMem ber
ĠMem bers
Ġsuggest ions
198 75
ART BE
Valid PoolTransaction
Flashblock HandlerContext
Ġmis sed
Rece ive
598 775598
ĠBuild Hasher
Bl ake
Case MappingIter
My Contract
My Name
My Struct
My Backtrace
My SmartPointer
Mod ule
Ver ified
cher oni
reg ular
ank et
Ġ112 2
Ġho od
ĠOptim al
ĠOptim ism
Registry StorageV
copysign f
Ġquiet ing
Ã¶ n
Ġwide ly
Ġconcept ual
threshold Reached
ĠConst itution
Nonces Storage
exponent iation
Ġexplain s
530 717958
Multi Token
Multi CharEq
Sp awn
nE ach
ĠCom bine
ArcInner ForStatic
Ġfloor f
Circuit Bre
Ġflow info
Ġfix es
Ġfix up
nother wise
Ġjob s
Ġ)? ;\
Ġ)? ,\
Ġ)? ))\
maximum f
480 43
Ġinf allibility
Ġred irect
ĠAN SI
effect ive
provider s
ĠAttemp ted
Async Iter
Vault Sealed
nex ample
ĠMult icallUpgradeable
minimum f
################ ###\
ery Id
arant ined
Ġforget s
>] >\
ĠTuple s
Ġannot ations
ĠPar sing
Ġauto RepairMode
Ġcoef ficient
gment ed
ï¸ı ðŁ§¡
.... ..
Selfdestruct GasEIP
++++ ++++++
429 4893
={} /{}\",
Ġsay ing
ĠRequest s
ĠFail s
RAN GE
nD es
nD uring
nD ocumentation
Ġdistribut ions
func s
Ġpract ically
326 9984
326 79489
Slot ToAccessList
den ominator
ĠðŁĴ© \").
ĠðŁĴ© \"));\
stra ction
ĠOper ator
ĠPhantom Contravariant
908 1698
what wg
calcul ated
Precompile s
Ġbeneficiary Address
POWER S
Com mittedState
proposal Signals
Ġreject s
Ġrecord s
ĠField Type
ĠInvalid Digit
1469 75
ĠNonZeroI size
ĠNonZeroI sizeInner
THRE E
circuit ed
Ġ()) ));\
Ġai RiskScore
Ġpe ak
ĠFCU s
resolve Code
resolve CodeHash
158 903
******************************** ******\
10101010101010101010101010101010 101010101010
Ġfav ors
ĠPH I
ĠLower case
Ġexpose s
398 163
398 119
398 8749
ĠNonZeroU size
ĠNonZeroU sizeInner
12345678901234567890 12345678901234567890
Escaped Character
ĠNeverShortCircuit Residual
PAC KET
Ġweb socket
Ġoverload s
111111 1011111111
724 209
724 15480
ĠOwnable Upgradeable
+------------ +----------+---------------------------------------------+\
Ġarc inner
Ġbatch Size
Ġbelong ing
Ġclause s
ĠâĨ ĳ
totalSupply All
ĠEscapeDebug ExtArgs
ffffffffffffffff ffffffffffffffff
ĠLOG IC
:# ?
reject ing
ster isk
validate Signatures
Ġ)+ )
OpHardfork s
tempor al
TIME OUT
RA W
XX tigerXleopard
Ġmon itoring
decl are
ĠInt s
ĠBreak Continue
************ \
span ning
656 5
MI NTER
au gmented
nCon versions
Ġce ilf
Ġcle ver
Ġ\"( {},
develo per
Ġelimin ation
Ġelimin ates
Ġdup es
ĠCounter example
ĠEnd Of
ĠNeg ates
1257 3896
Ġlift Quarantine
Ġ&[[ _;
ĠUnwind Terminate
Ġexplo re
Ġexplo its
Ġexplo red
Ġexplo ited
xxxxxxxx xx
Ġfulf il
STRUCT OR
*/ )
234 787
BU F
Cre ating
fl z
tcode Offset
Ġ`> =
Ġ`| `
ĠSWAP N
ĠRec ord
ĠRec reate
Ġexcess ive
Ġ``_ ;``
204 5868
794 51560
758 134
269 1896
197 551196
309 5048
309 417232
ĠâĶĶ âĶĢâĶĢâĶĢâĶ´âĶĢâĶĢâĶĢâĶ´âĶĢâĶĢâĶĢâĶ´âĶĢâĶĢâĶĢâĶ´âĶĢâĶĢâĶĢâĶ´
ĠAligned Storage
EscapeDebug Continue
Verify InputLength
Ġroyalty Fraction
.* ``
Ġ000000000000000000000000000000000000000000000000000000000000000 1
Ġblin dedBid
ĠSp an
Incorrect Owner
VERS AL
FlashblockPayload sCache
ĠVMErrorCode Unknown
Sload CostEIP
Ġ================================= ================
Ġ================================= ============
Ġ`== `)
Ġconform ant
ĠAD D
ĠUN ICODE
Ġaccident al
Extra Eips
840 179914
189 583
189 166050
Ġoblig ation
709 850086
^^^^^^^^^^^^ \
Minus Plus
temporary Approve
Ġmonomorph ize
Clo sure
HE ARTBE
bo is
\"# \
Ġfl av
Ġ`# `,
Ġpick ing
Ġperson al
ĠSH R
ĠPO SIX
ĠBig Int
ĠBack shiftOnDrop
ĠGit ter
ĠConfig uration
ĠConfig ureEvm
Socket V
******************** \
******************** *\
******************** ***\
ĠDecod ed
ĠDecod ing
implicit ly
AA A
Ġ),+ >
ĠSentinel Storage
ĠFPU ControlWord
ĠthisFunction Has
ĠPR OTOCOL
ĠPausable Storage
Order AmbivalentPair
Ġactiv ation
Ġactiv ators
ĠExpression Simplifier
ĠExpression Splitter
blacklist Reason
Ġestim ator
Ġestim ates
Bits T
Best FlashblocksTxs
cbr tf
lion XXtigerXleopard
ĠðŁ ĺ
ĠðŁ ¦Ģ
Ġsig ma
Ġpad s
ĠText ual
'\\\\ '
647 6925
Ġ+-------------------------------- ------
ĠLo ops
785 3269984
785 398163
Ġapprove AndCall
ĠAssum ing
LOCAL ITY
Ġillust rate
156 608458
577 350
577 21566490
<! >
SO CKET
Va ArgSafe
Ġbind ings
Ġbidding Time
Ġmal formed
ĠAuction Ended
ĠAuction EndAlready
ĠRot ating
imed es
ĠInformation Separator
REA SON
776 7526
307 553
766 559005
ĠThread Waker
ownedTokens ByOwner
Ġreflect s
~~~~~~~~ ~~~~
175 49
456 840179914
Co ef
YY Yabc
gcd pow
reason Code
Ġcir cle
Ġcarr iage
Ġsatur ated
Ġpull s
Ġmix ing
terr BLS
Ġnotice able
ĠPath Buf
setTarget Closed
npro ved
809 488736
Ġinstant ly
153 7767526
796 32679489
ĠopCall Data
Ġadap ted
585 20
422 8040
Bytewise Eq
564 189583
636 619
Cold SloadCostEIP
FD RS
Prot ocol
nAdd itional
Ġflip ping
Ġmi rror
Ġmi kt
omated Refill
Ġvary ing
119 206
1487 38
1487 39
1487 8050
MAP PING
Repeat N
589 793238
Ġclaim s
PUT ATION
ĠFinal Emitted
718 35
718 2818
930 92
BLOCK S
Net Sstore
Os String
TR IGGER
ĠQu erying
ĠQu eryId
repair Engine
Ġcoin base
Ġalph abet
Ġhar der
ĠNeed ed
ĠPost Padding
ĠExecution Result
Ġlimb B
ĠLink ing
Ġtravers ing
ĠHard back
ĠHard hat
ĠUnder scores
prot ocol
Ġtransition Next
848 2045868
546 843
ĠâĿ¤ \",
ĠtransferFrom AndCall
ĠâĶĮ âĶĢâĶĢâĶĢâĶ¬âĶĢâĶĢâĶĢâĶ¬âĶĢâĶĢâĶĢâĶ¬âĶĢâĶĢâĶĢâĶ¬âĶĢâĶĢâĶĢâĶ¬
Ġmultiplic and
ĠOneSidedRange Bound
sequential Burn
sequential Ownership
nCom m
........ ........
318 3098
900 91
Pl ant
Payment Message
Ġaoxc Token
isValid Nested
Ġsus pend
Ġsche me
Ġ\"âĿ¤ ï¸ıðŁ§¡
ĠSEC URITY
Ġemp has
Ġemp loy
Ġ(... ))
ĠCON FIG
ĠCON STRUCTOR
ĠRandom State
ĠBl acklist
Ġ``* ``,
ĠDoc umentation
ĠMock Builder
Ġsem ver
ĠLibr ary
146 724
<'_>> ;
Ġsubstit uted
ĠopM store
Ġcorru ption
765 11289
235 360
Ġqux able
Ġquer ying
canCall Self
ĠDecre ments
ĠLOW ER
ĠLOW ERCASE
NoncesKeyed Storage
Ġregistered Addresses
)âĮĭ `\
980 3900000
BA Z
KE Y
Window Id
tm Start
Ġaudit ed
Ġ\".. \")]\
ĠSol Call
ĠAL READY
Ġ[`? `]
ĠEV ENTS
0000000011111111 0000000011111111
ĠInv oke
ĠInv okes
(\",\ \
286 766559005
StateProvider Database
Ġoccup ies
894 8482045868
SignerECDSA Storage
SignerRSA Storage
Ġenumer ating
ĠAtomicI size
Ġsens ible
Ġsens itive
ĠTransmut es
ĠTryFromFloatSecs Error
ĠMaybeEscaped Character
Deployment Suite
Ġutiliz e
Ġcircular ly
Little Tea
Mis match
Maybe SizedValue
Maybe EscapedCharacter
Par ser
nRe strict
Ġtal ks
Ġcos f
Ġbal lot
deployed Bytecode
Ġisol ated
ĠSovereign Asset
ĠToo Early
ĠPl ant
ĠBU G
ĠDO MAIN
ĠUP PERCASE
ĠLong AndLotsOf
ĠInner Sized
ĠReturnTo Arg
ĠGapGuard Raw
ĠHTT P
eprint ln
again st
subscrib e
nTh ose
llll llll
298 8730
Transient State
ĠSpecArray Clone
ndecl ared
close st
ĠComm unity
Ġencaps ulates
0101 000
257 64509
434 2944
523 598775598
919 13
9005 7448
AF TER
SUP PLY
nMod ifiers
}>` \",\
recur sing
Ġ`% `
Ġwinning Proposal
(&[] ));\
Ġhon or
Ġ``% ``
Ġ``>> ``
ĠDI FFICULTY
ĠVAL UE
Ġlay ing
Ġlay ers
ĠMed ian
ĠMed ians
Ġ'{}' \",
ĠLS B
ĠLoss less
Unchecked Iterator
Concat enates
Ġ&[\" \",
182 76511289
Ġcopysign f
Level Call
ĠInitializing Slice
troduc ed
troduc ing
ĠVariable Declaration
ĠauctionEnd Time
Success ors
70955 16
ĠTryCaptureWith Debug
ĠTryCaptureWith outDebug
LotsOf Arguments
ACTIV ITY
ACTIV ITIES
ĠSELF DESTRUCT
060 651209
811 38
Aut omatedRefill
Gr Ã¼ÃŁe
Lex icographically
Sovereign VaultSealed
mov msk
tdata Offset
warning s
Ġtw elve
repe ated
ats heet
Ġfrag ments
Ġcenter ed
Ġ`^ `
Ġ\"..= \")?;\
Ġpoor ly
Ġuni queness
ĠCP EX
ĠNe vertheless
ĠPlat forms
Ġcancell ation
Ġcandid ates
Ġ``+ ``,
Ġ``^ ``
Increase Wait
ĠnewT angerineWhistleInstructionSet
Consum ingScheduledOp
1385 39
Ġrob ust
Forbidden BatchMint
ĠlastToken Id
ĠopExt CodeHash
Ġdenomin ation
ValueTransfer WitnessGas
MaxInit CodeSize
Ġcriter ion
Ġ([`& [
Commit ment
570 79632679489
>\\ ![
Half BitsT
Missing ApprovalForAll
RID GE
Requ ired
nOther wise
vote Count
×¢ ×ĳ
sem ver
Ġfmul addf
Ġcrosschain TransferFrom
Ġmim ic
ĠTyped IdentifierList
Ġ1996 80
ĠCo Var
ĠED GE
Ġhyp hen
Ġgrand children
ĠPower PC
ĠBenchmark s
Ġ``! =``,
quarantine Registry
ĠUnt il
Ġlat itude
Ġsequent ial
Ġcomprom ise
Unsupported Token
Ġencomp assing
refill Amount
ĠGateway Storage
istem i
ĠHe ap
RES ULT
sentinel Ai
Ġinterle aved
3989 4228040
ĠRebuild OnDrop
ĠThank s
(': ')?;\
Ġconfigur able
Than Zero
clearing Refund
ĠAccessControlEnforced DefaultAdminRules
Ġenclo sed
#################### ###\
################################ ##\
âĶĢâĶĢâĶĢâĶĢâĶĢâĶĢâĶĢâĶĢâĶĢâĶĢâĶĢâĶĢâĶĢâĶĢâĶĢâĶĢâĶĢâĶĢâĶĢâĶĢâĶĢâĶĢâĶĢâĶĢâĶĢâĶĢâĶĢâĶĢâĶĢâĶĢâĶĢâĶĢ âĶ
Curly Bracket
ĠGuarante es
ĠLOCAL ITY
047 197551196
338 3279
4142 1356237
857 31
Hi ACoXDi
IF Y
NC Y
Qm TLs
RAND AO
Wi kipedia
hard hat
migration Id
nG iven
risk Threshold
Ġcbr t
Ġbi as
Ġbat cher
Ġ\"[] \")]\
Ġpra ise
Ġpict ure
Ġwit nes
ĠSO ME
ĠSep ar
ĠSever al
008 240
ĠASS UME
ĠCr ucially
Ġexamin e
Ġgh cr
oreign Type
Ġstrateg ies
Ġ``~ ``
1144 79
1162 58
ĠExchange Storage
ĠMant issa
Ġ|< -
ĠInherit ed
REV RANDAO
9945 309417232
7244 930
crib e
2845 9045
3945 758400
8790 7853269984
8618 379067
707 10678
8923 731619
ĠArch imedes
Ġrefact ored
Ġbrid ged
0319 4294893
influence s
Ġcoord in
SECOND S
ĠCanonical ises
consuming Schedule
ĠInvalidContract DataError
nLibr aries
propag ating
riend ly
ĠTechn ically
ðŁĻĪ ðŁĻĬ
ĠFUNCTION S
4000000000000000000000000 4
7320 50807
;ÃĹ &
CLE ARS
Fb Transaction
Fail SafeActive
Funnel Shift
Lang Ref
Lane Count
Libr ary
Mu LEWX
Mas cheroni
Mid Step
Migr ations
Pu cci
PARAM S
QUE UE
Qkth s
SPL IT
TW O
Tv l
Tab ulation
VARI ABLE
Woo fer
Xabc YYYabc
Yap per
dys se
hardfork s
iang ular
lca mtuf
qBHG FDRS
rw lock
rific ing
squ ared
tto Addr
tdis count
zxy qBHGFDRS
×¨× Ļ×ª
ĠðŁĴ ¡
Ġawo ken
rematerial iser
Ġfunda mentally
Ġsac rificing
Ġbund led
ingBlindedBid s
Ġobe ys
Ġpleth ora
Ġrelin qu
Ġrepro duce
Ġrecei vers
ĠSuc ceeds
ĠSLOT NUM
Ġirr ational
Ġansw ers
asSingleton Arrays
conform ant
ĠCARR IAGE
ĠEspec ially
ĠEMUL ATE
ĠENG INE
ĠEkos istemi
ĠFollow s
ĠNOR MAL
32192 809488736
32169 1639
Ġgold en
Ġgraphe mes
ĠORAC LE
ĠBew are
1186 547524400
1198 34
checkAoxc Role
1215 4517
1239 47
1290785634129078563412 9078563412
121458 17656
addToken To
5688 77293
1670955 12573896
ĠWAK ER
Ġoverblow n
ĠnewMap JumpDests
ĠnewLim bs
ĠnewSp uriousDragonInstructionSet
ĠnewPrague InstructionSet
ĠnewMerge InstructionSet
ĠnewOsaka InstructionSet
itionPenalty Bps
ĠIndiv idual
[...]
