{
  "version": "1.0",
  "truncation": null,
  "padding": null,
  "added_tokens": [
    {
      "id": 0,
      "content": "<s>",
      "single_word": false,
      "lstrip": false,
      "rstrip": false,
      "normalized": false,
      "special": true
    },
    {
      "id": 1,
      "content": "<pad>",
      "single_word": false,
      "lstrip": false,
      "rstrip": false,
      "normalized": false,
      "special": true
    },
    {
      "id": 2,
      "content": "</s>",
      "single_word": false,
      "lstrip": false,
      "rstrip": false,
      "normalized": false,
      "special": true
    },
    {
      "id": 3,
      "content": "<unk>",
      "single_word": false,
      "lstrip": false,
      "rstrip": false,
      "normalized": false,
      "special": true
    },
    {
      "id": 4,
      "content": "<mask>",
      "single_word": false,
      "lstrip": false,
      "rstrip": false,
      "normalized": false,
      "special": true
    },
    {
      "id": 5,
      "content": "AOXCAN",
      "single_word": false,
      "lstrip": false,
      "rstrip": false,
      "normalized": false,
      "special": true
    },
    {
      "id": 6,
      "content": "X-LAYER",
      "single_word": false,
      "lstrip": false,
      "rstrip": false,
      "normalized": false,
      "special": true
    },
    {
      "id": 7,
      "content": "EVM_KERNEL",
      "single_word": false,
      "lstrip": false,
      "rstrip": false,
      "normalized": false,
      "special": true
    },
    {
      "id": 8,
      "content": "JUSTICE_STAMP",
      "single_word": false,
      "lstrip": false,
      "rstrip": false,
      "normalized": false,
      "special": true
    },
    {
      "id": 9,
      "content": "DELEGATECALL",
      "single_word": false,
      "lstrip": false,
      "rstrip": false,
      "normalized": false,
      "special": true
    },
    {
      "id": 10,
      "content": "REENTRANCY",
      "single_word": false,
      "lstrip": false,
      "rstrip": false,
      "normalized": false,
      "special": true
    },
    {
      "id": 11,
      "content": "OVERSHADOW",
      "single_word": false,
      "lstrip": false,
      "rstrip": false,
      "normalized": false,
      "special": true
    },
    {
      "id": 12,
      "content": "SELFDESTRUCT",
      "single_word": false,
      "lstrip": false,
      "rstrip": false,
      "normalized": false,
      "special": true
    },
    {
      "id": 13,
      "content": "VULNERABILITY_FOUND",
      "single_word": false,
      "lstrip": false,
      "rstrip": false,
      "normalized": false,
      "special": true
    },
    {
      "id": 14,
      "content": "INTEGRITY_VERIFIED",
      "single_word": false,
      "lstrip": false,
      "rstrip": false,
      "normalized": false,
      "special": true
    },
    {
      "id": 15,
      "content": "CONSTITUTION_BREACH",
      "single_word": false,
      "lstrip": false,
      "rstrip": false,
      "normalized": false,
      "special": true
    },
    {
      "id": 16,
      "content": "fn",
      "single_word": false,
      "lstrip": false,
      "rstrip": false,
      "normalized": false,
      "special": true
    },
    {
      "id": 17,
      "content": "impl",
      "single_word": false,
      "lstrip": false,
      "rstrip": false,
      "normalized": false,
      "special": true
    },
    {
      "id": 18,
      "content": "pub",
      "single_word": false,
      "lstrip": false,
      "rstrip": false,
      "normalized": false,
      "special": true
    },
    {
      "id": 19,
      "content": "unsafe",
      "single_word": false,
      "lstrip": false,
      "rstrip": false,
      "normalized": false,
      "special": true
    },
    {
      "id": 20,
      "content": "0x",
      "single_word": false,
      "lstrip": false,
      "rstrip": false,
      "normalized": false,
      "special": true
    },
    {
      "id": 21,
      "content": "u256",
      "single_word": false,
      "lstrip": false,
      "rstrip": false,
      "normalized": false,
      "special": true
    },
    {
      "id": 22,
      "content": "address",
      "single_word": false,
      "lstrip": false,
      "rstrip": false,
      "normalized": false,
      "special": true
    },
    {
      "id": 23,
      "content": "OWNERSHIP_LOGIC",
      "single_word": false,
      "lstrip": false,
      "rstrip": false,
      "normalized": false,
      "special": true
    },
    {
      "id": 24,
      "content": "PROXY_PATTERN",
      "single_word": false,
      "lstrip": false,
      "rstrip": false,
      "normalized": false,
      "special": true
    },
    {
      "id": 25,
      "content": "GAS_OPTIMIZED",
      "single_word": false,
      "lstrip": false,
      "rstrip": false,
      "normalized": false,
      "special": true
    }
  ],
  "normalizer": null,
  "pre_tokenizer": {
    "type": "ByteLevel",
    "add_prefix_space": false,
    "trim_offsets": true,
    "use_regex": true
  },
  "post_processor": {
    "type": "ByteLevel",
    "add_prefix_space": true,
    "trim_offsets": false,
    "use_regex": true
  },
  "decoder": {
    "type": "ByteLevel",
    "add_prefix_space": true,
    "trim_offsets": true,
    "use_regex": true
  },
  "model": {
    "type": "BPE",
    "dropout": null,
    "unk_token": null,
    "continuing_subword_prefix": null,
    "end_of_word_suffix": null,
    "fuse_unk": false,
    "byte_fallback": false,
    "ignore_merges": false,
    "vocab": {
      "<s>": 0,
      "<pad>": 1,
      "</s>": 2,
      "<unk>": 3,
      "<mask>": 4,
      "AOXCAN": 5,
      "X-LAYER": 6,
      "EVM_KERNEL": 7,
      "JUSTICE_STAMP": 8,
      "DELEGATECALL": 9,
      "REENTRANCY": 10,
      "OVERSHADOW": 11,
      "SELFDESTRUCT": 12,
      "VULNERABILITY_FOUND": 13,
      "INTEGRITY_VERIFIED": 14,
      "CONSTITUTION_BREACH": 15,
      "fn": 16,
      "impl": 17,
      "pub": 18,
      "unsafe": 19,
      "0x": 20,
      "u256": 21,
      "address": 22,
      "OWNERSHIP_LOGIC": 23,
      "PROXY_PATTERN": 24,
      "GAS_OPTIMIZED": 25,
      "!": 26,
      "\"": 27,
      "#": 28,
      "$": 29,
      "%": 30,
      "&": 31,
      "'": 32,
      "(": 33,
      ")": 34,
      "*": 35,
      "+": 36,
      ",": 37,
      "-": 38,
      ".": 39,
      "/": 40,
      "0": 41,
      "1": 42,
      "2": 43,
      "3": 44,
      "4": 45,
      "5": 46,
      "6": 47,
      "7": 48,
      "8": 49,
      "9": 50,
      ":": 51,
      ";": 52,
      "<": 53,
      "=": 54,
      ">": 55,
      "?": 56,
      "@": 57,
      "A": 58,
      "B": 59,
      "C": 60,
      "D": 61,
      "E": 62,
      "F": 63,
      "G": 64,
      "H": 65,
      "I": 66,
      "J": 67,
      "K": 68,
      "L": 69,
      "M": 70,
      "N": 71,
      "O": 72,
      "P": 73,
      "Q": 74,
      "R": 75,
      "S": 76,
      "T": 77,
      "U": 78,
      "V": 79,
      "W": 80,
      "X": 81,
      "Y": 82,
      "Z": 83,
      "[": 84,
      "\\": 85,
      "]": 86,
      "^": 87,
      "_": 88,
      "`": 89,
      "a": 90,
      "b": 91,
      "c": 92,
      "d": 93,
      "e": 94,
      "f": 95,
      "g": 96,
      "h": 97,
      "i": 98,
      "j": 99,
      "k": 100,
      "l": 101,
      "m": 102,
      "n": 103,
      "o": 104,
      "p": 105,
      "q": 106,
      "r": 107,
      "s": 108,
      "t": 109,
      "u": 110,
      "v": 111,
      "w": 112,
      "x": 113,
      "y": 114,
      "z": 115,
      "{": 116,
      "|": 117,
      "}": 118,
      "~": 119,
      "¡": 120,
      "¢": 121,
      "£": 122,
      "¤": 123,
      "¥": 124,
      "¦": 125,
      "§": 126,
      "¨": 127,
      "©": 128,
      "ª": 129,
      "«": 130,
      "¬": 131,
      "®": 132,
      "¯": 133,
      "°": 134,
      "±": 135,
      "²": 136,
      "³": 137,
      "´": 138,
      "µ": 139,
      "¶": 140,
      "·": 141,
      "¸": 142,
      "¹": 143,
      "º": 144,
      "»": 145,
      "¼": 146,
      "½": 147,
      "¾": 148,
      "¿": 149,
      "À": 150,
      "Á": 151,
      "Â": 152,
      "Ã": 153,
      "Ä": 154,
      "Å": 155,
      "Æ": 156,
      "Ç": 157,
      "È": 158,
      "É": 159,
      "Ê": 160,
      "Ë": 161,
      "Ì": 162,
      "Í": 163,
      "Î": 164,
      "Ï": 165,
      "Ð": 166,
      "Ñ": 167,
      "Ò": 168,
      "Ó": 169,
      "Ô": 170,
      "Õ": 171,
      "Ö": 172,
      "×": 173,
      "Ø": 174,
      "Ù": 175,
      "Ú": 176,
      "Û": 177,
      "Ü": 178,
      "Ý": 179,
      "Þ": 180,
      "ß": 181,
      "à": 182,
      "á": 183,
      "â": 184,
      "ã": 185,
      "ä": 186,
      "å": 187,
      "æ": 188,
      "ç": 189,
      "è": 190,
      "é": 191,
      "ê": 192,
      "ë": 193,
      "ì": 194,
      "í": 195,
      "î": 196,
      "ï": 197,
      "ð": 198,
      "ñ": 199,
      "ò": 200,
      "ó": 201,
      "ô": 202,
      "õ": 203,
      "ö": 204,
      "÷": 205,
      "ø": 206,
      "ù": 207,
      "ú": 208,
      "û": 209,
      "ü": 210,
      "ý": 211,
      "þ": 212,
      "ÿ": 213,
      "Ā": 214,
      "ā": 215,
      "Ă": 216,
      "ă": 217,
      "Ą": 218,
      "ą": 219,
      "Ć": 220,
      "ć": 221,
      "Ĉ": 222,
      "ĉ": 223,
      "Ċ": 224,
      "ċ": 225,
      "Č": 226,
      "č": 227,
      "Ď": 228,
      "ď": 229,
      "Đ": 230,
      "đ": 231,
      "Ē": 232,
      "ē": 233,
      "Ĕ": 234,
      "ĕ": 235,
      "Ė": 236,
      "ė": 237,
      "Ę": 238,
      "ę": 239,
      "Ě": 240,
      "ě": 241,
      "Ĝ": 242,
      "ĝ": 243,
      "Ğ": 244,
      "ğ": 245,
      "Ġ": 246,
      "ġ": 247,
      "Ģ": 248,
      "ģ": 249,
      "Ĥ": 250,
      "ĥ": 251,
      "Ħ": 252,
      "ħ": 253,
      "Ĩ": 254,
      "ĩ": 255,
      "Ī": 256,
      "ī": 257,
      "Ĭ": 258,
      "ĭ": 259,
      "Į": 260,
      "į": 261,
      "İ": 262,
      "ı": 263,
      "Ĳ": 264,
      "ĳ": 265,
      "Ĵ": 266,
      "ĵ": 267,
      "Ķ": 268,
      "ķ": 269,
      "ĸ": 270,
      "Ĺ": 271,
      "ĺ": 272,
      "Ļ": 273,
      "ļ": 274,
      "Ľ": 275,
      "ľ": 276,
      "Ŀ": 277,
      "ŀ": 278,
      "Ł": 279,
      "ł": 280,
      "Ń": 281,
      "ĠĠ": 282,
      "ĠĠĠĠ": 283,
      "//": 284,
      "ĠĠĠ": 285,
      "in": 286,
      "er": 287,
      "///": 288,
      "Ġt": 289,
      "Ġa": 290,
      "on": 291,
      "re": 292,
      "st": 293,
      "ĠĠĠĠĠĠĠ": 294,
      "\\\"": 295,
      "at": 296,
      "Ġ///": 297,
      "le": 298,
      "he": 299,
      "se": 300,
      "or": 301,
      "Ġ=": 302,
      "it": 303,
      "Ġf": 304,
      "Ġc": 305,
      "al": 306,
      ";\\": 307,
      "Ġthe": 308,
      "is": 309,
      "Ġ`": 310,
      "::": 311,
      "en": 312,
      "un": 313,
      "ed": 314,
      "Ġ{": 315,
      "Ġs": 316,
      "ut": 317,
      "Ġb": 318,
      "ĠĠĠĠĠĠĠĠĠĠĠ": 319,
      "an": 320,
      "Ġ\\\"": 321,
      "ce": 322,
      "ing": 323,
      "}\\": 324,
      "Ġo": 325,
      "lf": 326,
      "Ġp": 327,
      "ion": 328,
      "Ġm": 329,
      ".\\": 330,
      "ar": 331,
      "()": 332,
      "Ġ{\\": 333,
      "]\\": 334,
      "om": 335,
      "ct": 336,
      "#[": 337,
      "Ġw": 338,
      "--": 339,
      "de": 340,
      "lo": 341,
      "ss": 342,
      "Ġin": 343,
      "Ġis": 344,
      "self": 345,
      "tr": 346,
      "Ġ}\\": 347,
      ");\\": 348,
      "fe": 349,
      "Ġre": 350,
      ",\\": 351,
      "Ġn": 352,
      "es": 353,
      "mp": 354,
      "ab": 355,
      "Ġto": 356,
      "ic": 357,
      "Ġle": 358,
      "ĠS": 359,
      "Ġu": 360,
      "Ġ///\\": 361,
      "Ġe": 362,
      "ur": 363,
      "Ġ//": 364,
      "Ġth": 365,
      "Ġ(": 366,
      "able": 367,
      "00": 368,
      "Ġi": 369,
      "Ġ#[": 370,
      "Ġof": 371,
      "ĠT": 372,
      "Ġan": 373,
      ")]\\": 374,
      "ĠĠĠĠĠĠĠĠ": 375,
      "et": 376,
      "int": 377,
      "ure": 378,
      "ul": 379,
      "Ġ-": 380,
      "ck": 381,
      "!(": 382,
      "ue": 383,
      "li": 384,
      "as": 385,
      "Ġv": 386,
      "Ġ[": 387,
      "ent": 388,
      "ap": 389,
      "iz": 390,
      "``": 391,
      "Ġst": 392,
      "////": 393,
      "Ġlet": 394,
      "ert": 395,
      "ust": 396,
      "ot": 397,
      "Ġcon": 398,
      "\\\",": 399,
      "Ġfor": 400,
      "ro": 401,
      "ature": 402,
      "il": 403,
      "Ġd": 404,
      "ig": 405,
      "mut": 406,
      "ĠA": 407,
      "\\\")]\\": 408,
      "ad": 409,
      "feature": 410,
      "Ġself": 411,
      "ol": 412,
      "Ġbe": 413,
      "her": 414,
      "Ġ1": 415,
      "stable": 416,
      "Ġfn": 417,
      "Ġ*": 418,
      "Ġ0": 419,
      "pe": 420,
      "ssert": 421,
      "ay": 422,
      "----": 423,
      "ter": 424,
      "Ġ->": 425,
      "ve": 426,
      "ub": 427,
      "ly": 428,
      "ĠI": 429,
      "ation": 430,
      "rom": 431,
      "Ġand": 432,
      "ch": 433,
      "con": 434,
      "te": 435,
      "),": 436,
      "Ġit": 437,
      "urn": 438,
      "Ġassert": 439,
      "ment": 440,
      "eq": 441,
      "ize": 442,
      "Ġ&": 443,
      "ate": 444,
      "(&": 445,
      "Ġ```": 446,
      "ĠĠĠĠĠĠĠĠĠĠĠĠĠĠĠ": 447,
      "##": 448,
      "ction": 449,
      "ge": 450,
      ")\\": 451,
      "==": 452,
      "Ġun": 453,
      "Ġ[`": 454,
      "afe": 455,
      "`]": 456,
      "ĠC": 457,
      "one": 458,
      "ĠR": 459,
      "ĠE": 460,
      "Ġ```\\": 461,
      "ne": 462,
      "ith": 463,
      "ult": 464,
      "ĠF": 465,
      "Ġthat": 466,
      "Ġif": 467,
      "if": 468,
      "///\\": 469,
      "mpl": 470,
      "lin": 471,
      "Ġas": 472,
      "//!": 473,
      "Ġal": 474,
      "Ġval": 475,
      "ince": 476,
      "turn": 477,
      "rust": 478,
      "Ġ#": 479,
      "mple": 480,
      "der": 481,
      "ode": 482,
      "ver": 483,
      "Ġh": 484,
      "Ġsince": 485,
      "ator": 486,
      "ra": 487,
      "me": 488,
      "////////": 489,
      "Ġuse": 490,
      "ĠN": 491,
      "oun": 492,
      "str": 493,
      "\\\\": 494,
      "..": 495,
      "loc": 496,
      "size": 497,
      "safe": 498,
      "Ġby": 499,
      "Ġreturn": 500,
      "id": 501,
      "line": 502,
      "low": 503,
      "32": 504,
      "Ġex": 505,
      "const": 506,
      "use": 507,
      "Ġg": 508,
      "ore": 509,
      "ĠO": 510,
      "elf": 511,
      "op": 512,
      "lice": 513,
      "um": 514,
      "act": 515,
      "nt": 516,
      "0000": 517,
      "ack": 518,
      "Ġnot": 519,
      "Ġthis": 520,
      "Ġor": 521,
      "od": 522,
      "all": 523,
      "art": 524,
      "unction": 525,
      "oint": 526,
      "Ġne": 527,
      "Ġde": 528,
      "Ġwith": 529,
      "ign": 530,
      "Ġstr": 531,
      "xt": 532,
      "inline": 533,
      "Ġon": 534,
      "ak": 535,
      "ĠP": 536,
      "dd": 537,
      "ype": 538,
      "Ġ}": 539,
      "ec": 540,
      "Ġfunction": 541,
      "ome": 542,
      "heck": 543,
      "Ġ2": 544,
      "len": 545,
      "his": 546,
      "Ġpub": 547,
      "per": 548,
      "pt": 549,
      "end": 550,
      "iter": 551,
      "fer": 552,
      "em": 553,
      "Ġr": 554,
      "Ġvalue": 555,
      "ĠB": 556,
      "Ġmut": 557,
      "--------": 558,
      "from": 559,
      "ive": 560,
      "ant": 561,
      "',": 562,
      "el": 563,
      "Ġcan": 564,
      "ĠThe": 565,
      "Ġconst": 566,
      "Ġ``": 567,
      "();\\": 568,
      "ain": 569,
      "Ġunsafe": 570,
      "ow": 571,
      "Ġare": 572,
      "to": 573,
      "tes": 574,
      "(),": 575,
      "ample": 576,
      "get": 577,
      "ase": 578,
      "us": 579,
      "rr": 580,
      ":\\": 581,
      "im": 582,
      ").": 583,
      "new": 584,
      "'\\\\": 585,
      "64": 586,
      "unstable": 587,
      "Ġ+": 588,
      "ial": 589,
      "ir": 590,
      "pl": 591,
      "ity": 592,
      "here": 593,
      "**": 594,
      "Ġiss": 595,
      "out": 596,
      "oc": 597,
      "11": 598,
      "ptr": 599,
      "set": 600,
      "tract": 601,
      "ac": 602,
      "====": 603,
      "rustc": 604,
      "),\\": 605,
      "omp": 606,
      "Ġissue": 607,
      "qu": 608,
      "Ġfrom": 609,
      "ress": 610,
      "Ġtype": 611,
      "ĠEx": 612,
      "Ġpoint": 613,
      "Ġ<": 614,
      "by": 615,
      "###": 616,
      "}',": 617,
      "ĠThis": 618,
      "ill": 619,
      "<'": 620,
      "ata": 621,
      "Ġy": 622,
      "Ġ_": 623,
      "cl": 624,
      "ort": 625,
      "ht": 626,
      "bu": 627,
      "val": 628,
      "ange": 629,
      "uct": 630,
      "ĠD": 631,
      "ĠV": 632,
      "nimpl": 633,
      "TY": 634,
      "and": 635,
      "mt": 636,
      "Ġ('\\\\": 637,
      "ĠU": 638,
      "ers": 639,
      "Ġ=>": 640,
      "ĠSelf": 641,
      "ther": 642,
      "iv": 643,
      "`.\\": 644,
      "check": 645,
      "rap": 646,
      "ĠSome": 647,
      "ption": 648,
      "12": 649,
      "add": 650,
      "ero": 651,
      "age": 652,
      "56": 653,
      "ef": 654,
      "ized": 655,
      "Ġl": 656,
      "));\\": 657,
      "ox": 658,
      "16": 659,
      "Ġ$": 660,
      "().": 661,
      "ty": 662,
      "ĠM": 663,
      "ff": 664,
      "init": 665,
      "Ġwh": 666,
      "Ġ4": 667,
      "ke": 668,
      "ast": 669,
      "Ġslice": 670,
      "ĠExample": 671,
      "for": 672,
      "ence": 673,
      "Ġcall": 674,
      "10": 675,
      "ĠĠĠĠĠĠĠĠĠĠĠĠĠĠĠĠĠĠĠ": 676,
      "ound": 677,
      "tern": 678,
      "Ġadd": 679,
      "rop": 680,
      "Ġ3": 681,
      "lement": 682,
      "Ġtr": 683,
      "Ġ|": 684,
      "rc": 685,
      "In": 686,
      "up": 687,
      "checked": 688,
      "ĠExamples": 689,
      "////////////////": 690,
      "Ġse": 691,
      "Ġusize": 692,
      "Ġres": 693,
      "ans": 694,
      "Ġwill": 695,
      "Ġiter": 696,
      "Ġso": 697,
      "Ġstring": 698,
      "lock": 699,
      "err": 700,
      "ER": 701,
      "Ġwe": 702,
      "anic": 703,
      "th": 704,
      "ount": 705,
      "ire": 706,
      "St": 707,
      "ner": 708,
      "dex": 709,
      "Ġat": 710,
      "ex": 711,
      "Ġdo": 712,
      "ool": 713,
      "Ġreturns": 714,
      "ip": 715,
      "Ġch": 716,
      "ame": 717,
      "Self": 718,
      "ou": 719,
      "Ġelement": 720,
      "ĠW": 721,
      "FE": 722,
      "ated": 723,
      "slice": 724,
      "mat": 725,
      "Ġx": 726,
      "eth": 727,
      "doc": 728,
      "ference": 729,
      "Ġ5": 730,
      "mplement": 731,
      "Ġother": 732,
      "ace": 733,
      "ory": 734,
      "AFE": 735,
      "AFETY": 736,
      "ins": 737,
      "Ġstd": 738,
      "Ġimpl": 739,
      "ile": 740,
      "are": 741,
      "Iter": 742,
      "Ġcomp": 743,
      "00000000": 744,
      "ify": 745,
      "Ġmem": 746,
      "oul": 747,
      "Ġover": 748,
      "ould": 749,
      "());\\": 750,
      "`,": 751,
      "Ġli": 752,
      "256": 753,
      "np": 754,
      "Ġ'": 755,
      "NT": 756,
      "ethod": 757,
      "ping": 758,
      "cc": 759,
      "ash": 760,
      "Ġnew": 761,
      "pre": 762,
      "Ġfmt": 763,
      "next": 764,
      "not": 765,
      "zero": 766,
      "put": 767,
      "cess": 768,
      "yn": 769,
      "!(\\\"": 770,
      "ax": 771,
      "rit": 772,
      "bug": 773,
      "Ġlen": 774,
      "its": 775,
      "rate": 776,
      "Ġcontract": 777,
      "ight": 778,
      "old": 779,
      "ĠOption": 780,
      "Ġpre": 781,
      "ari": 782,
      "Ġsh": 783,
      "Ġus": 784,
      "ault": 785,
      "ally": 786,
      "ree": 787,
      "Ġmust": 788,
      "Ġalloc": 789,
      "Ġimplement": 790,
      "pec": 791,
      "ĠL": 792,
      "Un": 793,
      "ind": 794,
      "Ġcode": 795,
      "ich": 796,
      "()\\": 797,
      "Ġpro": 798,
      "ance": 799,
      "ĠSAFETY": 800,
      "Ġoper": 801,
      "ary": 802,
      "bytes": 803,
      "ail": 804,
      "Ġresult": 805,
      "alloc": 806,
      "Ġen": 807,
      "atch": 808,
      "vi": 809,
      "Ġpointer": 810,
      "try": 811,
      "os": 812,
      "Ġ==": 813,
      "hen": 814,
      "wrap": 815,
      "ition": 816,
      "Ġonly": 817,
      "ĠĠĠĠĠĠĠĠĠĠĠĠĠĠĠĠ": 818,
      "unchecked": 819,
      "ib": 820,
      "![": 821,
      "omic": 822,
      "ave": 823,
      "error": 824,
      "npub": 825,
      "Ġwhich": 826,
      "map": 827,
      "flow": 828,
      "ime": 829,
      ">>": 830,
      "Mut": 831,
      "min": 832,
      "esult": 833,
      "gn": 834,
      "Ġel": 835,
      "Ġbu": 836,
      "row": 837,
      "Ġuint": 838,
      "))": 839,
      "orage": 840,
      "::<": 841,
      "ee": 842,
      "Ġwhere": 843,
      "ĠIn": 844,
      "Ġbytes": 845,
      "ternal": 846,
      "Add": 847,
      "Ġmemory": 848,
      "ard": 849,
      "Con": 850,
      "ĠIf": 851,
      "Ġelse": 852,
      "rror": 853,
      "LE": 854,
      "Ġyou": 855,
      "ull": 856,
      "ake": 857,
      "----------------": 858,
      "Ġhave": 859,
      ">(": 860,
      "`]:": 861,
      "ci": 862,
      "(\\\"": 863,
      "hs": 864,
      "ang": 865,
      "into": 866,
      "Ġreference": 867,
      "Ġbool": 868,
      "eturn": 869,
      "raw": 870,
      "am": 871,
      "Ġcrate": 872,
      "must": 873,
      "ays": 874,
      "ĠNone": 875,
      "vert": 876,
      "res": 877,
      "arget": 878,
      "128": 879,
      "ps": 880,
      "back": 881,
      "Ġ};\\": 882,
      "rite": 883,
      "ger": 884,
      "be": 885,
      "cap": 886,
      "uint": 887,
      "Ġcont": 888,
      "opy": 889,
      "ayout": 890,
      "Ġev": 891,
      "========": 892,
      "Ġ6": 893,
      "ref": 894,
      "ost": 895,
      "trins": 896,
      "trinsic": 897,
      "so": 898,
      "Ġaddress": 899,
      "key": 900,
      "ccess": 901,
      "Ġstruct": 902,
      "nuse": 903,
      "igned": 904,
      "ĠReturn": 905,
      "Ġtra": 906,
      "Ġ>": 907,
      "IN": 908,
      "Ġoperation": 909,
      "Str": 910,
      "orrow": 911,
      "load": 912,
      "ating": 913,
      "Ġmethod": 914,
      "ell": 915,
      "que": 916,
      "est": 917,
      "lone": 918,
      "Ġsu": 919,
      "struct": 920,
      "Ġall": 921,
      "Ġused": 922,
      "umb": 923,
      "cii": 924,
      "fg": 925,
      "ument": 926,
      "ause": 927,
      "Ġinto": 928,
      "ĠG": 929,
      "ues": 930,
      "Ġ!": 931,
      "^^": 932,
      "ĠReturns": 933,
      "quire": 934,
      "Ġmod": 935,
      "Ġ/": 936,
      "Ġbut": 937,
      "code": 938,
      "Ġany": 939,
      "block": 940,
      "Ġiterator": 941,
      "14": 942,
      "Ġup": 943,
      "\\\",\\": 944,
      "lid": 945,
      "!($": 946,
      "ist": 947,
      "Ġconc": 948,
      "'s": 949,
      ">)": 950,
      "IT": 951,
      "cfg": 952,
      "Ġsize": 953,
      "//!\\": 954,
      "plit": 955,
      "\\\"]\\": 956,
      "ead": 957,
      "Iterator": 958,
      "fin": 959,
      "Ġsame": 960,
      "Ġdata": 961,
      ">`": 962,
      "Ġdoes": 963,
      "oo": 964,
      "Error": 965,
      "]);\\": 966,
      "ĠAl": 967,
      "Ġhas": 968,
      "AN": 969,
      "ft": 970,
      "tem": 971,
      "ule": 972,
      "itial": 973,
      "char": 974,
      "20": 975,
      "ĠCon": 976,
      "Ġ7": 977,
      "Ġelements": 978,
      "Ġerror": 979,
      "ENT": 980,
      "ide": 981,
      "ove": 982,
      "Ġab": 983,
      "gth": 984,
      "Ġcur": 985,
      "Ġindex": 986,
      "usize": 987,
      "\\\");\\": 988,
      "of": 989,
      "ifi": 990,
      "ice": 991,
      "Ġend": 992,
      "irst": 993,
      "dering": 994,
      "MA": 995,
      "Ġ:": 996,
      "Ġar": 997,
      "unk": 998,
      "eld": 999,
      "Ġcheck": 1000,
      "Ġstringify": 1001,
      "ield": 1002,
      "yp": 1003,
      "Ġwhen": 1004,
      "umber": 1005,
      "Ġwithout": 1006,
      "Ġrem": 1007,
      "ync": 1008,
      "13": 1009,
      "fault": 1010,
      "];\\": 1011,
      "ways": 1012,
      "ĠH": 1013,
      "text": 1014,
      "Id": 1015,
      "ect": 1016,
      "read": 1017,
      "<'_": 1018,
      "Ġconcat": 1019,
      "Ġme": 1020,
      "ark": 1021,
      "value": 1022,
      "80": 1023,
      "Ġmatch": 1024,
      "ual": 1025,
      "Ġpr": 1026,
      "utput": 1027,
      "Ġptr": 1028,
      "Ġthan": 1029,
      "form": 1030,
      "Or": 1031,
      "Ġmap": 1032,
      "ERC": 1033,
      "lidity": 1034,
      "`\\": 1035,
      "Ġpanic": 1036,
      "Ġ10": 1037,
      "artial": 1038,
      "ass": 1039,
      "ebug": 1040,
      "Ġnon": 1041,
      "rent": 1042,
      "olle": 1043,
      "âĶ": 1044,
      "ates": 1045,
      "ascii": 1046,
      "co": 1047,
      "AL": 1048,
      "acity": 1049,
      "ffset": 1050,
      "RC": 1051,
      "Ġ@": 1052,
      ">,\\": 1053,
      "ken": 1054,
      "sh": 1055,
      "alse": 1056,
      "****": 1057,
      "igin": 1058,
      "ix": 1059,
      "::{": 1060,
      "Ġlo": 1061,
      "lob": 1062,
      "'t": 1063,
      "assert": 1064,
      "};\\": 1065,
      "],": 1066,
      "Ġsafe": 1067,
      "mpty": 1068,
      "ĠFor": 1069,
      "Ġ&[": 1070,
      "Ġhe": 1071,
      "ded": 1072,
      "ypes": 1073,
      "(|": 1074,
      "led": 1075,
      "Ġone": 1076,
      "oxc": 1077,
      "own": 1078,
      "Ġrequire": 1079,
      "gra": 1080,
      "Ġusing": 1081,
      "Addr": 1082,
      "Ġspec": 1083,
      "lign": 1084,
      "clu": 1085,
      "start": 1086,
      "Ġmore": 1087,
      "time": 1088,
      "sol": 1089,
      "Ġbec": 1090,
      "Stack": 1091,
      "Ġneed": 1092,
      ").\\": 1093,
      "Item": 1094,
      "VM": 1095,
      "Ġgu": 1096,
      "ush": 1097,
      "non": 1098,
      "Ġmay": 1099,
      "ĠVec": 1100,
      "ep": 1101,
      "wo": 1102,
      "../": 1103,
      "ere": 1104,
      "Ġoverflow": 1105,
      "Vec": 1106,
      "Ġvalues": 1107,
      "(\\": 1108,
      "ations": 1109,
      "string": 1110,
      "Sized": 1111,
      "ener": 1112,
      "Ġorigin": 1113,
      "clone": 1114,
      "ach": 1115,
      "ĠUn": 1116,
      "fmt": 1117,
      "Ġarr": 1118,
      "<&": 1119,
      "data": 1120,
      "ag": 1121,
      "Ġ{}\\": 1122,
      "pr": 1123,
      "Ġits": 1124,
      "Ġno": 1125,
      "Ġk": 1126,
      "Ġtypes": 1127,
      "Ġ#![": 1128,
      "ON": 1129,
      "Ġnumber": 1130,
      "with": 1131,
      "this": 1132,
      "Ġexp": 1133,
      "EI": 1134,
      "ĠFn": 1135,
      "Ġsign": 1136,
      "nto": 1137,
      "nf": 1138,
      "mit": 1139,
      "su": 1140,
      "Ġ.": 1141,
      "ote": 1142,
      "ayload": 1143,
      "Ġpart": 1144,
      "unwrap": 1145,
      "ha": 1146,
      "Ġchar": 1147,
      "mem": 1148,
      "Ġcontain": 1149,
      "lic": 1150,
      "Tree": 1151,
      "Ġvalid": 1152,
      "gument": 1153,
      "lobal": 1154,
      "://": 1155,
      "Cell": 1156,
      "Ġtest": 1157,
      "Ġinst": 1158,
      "90": 1159,
      "RE": 1160,
      "Ġshould": 1161,
      "grade": 1162,
      "ĠĠĠĠĠ": 1163,
      "Ġtrue": 1164,
      "aybe": 1165,
      "Ġbuf": 1166,
      "Ġoriginal": 1167,
      "Ġequ": 1168,
      "range": 1169,
      "urce": 1170,
      "////////////////////////////////": 1171,
      "Ġstate": 1172,
      "Ġexample": 1173,
      "ible": 1174,
      "ĠK": 1175,
      "ĠAlloc": 1176,
      "Gas": 1177,
      "che": 1178,
      "ĠOr": 1179,
      "ecut": 1180,
      "write": 1181,
      "return": 1182,
      "Ġzero": 1183,
      "inner": 1184,
      "call": 1185,
      "ry": 1186,
      "Ġbecause": 1187,
      "AT": 1188,
      "ia": 1189,
      "tps": 1190,
      "Ġalso": 1191,
      "String": 1192,
      "pro": 1193,
      ");": 1194,
      "ITY": 1195,
      "tra": 1196,
      "Result": 1197,
      "over": 1198,
      "Ġvari": 1199,
      "EC": 1200,
      "ĠIter": 1201,
      "test": 1202,
      "less": 1203,
      "sor": 1204,
      "wind": 1205,
      "colle": 1206,
      "rs": 1207,
      "0000000000000000": 1208,
      "sent": 1209,
      "Ġinte": 1210,
      "uration": 1211,
      "Ġtrait": 1212,
      "Ġinitial": 1213,
      "Ġtrans": 1214,
      "Ġcase": 1215,
      "MAX": 1216,
      "Zero": 1217,
      "point": 1218,
      "Ġlength": 1219,
      "ĠWe": 1220,
      "bound": 1221,
      "comp": 1222,
      "aran": 1223,
      "no": 1224,
      "Ġro": 1225,
      "Ġ8": 1226,
      "))\\": 1227,
      "arante": 1228,
      "Ġcre": 1229,
      "aram": 1230,
      ">\\": 1231,
      "Ġthen": 1232,
      "Uninit": 1233,
      "]:": 1234,
      "case": 1235,
      "Ġset": 1236,
      "Ġget": 1237,
      "sed": 1238,
      "push": 1239,
      "ong": 1240,
      "trol": 1241,
      "Ġcore": 1242,
      "wi": 1243,
      "atomic": 1244,
      "SelfT": 1245,
      "Ġstart": 1246,
      "1111": 1247,
      "sub": 1248,
      "ov": 1249,
      "38": 1250,
      "wn": 1251,
      "arker": 1252,
      "we": 1253,
      ">,": 1254,
      "nT": 1255,
      "/\\": 1256,
      "ĠResult": 1257,
      "Ġfirst": 1258,
      "ions": 1259,
      "com": 1260,
      "ops": 1261,
      "Ġ9": 1262,
      "Ġguarante": 1263,
      "sure": 1264,
      "acro": 1265,
      "Ġtwo": 1266,
      "pect": 1267,
      "ĠOk": 1268,
      "offset": 1269,
      "ms": 1270,
      "Ġnext": 1271,
      "af": 1272,
      "Ġacc": 1273,
      "ped": 1274,
      "mport": 1275,
      "Ġbound": 1276,
      "ĠNon": 1277,
      "Ġdrop": 1278,
      "Ġreturned": 1279,
      "vec": 1280,
      "trinsics": 1281,
      "Ref": 1282,
      "cur": 1283,
      "Ġfalse": 1284,
      "Ġrhs": 1285,
      "wap": 1286,
      "index": 1287,
      "ĠĠĠĠĠĠĠĠĠĠĠĠĠĠĠĠĠĠĠĠĠĠĠ": 1288,
      "`].\\": 1289,
      "Ġrange": 1290,
      "34": 1291,
      "77": 1292,
      "Debug": 1293,
      "ĠFI": 1294,
      "und": 1295,
      "gh": 1296,
      "Ġblock": 1297,
      "Ġcurrent": 1298,
      "cmp": 1299,
      "ĠJ": 1300,
      "\\\":": 1301,
      "ll": 1302,
      "aybeUninit": 1303,
      "None": 1304,
      "itive": 1305,
      "ĠSee": 1306,
      "other": 1307,
      "Ġj": 1308,
      "unc": 1309,
      "Set": 1310,
      "Ġ&'": 1311,
      "Ġalign": 1312,
      "Ġass": 1313,
      "Ġout": 1314,
      "EVM": 1315,
      "count": 1316,
      "used": 1317,
      "valid": 1318,
      "ctions": 1319,
      "ollow": 1320,
      "ew": 1321,
      "uture": 1322,
      "signed": 1323,
      "From": 1324,
      "ild": 1325,
      "Ġvec": 1326,
      "âĶĢ": 1327,
      "ĠAllocator": 1328,
      "Arc": 1329,
      "Ġ)": 1330,
      "Ġinternal": 1331,
      "ilder": 1332,
      "place": 1333,
      "OLE": 1334,
      "\\\"\\": 1335,
      "ling": 1336,
      "Ġpublic": 1337,
      "Ġfollow": 1338,
      "ĠAO": 1339,
      "Storage": 1340,
      "fined": 1341,
      "Ġav": 1342,
      "Re": 1343,
      "ative": 1344,
      "Ġallow": 1345,
      "Ġbyte": 1346,
      "Ġorder": 1347,
      "])": 1348,
      "ld": 1349,
      "atur": 1350,
      "99": 1351,
      "Ġarray": 1352,
      "ST": 1353,
      "()`": 1354,
      "Ġwor": 1355,
      "cond": 1356,
      "ĠClone": 1357,
      "Up": 1358,
      "ĠFnMut": 1359,
      "ID": 1360,
      "Ġ?": 1361,
      "Ġ:=": 1362,
      "Ġcal": 1363,
      "Ġalways": 1364,
      "Ġkey": 1365,
      "loat": 1366,
      "present": 1367,
      "num": 1368,
      "chunk": 1369,
      "Ġcaller": 1370,
      "15": 1371,
      "Ch": 1372,
      "Ġtarget": 1373,
      "Ġap": 1374,
      "72": 1375,
      "Ġcompil": 1376,
      "Rc": 1377,
      "ique": 1378,
      "byte": 1379,
      "Ġcom": 1380,
      "ous": 1381,
      "ron": 1382,
      "Ġwould": 1383,
      "cope": 1384,
      "Map": 1385,
      "rem": 1386,
      "utf": 1387,
      "arch": 1388,
      "max": 1389,
      "ml": 1390,
      "attern": 1391,
      "Ġvers": 1392,
      "Ġ<=": 1393,
      "Ġid": 1394,
      "Ġmin": 1395,
      "Ġargument": 1396,
      "Ex": 1397,
      "aturating": 1398,
      "treturn": 1399,
      "inter": 1400,
      "ents": 1401,
      "gradeable": 1402,
      "html": 1403,
      "For": 1404,
      "ĠIt": 1405,
      "vari": 1406,
      "Ġpl": 1407,
      "Ġright": 1408,
      "atic": 1409,
      "havi": 1410,
      "OR": 1411,
      "Ġcannot": 1412,
      "Non": 1413,
      "Ġgener": 1414,
      "Ġdefault": 1415,
      "Ġstorage": 1416,
      "Ġ>=": 1417,
      "Ġmax": 1418,
      "ules": 1419,
      "`.": 1420,
      "Ġback": 1421,
      "capacity": 1422,
      "Ġinstead": 1423,
      "lash": 1424,
      "port": 1425,
      "havior": 1426,
      "Ġcons": 1427,
      "tx": 1428,
      "ants": 1429,
      "hand": 1430,
      "ĠErr": 1431,
      "Ġper": 1432,
      "part": 1433,
      "Ġcount": 1434,
      "cr": 1435,
      "Ġsome": 1436,
      "Ġrepresent": 1437,
      "001": 1438,
      "Ġimplementation": 1439,
      "ven": 1440,
      "Ġ!=": 1441,
      "ĠSo": 1442,
      "oss": 1443,
      "())\\": 1444,
      "000": 1445,
      "plic": 1446,
      "Ġsub": 1447,
      "ific": 1448,
      "ĠNote": 1449,
      "IC": 1450,
      "1010": 1451,
      "matter": 1452,
      "))]\\": 1453,
      "split": 1454,
      "Ġeven": 1455,
      "std": 1456,
      "Ġgiv": 1457,
      "ION": 1458,
      "ĠStr": 1459,
      "29": 1460,
      "pv": 1461,
      "efault": 1462,
      "panic": 1463,
      "ually": 1464,
      "Ġcap": 1465,
      "allow": 1466,
      "XC": 1467,
      "ĠĠĠĠĠĠĠĠĠ": 1468,
      "^^^^": 1469,
      "(),\\": 1470,
      "method": 1471,
      "`],": 1472,
      "VER": 1473,
      "fter": 1474,
      "Ġinter": 1475,
      "Ġremain": 1476,
      "Ġthere": 1477,
      "Ġcompiler": 1478,
      "{\\": 1479,
      "none": 1480,
      "Box": 1481,
      "To": 1482,
      "].": 1483,
      "Ġ..": 1484,
      "Ġinteger": 1485,
      "âĶĢâĶĢ": 1486,
      "ĠCO": 1487,
      "GN": 1488,
      "ĠPartial": 1489,
      "layout": 1490,
      "Ġ*/\\": 1491,
      "Ġfunctions": 1492,
      "buf": 1493,
      ")?": 1494,
      "55": 1495,
      "Null": 1496,
      "arr": 1497,
      "ies": 1498,
      "contract": 1499,
      "XL": 1500,
      "target": 1501,
      "Ġ\\\\": 1502,
      "Upgradeable": 1503,
      "Aoxc": 1504,
      "Bu": 1505,
      "ward": 1506,
      "ĠID": 1507,
      "drop": 1508,
      "ĠArc": 1509,
      "Ġlike": 1510,
      "Ġwas": 1511,
      "Ġoff": 1512,
      "aker": 1513,
      "<[": 1514,
      "OVER": 1515,
      "ĠAOXC": 1516,
      "fold": 1517,
      "trans": 1518,
      "Ġgas": 1519,
      "Ġvariable": 1520,
      "ĠIterator": 1521,
      "TU": 1522,
      "core": 1523,
      "left": 1524,
      "Eq": 1525,
      "ject": 1526,
      "inary": 1527,
      "Ġ`&": 1528,
      "ront": 1529,
      "ĠBox": 1530,
      "Ġmodify": 1531,
      "Ġbet": 1532,
      "item": 1533,
      "Ġversion": 1534,
      "ENTITY": 1535,
      "79": 1536,
      "Ġnil": 1537,
      "pos": 1538,
      "Ġlast": 1539,
      "ATION": 1540,
      "ten": 1541,
      "Ġposs": 1542,
      "ext": 1543,
      "Ġbit": 1544,
      ">::": 1545,
      "\\\";\\": 1546,
      "cluded": 1547,
      "ose": 1548,
      "ĠRc": 1549,
      "**\\": 1550,
      "wise": 1551,
      "br": 1552,
      "eref": 1553,
      "ĠCore": 1554,
      "Ġsolidity": 1555,
      "24": 1556,
      "75": 1557,
      "ĠĠĠĠĠĠĠĠĠĠĠĠ": 1558,
      "($": 1559,
      "OK": 1560,
      "Some": 1561,
      "Ġdif": 1562,
      "28": 1563,
      "By": 1564,
      "ĠBTree": 1565,
      "insert": 1566,
      "ĠAOXCAN": 1567,
      "global": 1568,
      "ĠAn": 1569,
      "usive": 1570,
      "Ġgiven": 1571,
      "inn": 1572,
      "Ġnode": 1573,
      "where": 1574,
      "org": 1575,
      "Ġins": 1576,
      "lashblock": 1577,
      "eque": 1578,
      "wrapping": 1579,
      "ĠJust": 1580,
      "``,": 1581,
      "ĠERC": 1582,
      "TURE": 1583,
      "our": 1584,
      "26": 1585,
      "Ġop": 1586,
      "Ġexternal": 1587,
      "clusive": 1588,
      "ptim": 1589,
      "Ġequal": 1590,
      "ĠCONT": 1591,
      "Ġcor": 1592,
      "akes": 1593,
      "ĠPanic": 1594,
      "ked": 1595,
      "MIN": 1596,
      "ale": 1597,
      "mod": 1598,
      "ces": 1599,
      "ALID": 1600,
      ")`": 1601,
      "Ġvi": 1602,
      "ments": 1603,
      "derive": 1604,
      "arc": 1605,
      "Ġ&&": 1606,
      "Ġsuch": 1607,
      "Ġmult": 1608,
      "Ġbehavior": 1609,
      "ĠIDENTITY": 1610,
      "HIT": 1611,
      "Ġleft": 1612,
      "cast": 1613,
      "-+": 1614,
      "ĠROLE": 1615,
      "Ġ+=": 1616,
      "XLY": 1617,
      "OKB": 1618,
      "idx": 1619,
      "RCHIT": 1620,
      "EIGN": 1621,
      "OVEREIGN": 1622,
      "RCHITEC": 1623,
      "19": 1624,
      "ĠSOVEREIGN": 1625,
      "ĠARCHITEC": 1626,
      "lower": 1627,
      "ĠVALID": 1628,
      "\":": 1629,
      "\"}": 1630,
      "\"###": 1631,
      ".\"}": 1632,
      "ict": 1633,
      "{\"": 1634,
      "Ġ\"###": 1635,
      "Ġinner": 1636,
      "ĠFILE": 1637,
      "ĠJustice": 1638,
      "ĠCONTENT": 1639,
      "ĠARCHITECTURE": 1640,
      "ĠVALIDATION": 1641,
      "Ġwrap": 1642,
      "Output": 1643,
      "pend": 1644,
      "Ġallocation": 1645,
      "base": 1646,
      "Ġitem": 1647,
      "type": 1648,
      "Ġam": 1649,
      "Ġparam": 1650,
      "mon": 1651,
      "lang": 1652,
      "sign": 1653,
      "ine": 1654,
      "Ġread": 1655,
      "Ġtoken": 1656,
      "Ġdoc": 1657,
      "ified": 1658,
      "30": 1659,
      "node": 1660,
      "nd": 1661,
      "nThe": 1662,
      ">(&": 1663,
      "MaybeUninit": 1664,
      "bool": 1665,
      "du": 1666,
      "null": 1667,
      "Ġbase": 1668,
      "ift": 1669,
      "ume": 1670,
      "ĠInto": 1671,
      "Ġwhile": 1672,
      "================": 1673,
      "ifier": 1674,
      "super": 1675,
      "oth": 1676,
      "fore": 1677,
      "Ġempty": 1678,
      "\\\")": 1679,
      "Ġcalled": 1680,
      "Ġafter": 1681,
      "ility": 1682,
      "Ġprint": 1683,
      "Type": 1684,
      "lect": 1685,
      "Access": 1686,
      "import": 1687,
      "Ġinput": 1688,
      "arent": 1689,
      "ĠString": 1690,
      "true": 1691,
      "<'_>)": 1692,
      "Ġfollowing": 1693,
      "Ġoffset": 1694,
      "ole": 1695,
      "Ġmodifying": 1696,
      "Ġpossible": 1697,
      "ither": 1698,
      "oll": 1699,
      "84": 1700,
      "ector": 1701,
      "Ġjust": 1702,
      "ĠPanics": 1703,
      "tf": 1704,
      "Ġsp": 1705,
      "tail": 1706,
      "Ġtime": 1707,
      "aN": 1708,
      "sort": 1709,
      "sync": 1710,
      "tain": 1711,
      "default": 1712,
      "ared": 1713,
      "ever": 1714,
      "ĠSafe": 1715,
      "Ġpointers": 1716,
      "39": 1717,
      "Data": 1718,
      "Ġ\\\\\\": 1719,
      "Ġthey": 1720,
      "opt": 1721,
      "Deque": 1722,
      "][": 1723,
      "Ġunder": 1724,
      "irect": 1725,
      "caller": 1726,
      "ween": 1727,
      "Ġway": 1728,
      "ask": 1729,
      "<'_,": 1730,
      "air": 1731,
      "rans": 1732,
      "Ord": 1733,
      "Option": 1734,
      "borrow": 1735,
      "\\\".": 1736,
      "Ġoptim": 1737,
      "handling": 1738,
      "Code": 1739,
      "dev": 1740,
      "amp": 1741,
      "hint": 1742,
      "oom": 1743,
      "Ġrun": 1744,
      "nunsafe": 1745,
      "Ġpos": 1746,
      "debug": 1747,
      "!(!": 1748,
      "tep": 1749,
      "vm": 1750,
      "Range": 1751,
      "Ġintrinsics": 1752,
      "addr": 1753,
      "ses": 1754,
      "<$": 1755,
      "Ġaccess": 1756,
      "Ġformat": 1757,
      "andle": 1758,
      "tif": 1759,
      "irt": 1760,
      "18": 1761,
      "Ġht": 1762,
      "orm": 1763,
      "edge": 1764,
      "Ġmake": 1765,
      "Ġwrite": 1766,
      "als": 1767,
      "Ġob": 1768,
      "())": 1769,
      "copy": 1770,
      "ater": 1771,
      "hereum": 1772,
      "ches": 1773,
      "Ġamount": 1774,
      "ĠSafety": 1775,
      "Ġ);\\": 1776,
      "let": 1777,
      "irtual": 1778,
      "dic": 1779,
      "vers": 1780,
      "Ġmutable": 1781,
      "Ġhttps": 1782,
      "nwhere": 1783,
      "Ġexecut": 1784,
      "50": 1785,
      "empty": 1786,
      "../../": 1787,
      "Ġtry": 1788,
      ");\\\")]\\": 1789,
      "cre": 1790,
      "defined": 1791,
      "Ġsafety": 1792,
      "Ġevm": 1793,
      "]>": 1794,
      "[]": 1795,
      "erve": 1796,
      "rusted": 1797,
      "--------------------------------": 1798,
      "********": 1799,
      "Ġbetween": 1800,
      "Ġdis": 1801,
      "FF": 1802,
      "Ġvector": 1803,
      "TF": 1804,
      "ilt": 1805,
      "Sign": 1806,
      "Ġmeans": 1807,
      "nfn": 1808,
      "array": 1809,
      "87": 1810,
      "align": 1811,
      "40": 1812,
      "Ġinitialized": 1813,
      "crate": 1814,
      "nimport": 1815,
      "chain": 1816,
      "bits": 1817,
      "src": 1818,
      "ord": 1819,
      "Ġsup": 1820,
      "En": 1821,
      "Ġ\\\"::": 1822,
      "ĠNaN": 1823,
      "Ġlist": 1824,
      "uninit": 1825,
      "ĠCre": 1826,
      "Ġhere": 1827,
      "Ġ12": 1828,
      "Ordering": 1829,
      "gs": 1830,
      "Ġloc": 1831,
      "Ġbits": 1832,
      "igits": 1833,
      "ting": 1834,
      "Ġsm": 1835,
      "Ġborrow": 1836,
      "Ġ*\\": 1837,
      "Ġlayout": 1838,
      "umentation": 1839,
      "head": 1840,
      "ided": 1841,
      "spec": 1842,
      "ITS": 1843,
      "rect": 1844,
      "bit": 1845,
      "Ġsource": 1846,
      "Formatter": 1847,
      "On": 1848,
      "mul": 1849,
      "marker": 1850,
      "ision": 1851,
      "ient": 1852,
      "Ġmost": 1853,
      "Ġsee": 1854,
      "fig": 1855,
      "Ġstore": 1856,
      "lap": 1857,
      "Ġname": 1858,
      "Ġeach": 1859,
      "Drop": 1860,
      "Ġfield": 1861,
      "iple": 1862,
      "143": 1863,
      "ath": 1864,
      "ical": 1865,
      "ma": 1866,
      "collect": 1867,
      "rhs": 1868,
      "adata": 1869,
      "Ġact": 1870,
      "etadata": 1871,
      "Ġatomic": 1872,
      "last": 1873,
      "ĠOrdering": 1874,
      "cell": 1875,
      "ization": 1876,
      "mb": 1877,
      "macro": 1878,
      "intrinsic": 1879,
      "ider": 1880,
      "right": 1881,
      "attr": 1882,
      "ish": 1883,
      "idd": 1884,
      "Ġnote": 1885,
      "fo": 1886,
      "Ġview": 1887,
      "fix": 1888,
      "Ġvirtual": 1889,
      "Bound": 1890,
      "//\\": 1891,
      "Ġcharact": 1892,
      "Ġcapacity": 1893,
      "always": 1894,
      "ferent": 1895,
      "hold": 1896,
      "ied": 1897,
      "sp": 1898,
      "Ġeither": 1899,
      "78": 1900,
      "Int": 1901,
      "lease": 1902,
      "Ġown": 1903,
      "lying": 1904,
      "https": 1905,
      "ĠOrd": 1906,
      "face": 1907,
      "sen": 1908,
      "api": 1909,
      "pelin": 1910,
      "uble": 1911,
      "eppelin": 1912,
      "nfunc": 1913,
      "imitive": 1914,
      "aw": 1915,
      "cket": 1916,
      "Hash": 1917,
      "Size": 1918,
      "oid": 1919,
      "intern": 1920,
      "parts": 1921,
      "74": 1922,
      "tomic": 1923,
      "Ġad": 1924,
      "Ġfail": 1925,
      "ense": 1926,
      "Ġrevert": 1927,
      "ched": 1928,
      "Ġ//\\": 1929,
      "ĠFrom": 1930,
      "reak": 1931,
      "state": 1932,
      "Ġkn": 1933,
      "sized": 1934,
      "ason": 1935,
      "iri": 1936,
      "cape": 1937,
      "Ġabove": 1938,
      "Ġensure": 1939,
      "AM": 1940,
      "ural": 1941,
      "alance": 1942,
      "Ġbefore": 1943,
      "imum": 1944,
      "Ġ/**\\": 1945,
      "Ġtheir": 1946,
      "Ġold": 1947,
      "Ġapp": 1948,
      "690": 1949,
      "EM": 1950,
      "hant": 1951,
      "hantom": 1952,
      "dyn": 1953,
      "app": 1954,
      "ted": 1955,
      "trolF": 1956,
      "uction": 1957,
      "rag": 1958,
      "Ġdebug": 1959,
      "trolFlow": 1960,
      "box": 1961,
      "cod": 1962,
      "Ġclo": 1963,
      "Ġdocumentation": 1964,
      "ful": 1965,
      "gative": 1966,
      "kip": 1967,
      "lot": 1968,
      "ĠRust": 1969,
      "ĠNonZero": 1970,
      "Ġ($": 1971,
      ";\\\")]\\": 1972,
      "Ġboth": 1973,
      "uple": 1974,
      "trait": 1975,
      "collections": 1976,
      "wh": 1977,
      "icense": 1978,
      "Ġ**": 1979,
      "Len": 1980,
      "front": 1981,
      "iss": 1982,
      "abi": 1983,
      "54": 1984,
      "Se": 1985,
      "ĠSt": 1986,
      "ĠRange": 1987,
      "ĠPoint": 1988,
      "iled": 1989,
      "cal": 1990,
      "ĠY": 1991,
      "lem": 1992,
      "Ġscope": 1993,
      "result": 1994,
      "assign": 1995,
      "36": 1996,
      "dia": 1997,
      "hash": 1998,
      "ĠSh": 1999,
      "!(\\": 2000,
      "brary": 2001,
      "59": 2002,
      "ssage": 2003,
      "ĠAcc": 2004,
      "Ġbeen": 2005,
      "Ġ$.": 2006,
      "utes": 2007,
      "overflow": 2008,
      "par": 2009,
      "Inner": 2010,
      "vide": 2011,
      "gnost": 2012,
      "Ġoverr": 2013,
      "Ġreferences": 2014,
      "gnostic": 2015,
      "Clone": 2016,
      "exp": 2017,
      "pointer": 2018,
      "prec": 2019,
      "div": 2020,
      "6909": 2021,
      "Ġstack": 2022,
      "SH": 2023,
      "ok": 2024,
      "allocator": 2025,
      "Ġloop": 2026,
      "gas": 2027,
      "oved": 2028,
      "..=": 2029,
      "itializ": 2030,
      "archer": 2031,
      "Ipv": 2032,
      "az": 2033,
      "first": 2034,
      "Ġthem": 2035,
      "``.\\": 2036,
      "structor": 2037,
      "Ġgo": 2038,
      "play": 2039,
      "diagnostic": 2040,
      "List": 2041,
      "yst": 2042,
      "any": 2043,
      "Ġmacro": 2044,
      "Ġaddition": 2045,
      ":`": 2046,
      "ĠCh": 2047,
      "Ġcursor": 2048,
      "69": 2049,
      "swap": 2050,
      "ĠTrusted": 2051,
      "igit": 2052,
      "Ġbeing": 2053,
      "ĠRe": 2054,
      "Ġprov": 2055,
      "Ġbuffer": 2056,
      "chunks": 2057,
      "ystem": 2058,
      "uc": 2059,
      "Ġcopy": 2060,
      "Ġ|\\": 2061,
      "17": 2062,
      "Ġac": 2063,
      "Ġavoid": 2064,
      "^-": 2065,
      "asic": 2066,
      "ivale": 2067,
      "ready": 2068,
      "ivalent": 2069,
      "ethereum": 2070,
      "(-": 2071,
      "hed": 2072,
      "ower": 2073,
      "Char": 2074,
      "Address": 2075,
      "Ġreason": 2076,
      "Ġexact": 2077,
      "Ġdifferent": 2078,
      "Ġfile": 2079,
      "ithub": 2080,
      "open": 2081,
      "payload": 2082,
      "NAM": 2083,
      "noun": 2084,
      "wner": 2085,
      "Ġthese": 2086,
      "percase": 2087,
      "format": 2088,
      "Ġlog": 2089,
      "av": 2090,
      "action": 2091,
      "github": 2092,
      "ugh": 2093,
      "Ġconvert": 2094,
      "ailable": 2095,
      "EIP": 2096,
      "variants": 2097,
      "721": 2098,
      "venance": 2099,
      "field": 2100,
      "Ġwant": 2101,
      "extend": 2102,
      "Ġ\\\".": 2103,
      "cei": 2104,
      "ough": 2105,
      "Ġoperations": 2106,
      "Ġparamet": 2107,
      "):": 2108,
      "dst": 2109,
      "Ġ%": 2110,
      "entifier": 2111,
      "ĠDebug": 2112,
      "Ġ/*": 2113,
      "ln": 2114,
      "ĠTry": 2115,
      "58": 2116,
      "],\\": 2117,
      "like": 2118,
      "Ġsupport": 2119,
      "ĠCreates": 2120,
      "anges": 2121,
      "msg": 2122,
      "DY": 2123,
      "ian": 2124,
      "Ġraw": 2125,
      "Ġmarker": 2126,
      "Ġstill": 2127,
      "ĠAs": 2128,
      "acket": 2129,
      "iterator": 2130,
      "float": 2131,
      "zeppelin": 2132,
      "vious": 2133,
      "Ġmat": 2134,
      "Ġnever": 2135,
      "openzeppelin": 2136,
      "Acc": 2137,
      "ICS": 2138,
      ")?;\\": 2139,
      "SI": 2140,
      "pop": 2141,
      "SAFETY": 2142,
      "Trans": 2143,
      "rough": 2144,
      "Ġdiv": 2145,
      "Ġ},\\": 2146,
      "ĠBy": 2147,
      "Ġcalling": 2148,
      "Ġpanics": 2149,
      "contracts": 2150,
      "((": 2151,
      "pected": 2152,
      "nounwind": 2153,
      "stack": 2154,
      "static": 2155,
      "Ġavailable": 2156,
      "pee": 2157,
      "<&'": 2158,
      "ĠPartialEq": 2159,
      "has": 2160,
      "{}": 2161,
      "Ġoutput": 2162,
      "Ġdirect": 2163,
      "ĠAoxc": 2164,
      "rain": 2165,
      "imal": 2166,
      "ORY": 2167,
      "BTree": 2168,
      "Ġleast": 2169,
      "round": 2170,
      "ĠMEM": 2171,
      "initial": 2172,
      "NAMICS": 2173,
      "DYNAMICS": 2174,
      "ĠMEMORY": 2175,
      "Step": 2176,
      "]`": 2177,
      "iate": 2178,
      "name": 2179,
      "Into": 2180,
      "ĠSized": 2181,
      "####": 2182,
      "Contract": 2183,
      "Ġmultiple": 2184,
      "ragma": 2185,
      "AR": 2186,
      "Ġclone": 2187,
      "Ġhash": 2188,
      "Copy": 2189,
      "util": 2190,
      "ingle": 2191,
      "track": 2192,
      "fect": 2193,
      "rapping": 2194,
      "Ġ||": 2195,
      "Ġprodu": 2196,
      "Ġperform": 2197,
      "ĠBTreeMap": 2198,
      "sec": 2199,
      "scr": 2200,
      "cept": 2201,
      "ular": 2202,
      "We": 2203,
      "Ġthrough": 2204,
      "Ġlar": 2205,
      "ĠNonNull": 2206,
      ")));\\": 2207,
      "Point": 2208,
      "`](": 2209,
      "Ġcalls": 2210,
      "ced": 2211,
      "anually": 2212,
      "Ġint": 2213,
      "Ġinclu": 2214,
      "length": 2215,
      "ĠDuration": 2216,
      "axed": 2217,
      "Ġsuper": 2218,
      "ĠSolidity": 2219,
      "Ġprop": 2220,
      "Ġwrit": 2221,
      "list": 2222,
      "struction": 2223,
      "Ġconstant": 2224,
      "Ġcontents": 2225,
      "53": 2226,
      "Default": 2227,
      "ison": 2228,
      "Ġ\\\",": 2229,
      "herit": 2230,
      "Ġusage": 2231,
      "ĠĠĠĠĠĠĠĠĠĠĠĠĠĠĠĠĠĠĠĠĠ": 2232,
      "Ġguaranteed": 2233,
      "Pin": 2234,
      "assume": 2235,
      "ding": 2236,
      "Ġfe": 2237,
      "Ġdst": 2238,
      "Ġyour": 2239,
      "Rel": 2240,
      "false": 2241,
      "pin": 2242,
      "ĠError": 2243,
      "Ġlibrary": 2244,
      "Ġevent": 2245,
      "Ġwork": 2246,
      "lapping": 2247,
      "idden": 2248,
      "lag": 2249,
      "tree": 2250,
      "Ġpattern": 2251,
      "icode": 2252,
      "////////////////////////////////////////////////": 2253,
      "Ġprovided": 2254,
      "Borrow": 2255,
      "plicit": 2256,
      "Node": 2257,
      "ĠDefault": 2258,
      "Ġcontains": 2259,
      ">()": 2260,
      "Ġoption": 2261,
      "mute": 2262,
      "Ġ<<": 2263,
      "nonzero": 2264,
      "Ġprintln": 2265,
      "86": 2266,
      "SC": 2267,
      "cul": 2268,
      "foo": 2269,
      "ĠAdd": 2270,
      "ĠDo": 2271,
      "ĠLayout": 2272,
      "Ġequivalent": 2273,
      "peek": 2274,
      "ithm": 2275,
      "Ġexist": 2276,
      "Ġbounds": 2277,
      "oer": 2278,
      "Ġerr": 2279,
      "Ġ})\\": 2280,
      "Ġclosure": 2281,
      "exact": 2282,
      "ormal": 2283,
      "Le": 2284,
      "dition": 2285,
      "saturating": 2286,
      "Ġsecond": 2287,
      "ĠConvert": 2288,
      "Ġsrc": 2289,
      "Ġhow": 2290,
      "////////////": 2291,
      "State": 2292,
      "Ġmight": 2293,
      "Ġvia": 2294,
      "termin": 2295,
      "Ġalready": 2296,
      "formation": 2297,
      "Ġoverride": 2298,
      "76": 2299,
      "reater": 2300,
      "Ġcreated": 2301,
      "Ġarguments": 2302,
      "Ġswap": 2303,
      "Ġever": 2304,
      "ĠCopy": 2305,
      "Ġdetail": 2306,
      "Ġwhe": 2307,
      "ĠUTF": 2308,
      "cursor": 2309,
      "version": 2310,
      "70": 2311,
      "ute": 2312,
      "abs": 2313,
      "44": 2314,
      "med": 2315,
      "intrinsics": 2316,
      "root": 2317,
      "ĠOp": 2318,
      "11111111": 2319,
      "Waker": 2320,
      "gate": 2321,
      "isplay": 2322,
      "Ġaccount": 2323,
      "Ġconsider": 2324,
      "PD": 2325,
      "So": 2326,
      "nan": 2327,
      "the": 2328,
      "stamp": 2329,
      "`][": 2330,
      "andom": 2331,
      "Ġallocator": 2332,
      "ĠVecDeque": 2333,
      "EX": 2334,
      "ability": 2335,
      "Ġchecked": 2336,
      "Ġhel": 2337,
      "hantomData": 2338,
      "23": 2339,
      "finit": 2340,
      "Ġfuture": 2341,
      "aligned": 2342,
      "Ġchange": 2343,
      "Ġabout": 2344,
      "////////////////////////////////////////////////////////////": 2345,
      "ĠComp": 2346,
      "Context": 2347,
      "onent": 2348,
      "Ġ'\\\\": 2349,
      "hel": 2350,
      "Ġunderlying": 2351,
      "uth": 2352,
      "Ġ__": 2353,
      "inned": 2354,
      "Ġsim": 2355,
      "ics": 2356,
      "Ġmethods": 2357,
      "([": 2358,
      "<_": 2359,
      "Call": 2360,
      "Offset": 2361,
      "\\\"),\\": 2362,
      "entry": 2363,
      "Ġmapping": 2364,
      "dicate": 2365,
      "Err": 2366,
      "Ġ16": 2367,
      "NonZero": 2368,
      "Ġcorrect": 2369,
      "azy": 2370,
      "`]\\": 2371,
      "eural": 2372,
      "ĠWhen": 2373,
      "Ġprovide": 2374,
      "ĠControlFlow": 2375,
      "Ġinsert": 2376,
      "EE": 2377,
      "Ġordering": 2378,
      ".,": 2379,
      "vent": 2380,
      "Ġinit": 2381,
      "Ġreg": 2382,
      "condition": 2383,
      "Ġfeature": 2384,
      "(_": 2385,
      "Ġ../../": 2386,
      "42": 2387,
      "ME": 2388,
      "lat": 2389,
      "vance": 2390,
      "ens": 2391,
      "ffff": 2392,
      "Ġvariables": 2393,
      "Ptr": 2394,
      "Ġqu": 2395,
      "Ġsingle": 2396,
      "Ġocc": 2397,
      "Ġcondition": 2398,
      "ecc": 2399,
      "Ġalignment": 2400,
      "PDX": 2401,
      "(&[": 2402,
      "Ġroot": 2403,
      "imes": 2404,
      "Ġprevious": 2405,
      "Identifier": 2406,
      "BI": 2407,
      "Ġnow": 2408,
      "ically": 2409,
      "ĠSPDX": 2410,
      "ĠĠĠĠĠĠĠĠĠĠĠĠĠĠĠĠĠĠĠĠĠĠĠĠĠĠĠ": 2411,
      "strict": 2412,
      "Ġcontracts": 2413,
      "48": 2414,
      "vel": 2415,
      "token": 2416,
      "overlapping": 2417,
      "pon": 2418,
      "store": 2419,
      "Ġpure": 2420,
      "Ġinformation": 2421,
      "forms": 2422,
      "Role": 2423,
      "Ġless": 2424,
      "ĠTo": 2425,
      "100": 2426,
      "License": 2427,
      "date": 2428,
      "Ġsy": 2429,
      "arison": 2430,
      "log": 2431,
      "ĠConverts": 2432,
      "rules": 2433,
      "Ġheap": 2434,
      "Ġexpress": 2435,
      "lashblocks": 2436,
      "LO": 2437,
      "idth": 2438,
      "ĠOn": 2439,
      "ivate": 2440,
      "cy": 2441,
      "parent": 2442,
      "Ġes": 2443,
      "Ġpayload": 2444,
      "Initializ": 2445,
      "NonNull": 2446,
      "kv": 2447,
      "inte": 2448,
      "``\\": 2449,
      "43": 2450,
      "nmod": 2451,
      "uard": 2452,
      "ved": 2453,
      "Ġreturning": 2454,
      "eccak": 2455,
      "down": 2456,
      "mant": 2457,
      "Ġobject": 2458,
      "Once": 2459,
      "ĠPointee": 2460,
      "AC": 2461,
      "ffect": 2462,
      "ets": 2463,
      "contain": 2464,
      "reserve": 2465,
      ">`_": 2466,
      "unks": 2467,
      "Ġcommon": 2468,
      "Ġcould": 2469,
      "ĠOutput": 2470,
      "Ġdefined": 2471,
      "Ġotherwise": 2472,
      "49": 2473,
      "::\\": 2474,
      "Ġ\\\"@": 2475,
      "asher": 2476,
      "Ġyield": 2477,
      "ĠWrapping": 2478,
      "00000000000000000000000000000000": 2479,
      "ĠPartialOrd": 2480,
      "83": 2481,
      "convert": 2482,
      "allocate": 2483,
      "remain": 2484,
      "inning": 2485,
      "Ġwhether": 2486,
      "\\\"),": 2487,
      "Ġsort": 2488,
      "Ġsplit": 2489,
      "Ġ20": 2490,
      "Ġmessage": 2491,
      "sender": 2492,
      "#![": 2493,
      "inked": 2494,
      "Ġintrinsic": 2495,
      "inkedList": 2496,
      "*\\": 2497,
      "Sh": 2498,
      "ĠĠĠĠĠĠ": 2499,
      "Ġexplicit": 2500,
      "Ġ42": 2501,
      "DE": 2502,
      "Ġdon": 2503,
      "10101010": 2504,
      "46": 2505,
      "</": 2506,
      "nA": 2507,
      "ĠIpv": 2508,
      "Ġdeque": 2509,
      "initialized": 2510,
      "Head": 2511,
      "[..": 2512,
      "red": 2513,
      "ĠItem": 2514,
      "Ġoperator": 2515,
      "current": 2516,
      "^^^^^^^^": 2517,
      "BITS": 2518,
      "pace": 2519,
      "take": 2520,
      "Ġmove": 2521,
      "finish": 2522,
      "ook": 2523,
      "Ġspecified": 2524,
      "Ġremainder": 2525,
      "ump": 2526,
      "order": 2527,
      "Ġfold": 2528,
      "ived": 2529,
      "Ġshift": 2530,
      "Ġdoesn": 2531,
      "Ġitems": 2532,
      "utils": 2533,
      "II": 2534,
      "Ġtail": 2535,
      "Ġemit": 2536,
      "Ġdropped": 2537,
      "SCII": 2538,
      "PI": 2539,
      "`,\\": 2540,
      "ĠSaturating": 2541,
      "verse": 2542,
      "Ġhandle": 2543,
      "ident": 2544,
      "Index": 2545,
      "802": 2546,
      "Ġoccur": 2547,
      "Ad": 2548,
      "Ġcl": 2549,
      "Ġnum": 2550,
      "Ġver": 2551,
      "Ġcreate": 2552,
      "Ġdetails": 2553,
      ")]": 2554,
      "89": 2555,
      "Ok": 2556,
      "UR": 2557,
      "ning": 2558,
      "Ġ32": 2559,
      "semb": 2560,
      "ender": 2561,
      "ayable": 2562,
      "Ended": 2563,
      "Searcher": 2564,
      "hidden": 2565,
      "\\\")\\": 2566,
      "Ġisize": 2567,
      "mediate": 2568,
      "AD": 2569,
      "sing": 2570,
      "Ġag": 2571,
      "Ġwithin": 2572,
      "110": 2573,
      "internal": 2574,
      "Ġitself": 2575,
      "math": 2576,
      "Ġhead": 2577,
      "Ġsmall": 2578,
      "Ġcharacter": 2579,
      "SE": 2580,
      "Ġcause": 2581,
      "Ġpair": 2582,
      "oci": 2583,
      "inue": 2584,
      "Ġimport": 2585,
      "Ġguarantee": 2586,
      "Buf": 2587,
      "Relaxed": 2588,
      "(*": 2589,
      "nI": 2590,
      "Ġinvalid": 2591,
      "aries": 2592,
      "bounded": 2593,
      "Ġrepresentation": 2594,
      "Ġ^": 2595,
      "Signer": 2596,
      "PL": 2597,
      "Ġbelow": 2598,
      "ended": 2599,
      "Ġrequired": 2600,
      "Ġword": 2601,
      "ubleEnded": 2602,
      "Duration": 2603,
      "Ġmakes": 2604,
      "ĠSync": 2605,
      "usted": 2606,
      "52": 2607,
      "ali": 2608,
      "iteral": 2609,
      "ĠMaybeUninit": 2610,
      "Ġallows": 2611,
      "variant": 2612,
      "precated": 2613,
      "anuallyDrop": 2614,
      "Header": 2615,
      "Al": 2616,
      "param": 2617,
      "Ġâ": 2618,
      "Ġ11": 2619,
      "Inclusive": 2620,
      "usedIterator": 2621,
      "(..": 2622,
      "evm": 2623,
      "Ġte": 2624,
      "ites": 2625,
      "Ġforward": 2626,
      "Ġdigits": 2627,
      "Ġnegative": 2628,
      "ices": 2629,
      "methods": 2630,
      "integer": 2631,
      "ĠPointeeSized": 2632,
      "sembly": 2633,
      "Ġ(`": 2634,
      "ustom": 2635,
      "valu": 2636,
      "Ġimplements": 2637,
      "GE": 2638,
      "ĠThere": 2639,
      "Ġlife": 2640,
      "Ġoptimiz": 2641,
      "Atomic": 2642,
      "Ġimp": 2643,
      "safeCell": 2644,
      "ows": 2645,
      "ĠYou": 2646,
      "contains": 2647,
      "NAN": 2648,
      "PU": 2649,
      "gers": 2650,
      "`].": 2651,
      "Builder": 2652,
      "Uint": 2653,
      "Ġconsum": 2654,
      "uthor": 2655,
      "alias": 2656,
      "60": 2657,
      "Ġali": 2658,
      "ĠPin": 2659,
      "ĠBasic": 2660,
      "Ġadditional": 2661,
      "aa": 2662,
      "pow": 2663,
      "ĠFold": 2664,
      "Ġexpected": 2665,
      "33": 2666,
      "Ass": 2667,
      "Run": 2668,
      "io": 2669,
      "Ġ});\\": 2670,
      ">(\\": 2671,
      "Ġremaining": 2672,
      "Bytes": 2673,
      "ĠSend": 2674,
      "lied": 2675,
      "ĠBTreeSet": 2676,
      "calar": 2677,
      "Ġagain": 2678,
      "ves": 2679,
      "select": 2680,
      "ceed": 2681,
      "Ġim": 2682,
      "Ġuphold": 2683,
      "primitive": 2684,
      "Ġidx": 2685,
      "].\\": 2686,
      "ĠSpec": 2687,
      "lib": 2688,
      "liz": 2689,
      "Ġguarantees": 2690,
      "btree": 2691,
      "sum": 2692,
      "Ġfin": 2693,
      "Ġdescr": 2694,
      "!(\\\"{": 2695,
      "keys": 2696,
      "Ġmatches": 2697,
      "Ġevery": 2698,
      "Payload": 2699,
      "Ġslot": 2700,
      "!(*": 2701,
      "Ġascii": 2702,
      "ounter": 2703,
      "uppercase": 2704,
      "prev": 2705,
      "zeroed": 2706,
      "Ġbuild": 2707,
      "nonoverlapping": 2708,
      "ĠFIX": 2709,
      "Token": 2710,
      "ily": 2711,
      "Ġspecial": 2712,
      "ĠTh": 2713,
      "Ġhig": 2714,
      "Ġrules": 2715,
      "Ġencod": 2716,
      "ubleEndedIterator": 2717,
      "cimal": 2718,
      "constant": 2719,
      "ĠDe": 2720,
      "Ġimplemented": 2721,
      "Control": 2722,
      "lowercase": 2723,
      "143802": 2724,
      "Admin": 2725,
      "IP": 2726,
      "etic": 2727,
      "nth": 2728,
      "Ġplace": 2729,
      "';\\": 2730,
      "storage": 2731,
      "Ġpas": 2732,
      "ract": 2733,
      "acc": 2734,
      "ĠHow": 2735,
      "Ġcontained": 2736,
      "âĶĢâĶĢâĶĢâĶĢ": 2737,
      "Ġdirectly": 2738,
      "ociated": 2739,
      "bin": 2740,
      "arry": 2741,
      "uring": 2742,
      "Ġonce": 2743,
      "Ġ44": 2744,
      "shr": 2745,
      "Ġround": 2746,
      "Ġ$._": 2747,
      "oerce": 2748,
      "miri": 2749,
      "ilar": 2750,
      "andard": 2751,
      "Ġweak": 2752,
      "expr": 2753,
      "Ġallocated": 2754,
      "Ġbuilder": 2755,
      "quest": 2756,
      "search": 2757,
      "Ġgreater": 2758,
      "Ġlimit": 2759,
      "Ġuser": 2760,
      "Ġenum": 2761,
      "umbers": 2762,
      "og": 2763,
      "run": 2764,
      "Ġma": 2765,
      "Ġthread": 2766,
      "ĠNode": 2767,
      "idual": 2768,
      "Ġrequires": 2769,
      "timestamp": 2770,
      "compare": 2771,
      "itespace": 2772,
      "dif": 2773,
      "future": 2774,
      "ys": 2775,
      "lex": 2776,
      "ĠFoo": 2777,
      "Ġhapp": 2778,
      "abiliz": 2779,
      "Leaf": 2780,
      "Cst": 2781,
      "Val": 2782,
      "ts": 2783,
      "eqCst": 2784,
      "Ġcompile": 2785,
      "Ġimplementations": 2786,
      "Ġtrack": 2787,
      "ecute": 2788,
      "ww": 2789,
      "ĠSe": 2790,
      "lies": 2791,
      "Ġundefined": 2792,
      "quence": 2793,
      "Ġenable": 2794,
      "ĠFIXME": 2795,
      "Ar": 2796,
      "](": 2797,
      "Ġ`[": 2798,
      "Ġwell": 2799,
      "icient": 2800,
      "achable": 2801,
      "ink": 2802,
      "\\\").": 2803,
      "ness": 2804,
      "Ġmodule": 2805,
      "ĠUnique": 2806,
      "Ġplat": 2807,
      "Ġstored": 2808,
      "Core": 2809,
      "Display": 2810,
      "uage": 2811,
      "aystack": 2812,
      "Ġcomparison": 2813,
      "ceiver": 2814,
      "++": 2815,
      "35": 2816,
      "Deref": 2817,
      "ailed": 2818,
      "xd": 2819,
      "Ġcmp": 2820,
      "encode": 2821,
      "Ġmode": 2822,
      "Ġ(\\": 2823,
      "Ġstable": 2824,
      "ĠASCII": 2825,
      "oves": 2826,
      "Ġinside": 2827,
      "ĠIntoIter": 2828,
      "ĠShort": 2829,
      "secs": 2830,
      "22": 2831,
      "88": 2832,
      "},\\": 2833,
      "Ġ##": 2834,
      "lean": 2835,
      "Ġthus": 2836,
      "ĠIAoxc": 2837,
      "Ġresulting": 2838,
      "Ġparts": 2839,
      "boxed": 2840,
      "AX": 2841,
      "xa": 2842,
      "inherit": 2843,
      "Ġtakes": 2844,
      "Ġsigned": 2845,
      "nthe": 2846,
      "Ġpartic": 2847,
      "ĠIntoIterator": 2848,
      "Ġposition": 2849,
      "Ġknow": 2850,
      "Assign": 2851,
      "91": 2852,
      "Ġfloat": 2853,
      "---+": 2854,
      "Ġstabiliz": 2855,
      "ĠPro": 2856,
      "Internal": 2857,
      "Ġsignature": 2858,
      "weak": 2859,
      "common": 2860,
      "nmacro": 2861,
      "ph": 2862,
      "input": 2863,
      "isize": 2864,
      "Ġour": 2865,
      "Ġparent": 2866,
      "Ġuses": 2867,
      "Ġcalldata": 2868,
      "latten": 2869,
      "Mem": 2870,
      "ZST": 2871,
      "binary": 2872,
      "cquire": 2873,
      "mid": 2874,
      "Ġcast": 2875,
      "unsigned": 2876,
      "Ġsi": 2877,
      "Ġslices": 2878,
      "Ġtransfer": 2879,
      "Ġspace": 2880,
      "Ġexactly": 2881,
      "Ġinclude": 2882,
      "Ġpassed": 2883,
      ">;\\": 2884,
      "Hel": 2885,
      "can": 2886,
      "hing": 2887,
      "rst": 2888,
      "Ġ=\\": 2889,
      "teStr": 2890,
      "ĠCall": 2891,
      "ĠDrop": 2892,
      "Ġsuccess": 2893,
      "92": 2894,
      "pAddr": 2895,
      "Ġ)\\": 2896,
      "Ġpragma": 2897,
      "Ġtot": 2898,
      "Ġconversion": 2899,
      "ĠCheck": 2900,
      "Ġdecl": 2901,
      "ĠPhantomData": 2902,
      "Ġchecks": 2903,
      "Ġcases": 2904,
      "Ġlong": 2905,
      "memory": 2906,
      "OffsetRun": 2907,
      "OffsetRunHeader": 2908,
      "66": 2909,
      "Op": 2910,
      "UP": 2911,
      "116909": 2912,
      "Ġ$(": 2913,
      "Ġprivate": 2914,
      "should": 2915,
      "Ġaligned": 2916,
      "Ġassociated": 2917,
      "cor": 2918,
      "ather": 2919,
      "amic": 2920,
      "FIN": 2921,
      "Safe": 2922,
      "lear": 2923,
      "Ġnumbers": 2924,
      "Ġevalu": 2925,
      "Ġnothing": 2926,
      "Ġinterface": 2927,
      "hello": 2928,
      "Ġparticular": 2929,
      "bra": 2930,
      "cing": 2931,
      "oned": 2932,
      "ĠĠĠĠĠĠĠĠĠĠĠĠĠ": 2933,
      "ending": 2934,
      "builder": 2935,
      "Ġpredicate": 2936,
      "respon": 2937,
      "Ġallowed": 2938,
      "998": 2939,
      "Ġtotal": 2940,
      "31": 2941,
      "euc": 2942,
      "pc": 2943,
      "Ġpacket": 2944,
      "Ġdyn": 2945,
      "ĠRef": 2946,
      "opied": 2947,
      "ĠBorrow": 2948,
      "ĠDoubleEndedIterator": 2949,
      "ĠHowever": 2950,
      "21": 2951,
      "Own": 2952,
      "ZE": 2953,
      "ie": 2954,
      "lt": 2955,
      "make": 2956,
      "pattern": 2957,
      "Ġform": 2958,
      "ĠIP": 2959,
      "temp": 2960,
      "Ġassembly": 2961,
      "Ġwhat": 2962,
      "ired": 2963,
      "\\\")]": 2964,
      "IS": 2965,
      "IERC": 2966,
      "NE": 2967,
      "eip": 2968,
      "eps": 2969,
      "Ġ()": 2970,
      "Ġ--": 2971,
      "Ġdetermin": 2972,
      "1155": 2973,
      "ffix": 2974,
      "ĠĠĠĠĠĠĠĠĠĠĠĠĠĠĠĠĠĠĠĠĠĠĠĠĠĠĠĠĠĠĠĠ": 2975,
      "Ġbuilt": 2976,
      "Ġexponent": 2977,
      "Ġintegers": 2978,
      "ĠWeak": 2979,
      "Ġ...": 2980,
      ")``": 2981,
      "57": 2982,
      ">`.\\": 2983,
      "hip": 2984,
      "Ġfive": 2985,
      "Ġunsigned": 2986,
      "ership": 2987,
      "fficient": 2988,
      "VecDeque": 2989,
      "bounds": 2990,
      "Ġstabilized": 2991,
      "AP": 2992,
      "ROLE": 2993,
      "xc": 2994,
      "xe": 2995,
      "}`": 2996,
      "Ġowner": 2997,
      "ĠABI": 2998,
      "ters": 2999,
      "ĠPoll": 3000,
      "ixed": 3001,
      ")*": 3002,
      "Neural": 3003,
      "big": 3004,
      "kn": 3005,
      "ob": 3006,
      "til": 3007,
      "Ġ13": 3008,
      "Ġ100": 3009,
      "allback": 3010,
      "provenance": 3011,
      "Ġparameter": 3012,
      "FINITY": 3013,
      "'re": 3014,
      "function": 3015,
      "vents": 3016,
      "Ġconstructor": 3017,
      "tex": 3018,
      "Ġhand": 3019,
      "ĠAny": 3020,
      "ĠShortOffsetRunHeader": 3021,
      "Align": 3022,
      "ser": 3023,
      "waker": 3024,
      "}\\\",": 3025,
      "lete": 3026,
      "heap": 3027,
      "peat": 3028,
      "Ġunless": 3029,
      "ntax": 3030,
      "ĠUse": 3031,
      "raph": 3032,
      "ager": 3033,
      "digits": 3034,
      "net": 3035,
      "gebra": 3036,
      "Ġext": 3037,
      "ĠAll": 3038,
      ")).": 3039,
      "51": 3040,
      "Partial": 3041,
      "Random": 3042,
      "five": 3043,
      "Ġlead": 3044,
      "Ġsepar": 3045,
      "Ġspecific": 3046,
      "Ġcurrently": 3047,
      "Ġdescrib": 3048,
      "da": 3049,
      "xb": 3050,
      "loy": 3051,
      "Ġinvariants": 3052,
      "ĠLe": 3053,
      "gebraic": 3054,
      "Man": 3055,
      "__": 3056,
      "ber": 3057,
      "some": 3058,
      "ursor": 3059,
      "ĠCow": 3060,
      "qual": 3061,
      "resses": 3062,
      "ificant": 3063,
      "Ġlifetime": 3064,
      "27": 3065,
      "Ġaround": 3066,
      "()).": 3067,
      "equ": 3068,
      "ĠBu": 3069,
      "source": 3070,
      "Ġlarge": 3071,
      "Is": 3072,
      "Loc": 3073,
      "entr": 3074,
      "Ġbreak": 3075,
      "Ġanother": 3076,
      "ilter": 3077,
      "ĠEq": 3078,
      "anged": 3079,
      "Ġlocation": 3080,
      "OT": 3081,
      "element": 3082,
      "Ġops": 3083,
      "Ġmany": 3084,
      "urro": 3085,
      "Ġ(&": 3086,
      "Ġuseful": 3087,
      "Ġresults": 3088,
      "Hello": 3089,
      "deque": 3090,
      "otal": 3091,
      "Ġpoints": 3092,
      "INFINITY": 3093,
      "Ġcorrespon": 3094,
      "known": 3095,
      "With": 3096,
      "table": 3097,
      "Ġload": 3098,
      "Ġpower": 3099,
      "fet": 3100,
      "slices": 3101,
      "Ġentry": 3102,
      "Ġrequirements": 3103,
      "14377": 3104,
      "EXP": 3105,
      "82": 3106,
      "CO": 3107,
      "tmax": 3108,
      "arg": 3109,
      "trace": 3110,
      "ĠSince": 3111,
      "change": 3112,
      "Ġuninitialized": 3113,
      "ĠRem": 3114,
      "ulti": 3115,
      "Ġprefix": 3116,
      "minStack": 3117,
      "110998": 3118,
      "!\\": 3119,
      "As": 3120,
      "gen": 3121,
      "Ġ>>": 3122,
      "Ġmetadata": 3123,
      "arse": 3124,
      "ĠPre": 3125,
      "ĠGlobal": 3126,
      "Ġtester": 3127,
      "Ġwrapping": 3128,
      "constantGas": 3129,
      "SA": 3130,
      "var": 3131,
      "Ġmain": 3132,
      "Ġinv": 3133,
      "Ġrefer": 3134,
      "328": 3135,
      "built": 3136,
      "Ġselect": 3137,
      "ibutes": 3138,
      "ĠGPL": 3139,
      "lags": 3140,
      "dis": 3141,
      "sup": 3142,
      "tminStack": 3143,
      "Ġcolle": 3144,
      "Ġincre": 3145,
      "ably": 3146,
      "Ġthose": 3147,
      "Ġstrong": 3148,
      "Ġrather": 3149,
      "ially": 3150,
      "npin": 3151,
      "RefCell": 3152,
      "remove": 3153,
      "SIZE": 3154,
      "PUSH": 3155,
      "texecute": 3156,
      "tmaxStack": 3157,
      "AY": 3158,
      "Try": 3159,
      "Ġedge": 3160,
      "Ġpath": 3161,
      "args": 3162,
      "Ġ&*": 3163,
      "reshold": 3164,
      "Ġremoved": 3165,
      "transmute": 3166,
      "more": 3167,
      "mall": 3168,
      "Ġeffect": 3169,
      "));\\\")]\\": 3170,
      "ĠComputes": 3171,
      "('": 3172,
      "rot": 3173,
      "tle": 3174,
      "Ġbinary": 3175,
      "trusted": 3176,
      "never": 3177,
      "ĠDeref": 3178,
      "Unique": 3179,
      "Ġenough": 3180,
      "Ġarrays": 3181,
      "Bounds": 3182,
      "IntoIter": 3183,
      "structionSet": 3184,
      "RandomAccess": 3185,
      "37": 3186,
      "85": 3187,
      ":?": 3188,
      "He": 3189,
      "IG": 3190,
      "SeqCst": 3191,
      "reference": 3192,
      "update": 3193,
      "Ġknown": 3194,
      "BTreeMap": 3195,
      "tinue": 3196,
      "Ġaut": 3197,
      "Ġ`-": 3198,
      "Ġport": 3199,
      "Ġpayable": 3200,
      "Ġreplace": 3201,
      "ĠSplit": 3202,
      "Ġder": 3203,
      "ĠFusedIterator": 3204,
      "Ġdepend": 3205,
      "Ġlang": 3206,
      "Ġindexed": 3207,
      "Ġguard": 3208,
      "ĠFnOnce": 3209,
      "cketAddr": 3210,
      "Res": 3211,
      "actions": 3212,
      "partial": 3213,
      "ĠImplement": 3214,
      "Ġunique": 3215,
      "verflow": 3216,
      "Ġsequence": 3217,
      "ĠWtf": 3218,
      "Ġexecution": 3219,
      "Del": 3220,
      "[`": 3221,
      "tuple": 3222,
      "width": 3223,
      "\\\"));\\": 3224,
      "Ġmid": 3225,
      "ĠAtomic": 3226,
      "Ġrot": 3227,
      "Ġchain": 3228,
      "Ġchanges": 3229,
      "ages": 3230,
      "Ġstarting": 3231,
      "Ġassign": 3232,
      "Lo": 3233,
      "side": 3234,
      "scape": 3235,
      "xx": 3236,
      "Ġtake": 3237,
      "Ġfront": 3238,
      "ĠEn": 3239,
      "oper": 3240,
      "Config": 3241,
      "Ġident": 3242,
      "overflowing": 3243,
      "Weak": 3244,
      "DB": 3245,
      "Fn": 3246,
      "gr": 3247,
      "Ġtx": 3248,
      "Ġbox": 3249,
      "Ġstatic": 3250,
      "link": 3251,
      "Ġhold": 3252,
      "Ġshared": 3253,
      "numer": 3254,
      "Ġcharacters": 3255,
      "ithmetic": 3256,
      "32838": 3257,
      "47": 3258,
      "ude": 3259,
      "Ġ[]": 3260,
      "ĠAr": 3261,
      "ĠMiri": 3262,
      "thing": 3263,
      "Ġupper": 3264,
      "Ġinstance": 3265,
      "implement": 3266,
      "xf": 3267,
      "Ġ64": 3268,
      "Ġke": 3269,
      "reachable": 3270,
      "Ġduring": 3271,
      "Ġnecess": 3272,
      "aking": 3273,
      "optim": 3274,
      "Ġfailure": 3275,
      "aving": 3276,
      "osed": 3277,
      "Ġent": 3278,
      "ite": 3279,
      "Ġctx": 3280,
      "Ġtoo": 3281,
      "Ġ(*": 3282,
      "Ġchunk": 3283,
      "UnsafeCell": 3284,
      "euclid": 3285,
      "Delay": 3286,
      "81": 3287,
      "stract": 3288,
      "Ġflo": 3289,
      "Ġcell": 3290,
      "Ġ`{": 3291,
      "nThis": 3292,
      "Transfer": 3293,
      "Ġsimilar": 3294,
      "remainder": 3295,
      "45": 3296,
      "UN": 3297,
      "nIn": 3298,
      "then": 3299,
      "Ġinfo": 3300,
      "mutable": 3301,
      "ĠAccess": 3302,
      "Ġsemant": 3303,
      "osal": 3304,
      "owned": 3305,
      "Ġcalcul": 3306,
      "Ġpositive": 3307,
      "Ġsyntax": 3308,
      "Heap": 3309,
      "96": 3310,
      "Of": 3311,
      "repr": 3312,
      "Ġrequest": 3313,
      "Ġ-=": 3314,
      "limit": 3315,
      "ĠAPI": 3316,
      "ĠRaw": 3317,
      "Ġyet": 3318,
      "Ġtransaction": 3319,
      "Ġacces": 3320,
      "BTreeSet": 3321,
      "Ġproduce": 3322,
      "bar": 3323,
      "Ġlower": 3324,
      "Ġfree": 3325,
      "Ġpass": 3326,
      "ick": 3327,
      "inaryHeap": 3328,
      "Ġlocal": 3329,
      "Ġexpression": 3330,
      "ĠIPv": 3331,
      "Coerce": 3332,
      "Read": 3333,
      "cision": 3334,
      "xD": 3335,
      "erge": 3336,
      "isk": 3337,
      "escape": 3338,
      "Store": 3339,
      "Ġremove": 3340,
      "option": 3341,
      "Alloc": 3342,
      "Owner": 3343,
      "number": 3344,
      "Ġdown": 3345,
      "strong": 3346,
      "ecause": 3347,
      "owner": 3348,
      "Ġpointing": 3349,
      "Ġneeds": 3350,
      "Ġactually": 3351,
      "Ġparameters": 3352,
      "Tra": 3353,
      "rfold": 3354,
      "replace": 3355,
      "level": 3356,
      "unded": 3357,
      "ĠType": 3358,
      "adding": 3359,
      "ĠHandle": 3360,
      "ALL": 3361,
      "urrogate": 3362,
      "fetch": 3363,
      "<(),": 3364,
      "elem": 3365,
      "ðŁ": 3366,
      "Ġwere": 3367,
      "icit": 3368,
      "ĠĠĠĠĠĠĠĠĠĠ": 3369,
      "ĠEVM": 3370,
      "checks": 3371,
      "ĠLinkedList": 3372,
      "internals": 3373,
      ")),": 3374,
      "UL": 3375,
      "istr": 3376,
      "tconstantGas": 3377,
      "Ġ\\": 3378,
      "Ġtree": 3379,
      "Ġwar": 3380,
      "ross": 3381,
      "1234": 3382,
      "structs": 3383,
      "*/\\": 3384,
      "67": 3385,
      "PO": 3386,
      "PER": 3387,
      "cd": 3388,
      "cu": 3389,
      "total": 3390,
      "uch": 3391,
      "Ġside": 3392,
      "urther": 3393,
      "actSize": 3394,
      "else": 3395,
      "ĠThese": 3396,
      "ached": 3397,
      "Invalid": 3398,
      "matches": 3399,
      "ĠTrustedLen": 3400,
      "actSizeIterator": 3401,
      "HA": 3402,
      "Ġref": 3403,
      "Ġdefinit": 3404,
      "Ġprim": 3405,
      "chedule": 3406,
      "qr": 3407,
      "ished": 3408,
      "Ġ`*": 3409,
      "ives": 3410,
      "Ġcompare": 3411,
      "prefix": 3412,
      "Ġerrors": 3413,
      "Future": 3414,
      "do": 3415,
      "go": 3416,
      "move": 3417,
      "pose": 3418,
      "Ġtuple": 3419,
      "Ġsc": 3420,
      "Ġbalance": 3421,
      "Ġindic": 3422,
      "Ġrece": 3423,
      "Ġcontext": 3424,
      "Ġsen": 3425,
      "Ġallocate": 3426,
      "compile": 3427,
      "Ġexplicitly": 3428,
      "dated": 3429,
      "Ġter": 3430,
      "Ġinline": 3431,
      "ĠNot": 3432,
      "------------": 3433,
      "Ġsection": 3434,
      "match": 3435,
      "ibility": 3436,
      "ĠGas": 3437,
      "compiled": 3438,
      "ĠTrustedRandomAccess": 3439,
      "Ġplatforms": 3440,
      "!`": 3441,
      "fb": 3442,
      "ply": 3443,
      "ĠStep": 3444,
      "...": 3445,
      "ively": 3446,
      "ivot": 3447,
      "Ġproper": 3448,
      "AND": 3449,
      "Ġarithmetic": 3450,
      "ĠmaxStack": 3451,
      "Ġparams": 3452,
      "Ġalias": 3453,
      "_,": 3454,
      "digit": 3455,
      "ittle": 3456,
      "Ġbig": 3457,
      "Ġ//////////////////////////////////////////////////////////////": 3458,
      "access": 3459,
      "Included": 3460,
      "ĠHash": 3461,
      "****************": 3462,
      "Ġ/*////////////////////////////////////////////////////////////": 3463,
      "nIf": 3464,
      "Ġ//////////////////////////////////////////////////////////////*/\\": 3465,
      "Ġ/*//////////////////////////////////////////////////////////////\\": 3466,
      "25": 3467,
      "Check": 3468,
      "Hasher": 3469,
      "ior": 3470,
      "my": 3471,
      "Ġline": 3472,
      "leaf": 3473,
      "Ġcare": 3474,
      "Ġpartial": 3475,
      "ĠSlice": 3476,
      "async": 3477,
      "Ġdue": 3478,
      "outine": 3479,
      "extract": 3480,
      "Ġ50": 3481,
      "Errors": 3482,
      "guments": 3483,
      "ĠminStack": 3484,
      "No": 3485,
      "cent": 3486,
      "duration": 3487,
      "Ġq": 3488,
      "Ġtimes": 3489,
      "Ġstep": 3490,
      "Ġdest": 3491,
      "plac": 3492,
      "acy": 3493,
      "ĠUsing": 3494,
      "ĠĠĠĠĠĠĠĠĠĠĠĠĠĠĠĠĠ": 3495,
      "Ġendian": 3496,
      "cover": 3497,
      "Ġgeneral": 3498,
      "Ġfields": 3499,
      "BorrowType": 3500,
      "Ġentire": 3501,
      "Acquire": 3502,
      "Pr": 3503,
      "fc": 3504,
      "nconst": 3505,
      "Ġsom": 3506,
      "Ġinvariant": 3507,
      "ĠBit": 3508,
      "Ġprob": 3509,
      "Exp": 3510,
      "01": 3511,
      "])\\": 3512,
      "Ġ`.": 3513,
      "Ġleaf": 3514,
      "ĠEther": 3515,
      "local": 3516,
      "Const": 3517,
      "angling": 3518,
      "ĠGener": 3519,
      "Ġbased": 3520,
      "Ġborrowed": 3521,
      "63": 3522,
      "Target": 3523,
      "ier": 3524,
      "nand": 3525,
      "Ġz": 3526,
      "Ġcost": 3527,
      "Ġind": 3528,
      "ĠOther": 3529,
      "usable": 3530,
      "Ġplus": 3531,
      "Initializable": 3532,
      ")`.\\": 3533,
      "Metadata": 3534,
      "\\\"))": 3535,
      "Ġfind": 3536,
      "Ġfoo": 3537,
      "Ġcounter": 3538,
      "anch": 3539,
      "ateg": 3540,
      "nel": 3541,
      "deref": 3542,
      "ody": 3543,
      "Ġprecision": 3544,
      "tester": 3545,
      "Ġownership": 3546,
      "Ġensures": 3547,
      "Ġlarger": 3548,
      "URI": 3549,
      "02": 3550,
      "loss": 3551,
      "Ġ([]": 3552,
      "Ġstandard": 3553,
      "xtend": 3554,
      "values": 3555,
      "Ġopcode": 3556,
      "parse": 3557,
      "Manager": 3558,
      "ED": 3559,
      "wor": 3560,
      "Ġfound": 3561,
      "trim": 3562,
      "ĠIERC": 3563,
      "ĠMAX": 3564,
      "mitted": 3565,
      "Ġmaximum": 3566,
      "Ġtokens": 3567,
      "inheritdoc": 3568,
      "65": 3569,
      "]));\\": 3570,
      "();": 3571,
      "Ġrel": 3572,
      "Ġasync": 3573,
      "notice": 3574,
      "AccessControl": 3575,
      "sorted": 3576,
      "Ġconsidered": 3577,
      "143773": 3578,
      "(\\\",": 3579,
      "normal": 3580,
      "oin": 3581,
      "Ġfull": 3582,
      "abel": 3583,
      "Ġleak": 3584,
      "ĠRequ": 3585,
      "ĠBound": 3586,
      "Ġprevent": 3587,
      "Ġmean": 3588,
      "Ġpropert": 3589,
      "Ġwords": 3590,
      "qrt": 3591,
      "Scope": 3592,
      "find": 3593,
      "uous": 3594,
      "Ġ`#[": 3595,
      "Ġ30": 3596,
      "Excluded": 3597,
      "cursors": 3598,
      "Ġencoding": 3599,
      "Owned": 3600,
      "way": 3601,
      "unique": 3602,
      "Ġbr": 3603,
      "()),\\": 3604,
      "role": 3605,
      "advance": 3606,
      "Ġmutate": 3607,
      "build": 3608,
      "Ġsignificant": 3609,
      "Ġaccum": 3610,
      "Ġhelps": 3611,
      "ĠDestruct": 3612,
      "=\\": 3613,
      "`:\\": 3614,
      "gacy": 3615,
      "two": 3616,
      "Ġpinned": 3617,
      "Ġvis": 3618,
      "herent": 3619,
      "Ġgap": 3620,
      "Ġsend": 3621,
      "Ġiteration": 3622,
      "solidity": 3623,
      "Ġwritten": 3624,
      "nanos": 3625,
      "aled": 3626,
      "bl": 3627,
      "ture": 3628,
      "Ġsure": 3629,
      "Ġmant": 3630,
      "mpor": 3631,
      "Ġdigit": 3632,
      "ĠIncluded": 3633,
      "shl": 3634,
      "7913": 3635,
      "NodeRef": 3636,
      "Ġhigh": 3637,
      ")|": 3638,
      ")),\\": 3639,
      "bstr": 3640,
      "Ġcarry": 3641,
      "algebraic": 3642,
      "enum": 3643,
      "arily": 3644,
      "Ġ$($": 3645,
      "Ġimplicit": 3646,
      "Ġiterators": 3647,
      "Ġminimum": 3648,
      "Ġactual": 3649,
      "########": 3650,
      "Ġconsumed": 3651,
      "Guard": 3652,
      "Wh": 3653,
      "iod": 3654,
      "king": 3655,
      "atis": 3656,
      "edia": 3657,
      "ĠIEE": 3658,
      "Ġextra": 3659,
      "ĠPer": 3660,
      "exchange": 3661,
      "Ġkeccak": 3662,
      "Ġcontaining": 3663,
      "prox": 3664,
      "Ġruntime": 3665,
      "ceipt": 3666,
      "difference": 3667,
      "atisf": 3668,
      "(())\\": 3669,
      "AB": 3670,
      "Function": 3671,
      "Split": 3672,
      "`)": 3673,
      "word": 3674,
      "Ġfallback": 3675,
      "Ġscr": 3676,
      "Ġpinning": 3677,
      "Ġmoved": 3678,
      "deprecated": 3679,
      "negative": 3680,
      "pers": 3681,
      "ĠExactSizeIterator": 3682,
      "ĠManuallyDrop": 3683,
      "expect": 3684,
      "kipedia": 3685,
      "Ġdivision": 3686,
      "ĠNodeRef": 3687,
      "correct": 3688,
      "ĠIEEE": 3689,
      "`'": 3690,
      "awn": 3691,
      "db": 3692,
      "drain": 3693,
      "ey": 3694,
      "fused": 3695,
      "gener": 3696,
      "Ġfast": 3697,
      "allib": 3698,
      "omatic": 3699,
      "Ġdist": 3700,
      "adix": 3701,
      "Ġ15": 3702,
      "Ġunchecked": 3703,
      "chars": 3704,
      "Foo": 3705,
      "tt": 3706,
      "}'": 3707,
      "Ġtop": 3708,
      "config": 3709,
      "account": 3710,
      "Ġchild": 3711,
      "Ġneeded": 3712,
      "print": 3713,
      "bitr": 3714,
      "07": 3715,
      "Bool": 3716,
      "VE": 3717,
      "cer": 3718,
      "Ġunwind": 3719,
      "Ġhaystack": 3720,
      "Ġstrict": 3721,
      "Ġrespect": 3722,
      "Ġcomput": 3723,
      "(||": 3724,
      "oving": 3725,
      "interface": 3726,
      "Ġwrapped": 3727,
      "ĠOpCode": 3728,
      "Ġextend": 3729,
      "Ġwarning": 3730,
      "Note": 3731,
      "Sup": 3732,
      "âĢ": 3733,
      "ors": 3734,
      "Ġmark": 3735,
      "Ġisn": 3736,
      "Ġuntil": 3737,
      "forget": 3738,
      "eek": 3739,
      "Ġlook": 3740,
      "000000000000000000000000": 3741,
      "Ġrole": 3742,
      "wikipedia": 3743,
      "381": 3744,
      "wards": 3745,
      "ĠtokenId": 3746,
      "ĠChar": 3747,
      "DefaultAdmin": 3748,
      ")>": 3749,
      "93": 3750,
      "Sync": 3751,
      "flashblocks": 3752,
      "ĠâĶ": 3753,
      "Ġtag": 3754,
      "rev": 3755,
      "Ġrest": 3756,
      "Ġreth": 3757,
      "Ġrelease": 3758,
      "abc": 3759,
      "illed": 3760,
      "ĠEIP": 3761,
      "Ġadded": 3762,
      "-+\\": 3763,
      "StateDB": 3764,
      "61": 3765,
      "Cow": 3766,
      "CString": 3767,
      "js": 3768,
      "Ġtask": 3769,
      "Ġfact": 3770,
      "Ġnormal": 3771,
      "Ġeq": 3772,
      "Ġthing": 3773,
      "ully": 3774,
      "neg": 3775,
      "Ġdecimal": 3776,
      "plus": 3777,
      "ĠMy": 3778,
      "Ġstrings": 3779,
      "ĠConstructs": 3780,
      "gram": 3781,
      "Ġexamples": 3782,
      "Ġbacktrace": 3783,
      "braries": 3784,
      "Ġ($($": 3785,
      "finite": 3786,
      "(_)": 3787,
      "03": 3788,
      "Block": 3789,
      "ait": 3790,
      "gin": 3791,
      "lay": 3792,
      "Ġ80": 3793,
      "atible": 3794,
      "unwind": 3795,
      "Ġsum": 3796,
      "``:": 3797,
      "Ġdere": 3798,
      "acked": 3799,
      "Continue": 3800,
      "Ġtraits": 3801,
      "boundary": 3802,
      "Ġbetter": 3803,
      "<_>>": 3804,
      ">`]": 3805,
      "AGE": 3806,
      "Break": 3807,
      "Balance": 3808,
      "DIG": 3809,
      "Test": 3810,
      "off": 3811,
      "Ġskip": 3812,
      "dec": 3813,
      "uler": 3814,
      "iterals": 3815,
      "ĠSource": 3816,
      "Shl": 3817,
      "Ġoptimizer": 3818,
      "ograph": 3819,
      "ScopeContext": 3820,
      "allible": 3821,
      "41": 3822,
      ">:": 3823,
      "IAoxc": 3824,
      "ception": 3825,
      "Ġman": 3826,
      "()?": 3827,
      "child": 3828,
      "1438": 3829,
      "Ġvariant": 3830,
      "windSafe": 3831,
      "Ġassum": 3832,
      "Ġvery": 3833,
      "Ġproperly": 3834,
      "System": 3835,
      "ki": 3836,
      "once": 3837,
      "Ġfra": 3838,
      "alf": 3839,
      "Ġign": 3840,
      "ublic": 3841,
      "Ġaddr": 3842,
      "------------------------": 3843,
      "PartialEq": 3844,
      "Impl": 3845,
      "Rules": 3846,
      "Raw": 3847,
      "lace": 3848,
      "poll": 3849,
      "ones": 3850,
      "Ġfully": 3851,
      "Ġsatisf": 3852,
      "()`]": 3853,
      "Ġ[\\\"": 3854,
      "tevm": 3855,
      "ĠUB": 3856,
      "Ġlazy": 3857,
      "upper": 3858,
      "Ġ66": 3859,
      "comm": 3860,
      "Ġowned": 3861,
      "which": 3862,
      "Ġincluding": 3863,
      "---+--------------------------------": 3864,
      "Ġfloating": 3865,
      "Spec": 3866,
      "Unpin": 3867,
      "balance": 3868,
      "gor": 3869,
      "onger": 3870,
      "Ġcfg": 3871,
      "alcul": 3872,
      "Ġnam": 3873,
      "Ġ['": 3874,
      "Ġdone": 3875,
      "Ġ40": 3876,
      "forward": 3877,
      "ĠHasher": 3878,
      "wiki": 3879,
      "transfer": 3880,
      "Ġadvance": 3881,
      "Memory": 3882,
      "Ġlanguage": 3883,
      "Constants": 3884,
      "Dyn": 3885,
      "Events": 3886,
      "IR": 3887,
      "Time": 3888,
      "cb": 3889,
      "each": 3890,
      "Ġ\\\"`": 3891,
      "ĠTrans": 3892,
      "otes": 3893,
      "aken": 3894,
      "ĠMIN": 3895,
      "plication": 3896,
      "Ġviol": 3897,
      "Dec": 3898,
      "nb": 3899,
      "oct": 3900,
      "Ġpat": 3901,
      "Ġcontrol": 3902,
      "Ġconfig": 3903,
      "iling": 3904,
      "ĠBe": 3905,
      "Ġaddresses": 3906,
      "allocation": 3907,
      "view": 3908,
      "Ġabs": 3909,
      "specified": 3910,
      "whitespace": 3911,
      ">);\\": 3912,
      "Kind": 3913,
      "section": 3914,
      "Ġsound": 3915,
      "()));\\": 3916,
      "trunc": 3917,
      "Ġconstruct": 3918,
      "ĠDec": 3919,
      "Ġlater": 3920,
      "Ġliteral": 3921,
      ">>,\\": 3922,
      "Ġuppercase": 3923,
      "Ġtests": 3924,
      "Ġkeys": 3925,
      "appa": 3926,
      "Ġsimp": 3927,
      "DIGITS": 3928,
      "73": 3929,
      ">`,": 3930,
      "ipt": 3931,
      "}\\\");\\": 3932,
      "Ġturn": 3933,
      "legate": 3934,
      "Ġfour": 3935,
      "Ġms": 3936,
      "ased": 3937,
      "tracts": 3938,
      "12381": 3939,
      "104": 3940,
      "Ġsearch": 3941,
      "Ġprocess": 3942,
      "ĠonlyInitializ": 3943,
      "Ġstructure": 3944,
      "Ġargs": 3945,
      "cheduler": 3946,
      "Transaction": 3947,
      "Ġexists": 3948,
      "<_>": 3949,
      "Ġprovides": 3950,
      "Ġsemantics": 3951,
      "Ready": 3952,
      "ĠonlyInitializing": 3953,
      "SON": 3954,
      "kappa": 3955,
      "since": 3956,
      "Ġret": 3957,
      "Ġnull": 3958,
      "Ġunit": 3959,
      "metr": 3960,
      "Ġexcept": 3961,
      "ĠPr": 3962,
      "ĠPattern": 3963,
      "caped": 3964,
      "Ġarbitr": 3965,
      "Chunks": 3966,
      "Ġsorted": 3967,
      "Ġsmaller": 3968,
      "Fast": 3969,
      "nFor": 3970,
      "rchunks": 3971,
      "sc": 3972,
      "ĠVal": 3973,
      "Ġoverlap": 3974,
      "Ġmulti": 3975,
      "spawn": 3976,
      "sens": 3977,
      "ĠState": 3978,
      "Ġconditions": 3979,
      "Ġnecessary": 3980,
      "placed": 3981,
      "Ġscratch": 3982,
      "Ġbacktraces": 3983,
      "04": 3984,
      "FC": 3985,
      "ManuallyDrop": 3986,
      "Th": 3987,
      "fail": 3988,
      "most": 3989,
      "step": 3990,
      "atile": 3991,
      "hes": 3992,
      "eta": 3993,
      "-----+": 3994,
      "Ġdefin": 3995,
      "ivial": 3996,
      "typ": 3997,
      "Ġshr": 3998,
      "Ġshort": 3999,
      "ibute": 4000,
      "partition": 4001,
      "buffer": 4002,
      "][..": 4003,
      "Packet": 4004,
      "Ġlow": 4005,
      "ĠCalcul": 4006,
      "ĠNOT": 4007,
      "iding": 4008,
      "Ġdeprecated": 4009,
      "illis": 4010,
      "ething": 4011,
      "Ġimplementing": 4012,
      "Ġprovenance": 4013,
      "minus": 4014,
      "Ġmodifier": 4015,
      "shift": 4016,
      "traits": 4017,
      "Release": 4018,
      "Ġthreads": 4019,
      ")+": 4020,
      "-\\": 4021,
      "WAP": 4022,
      "millis": 4023,
      "lead": 4024,
      "Ġflashblock": 4025,
      "Ġpadding": 4026,
      "()`.\\": 4027,
      "Ġelem": 4028,
      "Ġthough": 4029,
      "olatile": 4030,
      "Ġunlike": 4031,
      "Ġdouble": 4032,
      "Unsigned": 4033,
      "allocated": 4034,
      "1349": 4035,
      "Ġoutside": 4036,
      "ORT": 4037,
      "================================": 4038,
      "Ġinputs": 4039,
      "Ġsmart": 4040,
      "Ġaccept": 4041,
      "Ġintended": 4042,
      "Supply": 4043,
      "71": 4044,
      ">[": 4045,
      "RU": 4046,
      "draw": 4047,
      "sider": 4048,
      "slot": 4049,
      "ĠX": 4050,
      "hest": 4051,
      "Ġmask": 4052,
      "abort": 4053,
      "Ġ(``": 4054,
      "Ġdestructor": 4055,
      "imin": 4056,
      "118": 4057,
      "Ġ419": 4058,
      "zeros": 4059,
      "Ġsigner": 4060,
      "Ġboundary": 4061,
      "mbol": 4062,
      "ĠByteStr": 4063,
      "Ġbranch": 4064,
      "Ġmsg": 4065,
      "05": 4066,
      "And": 4067,
      "CE": 4068,
      "Layout": 4069,
      "OP": 4070,
      "file": 4071,
      "zip": 4072,
      "invalid": 4073,
      "ism": 4074,
      "Ġben": 4075,
      "lient": 4076,
      "Ġ},": 4077,
      "165": 4078,
      "ĠMap": 4079,
      "ControlFlow": 4080,
      "Ġanything": 4081,
      "Idx": 4082,
      "ecution": 4083,
      "crimin": 4084,
      "Ġdifference": 4085,
      "downcast": 4086,
      "Ġhappens": 4087,
      "www": 4088,
      "Ġderived": 4089,
      "'),": 4090,
      "CStr": 4091,
      "LinkedList": 4092,
      "Panic": 4093,
      "ca": 4094,
      "cip": 4095,
      "mits": 4096,
      "path": 4097,
      "ware": 4098,
      "ĦâĶ": 4099,
      "inf": 4100,
      "()),": 4101,
      "Ġ(**": 4102,
      "Ġ113": 4103,
      "teString": 4104,
      "Ġupdated": 4105,
      "versions": 4106,
      "Ġfinal": 4107,
      "rotate": 4108,
      "Ġautomatic": 4109,
      "Lock": 4110,
      "ĠGasFast": 4111,
      "Ġmeaning": 4112,
      "types": 4113,
      "134915": 4114,
      "09": 4115,
      "Ap": 4116,
      "even": 4117,
      "joint": 4118,
      "keccak": 4119,
      "send": 4120,
      "Ġrecomm": 4121,
      "Ġlevel": 4122,
      "ĠSign": 4123,
      "!(&": 4124,
      "cont": 4125,
      "rray": 4126,
      "cloned": 4127,
      "force": 4128,
      "InstructionSet": 4129,
      "upgrade": 4130,
      "upied": 4131,
      "<'_>": 4132,
      "aged": 4133,
      "Ġkind": 4134,
      "Entry": 4135,
      "Ġcorresponding": 4136,
      "((&": 4137,
      "Place": 4138,
      "Sender": 4139,
      "bb": 4140,
      "ience": 4141,
      "thereum": 4142,
      "ud": 4143,
      "unicode": 4144,
      "Ġinherit": 4145,
      "Ġnth": 4146,
      "Ġlonger": 4147,
      "ĠWh": 4148,
      "Ġable": 4149,
      "Ġrounded": 4150,
      "header": 4151,
      "Ġhappen": 4152,
      "NeuralPacket": 4153,
      "'.": 4154,
      "06": 4155,
      "ns": 4156,
      "inclusive": 4157,
      "stead": 4158,
      "undefined": 4159,
      "otent": 4160,
      "ĠIpAddr": 4161,
      "need": 4162,
      "linked": 4163,
      "location": 4164,
      "ĠBecause": 4165,
      "ĠSocketAddr": 4166,
      "Ġexpressions": 4167,
      "Ġselector": 4168,
      "gorithm": 4169,
      ".)\\": 4170,
      "Pre": 4171,
      "cat": 4172,
      "uation": 4173,
      "Ġ),\\": 4174,
      "Ġcustom": 4175,
      "Ġpush": 4176,
      "``.": 4177,
      "ĠAt": 4178,
      "using": 4179,
      "output": 4180,
      "Ġ429": 4181,
      "Ġprogram": 4182,
      "shared": 4183,
      "suffix": 4184,
      "Ġassume": 4185,
      "Ġrepresents": 4186,
      "signer": 4187,
      "Ġobtain": 4188,
      "issa": 4189,
      "Ġtempor": 4190,
      "ĠTherefore": 4191,
      "Ġoptimizations": 4192,
      "Ġimmediate": 4193,
      "Ġdynamic": 4194,
      "ĠOtherwise": 4195,
      "Key": 4196,
      "Overflow": 4197,
      "Qu": 4198,
      "Rhs": 4199,
      "ancy": 4200,
      "ctx": 4201,
      "Ġwidth": 4202,
      "Ġbest": 4203,
      "chron": 4204,
      "getERC": 4205,
      "ĠLicense": 4206,
      "UnwindSafe": 4207,
      "Ġcreating": 4208,
      "ification": 4209,
      "ICAL": 4210,
      "Ġfiles": 4211,
      "Solidity": 4212,
      "impls": 4213,
      "62": 4214,
      "800": 4215,
      "CALL": 4216,
      "IpAddr": 4217,
      "Not": 4218,
      "]),": 4219,
      "ged": 4220,
      "iet": 4221,
      "nS": 4222,
      "tPUSH": 4223,
      "xff": 4224,
      "info": 4225,
      "see": 4226,
      "loop": 4227,
      "pth": 4228,
      "Ġtrunc": 4229,
      "Ġpresent": 4230,
      "ĠInitializ": 4231,
      "oolean": 4232,
      "handle": 4233,
      "position": 4234,
      "Ġfails": 4235,
      "Ġapplied": 4236,
      "ĠAoxcErrors": 4237,
      "Ġimportant": 4238,
      "Ġrounding": 4239,
      "ĠLess": 4240,
      "Ġboxed": 4241,
      "criminant": 4242,
      "94": 4243,
      "Table": 4244,
      "guard": 4245,
      "alle": 4246,
      "decimal": 4247,
      "Ġthree": 4248,
      "ertain": 4249,
      "Ġ114": 4250,
      "Ġextern": 4251,
      "gether": 4252,
      "efore": 4253,
      "extra": 4254,
      "ynchron": 4255,
      "indirect": 4256,
      "mapping": 4257,
      "ĠIndex": 4258,
      "Ġnonce": 4259,
      "ĠFormatter": 4260,
      "Ġversions": 4261,
      "Ġgeneric": 4262,
      "SignerERC": 4263,
      "ðŁĴ": 4264,
      "Utf": 4265,
      "aoxc": 4266,
      "mult": 4267,
      "Ġeas": 4268,
      "Ġderef": 4269,
      "Ġdrain": 4270,
      "adget": 4271,
      "Ġexception": 4272,
      "ĠExcluded": 4273,
      "Ġlittle": 4274,
      "Info": 4275,
      "Ġweight": 4276,
      "estStep": 4277,
      "rypt": 4278,
      "coded": 4279,
      "1111111111111111": 4280,
      "Ġarbitrary": 4281,
      "ĦâĶĦâĶ": 4282,
      "');\\": 4283,
      "BY": 4284,
      "Score": 4285,
      "Ġflag": 4286,
      "Ġ`(": 4287,
      "Ġmuch": 4288,
      "aring": 4289,
      "Ġduration": 4290,
      "ĠCell": 4291,
      "Ġexceed": 4292,
      "ĠMIT": 4293,
      "Ġsocket": 4294,
      "Ġ754": 4295,
      "ifiers": 4296,
      "Ġfollows": 4297,
      "Ġtargets": 4298,
      "Ġexecuted": 4299,
      "Ġlogic": 4300,
      "Ġsupported": 4301,
      "ĠIAoxcCore": 4302,
      "Ġcollection": 4303,
      "Ġkeep": 4304,
      "ĠGasFastestStep": 4305,
      "Back": 4306,
      "NU": 4307,
      "Return": 4308,
      "TS": 4309,
      "`).\\": 4310,
      "flatten": 4311,
      "md": 4312,
      "metadata": 4313,
      "nin": 4314,
      "iguous": 4315,
      "versed": 4316,
      "ĠNeural": 4317,
      "stri": 4318,
      "Ġ}>(": 4319,
      "Ġcomplex": 4320,
      "npragma": 4321,
      "Ġpred": 4322,
      "Ġneedle": 4323,
      "windows": 4324,
      "Ġgets": 4325,
      "ByteStr": 4326,
      "Ġconverted": 4327,
      "Ġyields": 4328,
      "Ġenabled": 4329,
      ")*)": 4330,
      "/**\\": 4331,
      "CH": 4332,
      "IE": 4333,
      "duct": 4334,
      "pair": 4335,
      "ploy": 4336,
      "Ġed": 4337,
      "repeat": 4338,
      "itives": 4339,
      "unused": 4340,
      "()`]:": 4341,
      "ĠTr": 4342,
      "Ġconf": 4343,
      "olve": 4344,
      "Ġunreachable": 4345,
      "ĠCursor": 4346,
      "consts": 4347,
      "Ġglobal": 4348,
      "LEN": 4349,
      "Ġgenerated": 4350,
      "Ġ...\\": 4351,
      "attributes": 4352,
      "Source": 4353,
      "00000000000000000000000000000000000000000000000000000000": 4354,
      "1010101010101010": 4355,
      "Ġimmutable": 4356,
      "iskScore": 4357,
      "Ġindices": 4358,
      "ĠPerforms": 4359,
      "._": 4360,
      "AS": 4361,
      "Equal": 4362,
      "PhantomData": 4363,
      "flashblock": 4364,
      "literal": 4365,
      "only": 4366,
      "require": 4367,
      "aling": 4368,
      "Ġrely": 4369,
      "ĠEscape": 4370,
      "Ġliterals": 4371,
      "docs": 4372,
      "ares": 4373,
      "cise": 4374,
      "Ġcombin": 4375,
      "Ġexisting": 4376,
      "Ġsimd": 4377,
      "Ġinserted": 4378,
      "Ġoperators": 4379,
      "Location": 4380,
      "implemented": 4381,
      "143800": 4382,
      "([]": 4383,
      "68": 4384,
      "At": 4385,
      "Write": 4386,
      "eb": 4387,
      "eval": 4388,
      "ler": 4389,
      "mask": 4390,
      "xA": 4391,
      "~~": 4392,
      "height": 4393,
      "alph": 4394,
      "()``": 4395,
      "Ġtogether": 4396,
      "ĠAfter": 4397,
      "Ġ*/": 4398,
      "ĠOne": 4399,
      "clamp": 4400,
      "vals": 4401,
      "fork": 4402,
      "ĠWith": 4403,
      "Unsized": 4404,
      "ancel": 4405,
      "ĠĠĠĠĠĠĠĠĠĠĠĠĠĠĠĠĠĠĠĠĠĠĠĠĠĠĠĠĠĠĠ": 4406,
      "haust": 4407,
      "Ġaccord": 4408,
      ")?;\\\")]\\": 4409,
      ">`_\\": 4410,
      "ĠCalling": 4411,
      "ĠChecks": 4412,
      "entrancy": 4413,
      "Ġscale": 4414,
      "Cap": 4415,
      "bers": 4416,
      "df": 4417,
      "hig": 4418,
      "lp": 4419,
      "maybe": 4420,
      "patch": 4421,
      "alty": 4422,
      "ĠSystem": 4423,
      "!((": 4424,
      "Ġ17": 4425,
      "ĠFunction": 4426,
      "endian": 4427,
      "Ġappend": 4428,
      "dropped": 4429,
      "Ġproduces": 4430,
      "Ġregard": 4431,
      "âĶĢâĶĢâĶĢâĶĢâĶĢâĶĢâĶĢâĶĢ": 4432,
      "Ġmade": 4433,
      "Ġsomething": 4434,
      "ĠBehavior": 4435,
      "+------------------------": 4436,
      "Cursor": 4437,
      "DUP": 4438,
      "Slice": 4439,
      "meta": 4440,
      "erate": 4441,
      "Ġco": 4442,
      "dead": 4443,
      "!((-": 4444,
      "Ġ['\\\\": 4445,
      "Ġden": 4446,
      "ummy": 4447,
      "Ġneg": 4448,
      "Ġ428": 4449,
      "Ġchunks": 4450,
      "ĠGets": 4451,
      "istent": 4452,
      "ĠJSON": 4453,
      "7540": 4454,
      "Ġexecute": 4455,
      "Ġapply": 4456,
      "ĠYul": 4457,
      "Ġwriting": 4458,
      "Borrowed": 4459,
      "---+----------------------------------------------------------------": 4460,
      "Comp": 4461,
      "Name": 4462,
      "UT": 4463,
      "lar": 4464,
      "lhs": 4465,
      "uplic": 4466,
      "Ġtaken": 4467,
      "held": 4468,
      "Ġnan": 4469,
      "urrent": 4470,
      "ĠAlign": 4471,
      "ĠRes": 4472,
      "Ġasset": 4473,
      "Ġhaving": 4474,
      "ignore": 4475,
      "ĠBinaryHeap": 4476,
      "Ġ``.": 4477,
      "getStore": 4478,
      "ccupied": 4479,
      "============": 4480,
      "Ġupheld": 4481,
      "Ġchecking": 4482,
      "atomics": 4483,
      "Change": 4484,
      "options": 4485,
      "Weight": 4486,
      "Ġcorrectly": 4487,
      "NoCoerce": 4488,
      "Ġautomatically": 4489,
      "allest": 4490,
      "712": 4491,
      "MT": 4492,
      "SK": 4493,
      "custom": 4494,
      "ny": 4495,
      "power": 4496,
      "surrogate": 4497,
      "eric": 4498,
      "reate": 4499,
      "origin": 4500,
      "ĠSet": 4501,
      "Ġulp": 4502,
      "Ġanal": 4503,
      "Ġbeh": 4504,
      "opies": 4505,
      "ird": 4506,
      "ache": 4507,
      "precondition": 4508,
      "Ġprecondition": 4509,
      "ĠLAN": 4510,
      "achine": 4511,
      "ĠIterMut": 4512,
      "Ġtransactions": 4513,
      "Ġoptimization": 4514,
      "issues": 4515,
      "iterators": 4516,
      "remaining": 4517,
      "ultiSignerERC": 4518,
      "123456": 4519,
      "Ġignore": 4520,
      "ĠNOTE": 4521,
      "+-------------------------+": 4522,
      "<(": 4523,
      ">();\\": 4524,
      "SWAP": 4525,
      "The": 4526,
      "ght": 4527,
      "reverse": 4528,
      "Ġcertain": 4529,
      "unaligned": 4530,
      "Ġpivot": 4531,
      "Ġmul": 4532,
      "trod": 4533,
      "fee": 4534,
      "urpose": 4535,
      "!(\\\",": 4536,
      "Ġ14": 4537,
      "gest": 4538,
      "ĠEqual": 4539,
      "ferred": 4540,
      "ĠBase": 4541,
      "ĠDiv": 4542,
      "Ġlabel": 4543,
      "))),": 4544,
      "Ġprimitive": 4545,
      "coer": 4546,
      "Ġtransmute": 4547,
      "Receiver": 4548,
      "Ġcomm": 4549,
      "items": 4550,
      "posit": 4551,
      "called": 4552,
      "params": 4553,
      "Ġencoded": 4554,
      "shrink": 4555,
      "Ġdeclared": 4556,
      "Local": 4557,
      "builtin": 4558,
      "98": 4559,
      "Bit": 4560,
      "ausable": 4561,
      "dge": 4562,
      "jt": 4563,
      "mark": 4564,
      "nY": 4565,
      "scope": 4566,
      "tc": 4567,
      "wake": 4568,
      "itude": 4569,
      "esis": 4570,
      "Ġtheref": 4571,
      "roup": 4572,
      "ctional": 4573,
      "Ġhalf": 4574,
      "imals": 4575,
      "expected": 4576,
      "ipv": 4577,
      "Ġabort": 4578,
      "MASK": 4579,
      "cluding": 4580,
      "Ġlikely": 4581,
      "ĠĠĠĠĠĠĠĠĠĠĠĠĠĠ": 4582,
      "module": 4583,
      "Ġformatting": 4584,
      "issue": 4585,
      "Checker": 4586,
      "proxy": 4587,
      "Ġtherefore": 4588,
      "<()": 4589,
      ">.\\": 4590,
      "Float": 4591,
      "OS": 4592,
      "author": 4593,
      "bc": 4594,
      "oice": 4595,
      "pinned": 4596,
      "Ä±": 4597,
      "Ġaffect": 4598,
      "Ġfixed": 4599,
      "Ġcoer": 4600,
      "velo": 4601,
      "anti": 4602,
      "ĠDis": 4603,
      "ĠDrain": 4604,
      "Ġsent": 4605,
      "Ġcompute": 4606,
      "Unicode": 4607,
      ">>(": 4608,
      "(|&": 4609,
      "after": 4610,
      "Ġgenerally": 4611,
      "Ġrepresented": 4612,
      "duce": 4613,
      "crement": 4614,
      "Ġapplies": 4615,
      "while": 4616,
      "ĠRangeBounds": 4617,
      "Ġhowever": 4618,
      "tokenId": 4619,
      "ĠThat": 4620,
      "ĠSearch": 4621,
      "Ġsimple": 4622,
      "NET": 4623,
      "ategory": 4624,
      "Enumer": 4625,
      "LL": 4626,
      "Out": 4627,
      "bul": 4628,
      "fallible": 4629,
      "skip": 4630,
      "ĠZ": 4631,
      "itch": 4632,
      "Ġ{}": 4633,
      "Ġpotent": 4634,
      "Ġ(\\\"": 4635,
      "Ġoften": 4636,
      "igger": 4637,
      "mental": 4638,
      "ĠRFC": 4639,
      "lines": 4640,
      "Ġalong": 4641,
      "Ġhole": 4642,
      "Ġdelay": 4643,
      "Ġchanged": 4644,
      ">`\\": 4645,
      "rsplit": 4646,
      "Ġinitialization": 4647,
      "{}\\\",": 4648,
      "Ġproposal": 4649,
      "Ġpreviously": 4650,
      ":?}\\\",": 4651,
      "Ġdefinition": 4652,
      "-----+---+----------------------------------------------------------------": 4653,
      "Ġaccording": 4654,
      "+-------------------------+-----+---+----------------------------------------------------------------": 4655,
      "+-------------------------+-----+---+-----------------------------------------------------------------+\\": 4656,
      "haystack": 4657,
      "tgas": 4658,
      "ux": 4659,
      "enced": 4660,
      "Ġ{_": 4661,
      "Ġbody": 4662,
      "trail": 4663,
      "ols": 4664,
      "Ġ128": 4665,
      "chan": 4666,
      "Ġexpect": 4667,
      "Ġmutability": 4668,
      "ĠUnlike": 4669,
      "success": 4670,
      "Ġbytecode": 4671,
      "AoxcConstants": 4672,
      "dynamic": 4673,
      "ĠTryFrom": 4674,
      "Ġwrites": 4675,
      "Ġfloats": 4676,
      "Ġfaster": 4677,
      ")`,": 4678,
      "*;\\": 4679,
      "+\\": 4680,
      "batch": 4681,
      "erved": 4682,
      "Ġ`<": 4683,
      "unsized": 4684,
      "Ġ\\\").": 4685,
      "Ġincorrect": 4686,
      "Ġbeg": 4687,
      "Ġalgorithm": 4688,
      "Ġdec": 4689,
      "Ġissues": 4690,
      "ropert": 4691,
      "Ġnewly": 4692,
      "pred": 4693,
      "indows": 4694,
      "ĠInter": 4695,
      "Ġchars": 4696,
      "Ġstatement": 4697,
      "âĶĢâĶ": 4698,
      "Ġperiod": 4699,
      "venience": 4700,
      "2929": 4701,
      "iddle": 4702,
      "Ġsender": 4703,
      "Ġproperty": 4704,
      "Ġimplicitly": 4705,
      "ĠâĶĤ": 4706,
      "octets": 4707,
      "):\\": 4708,
      "399": 4709,
      "_|": 4710,
      "blob": 4711,
      "filter": 4712,
      "oot": 4713,
      "Ġtyp": 4714,
      "reborrow": 4715,
      "Ġsol": 4716,
      "Ġbl": 4717,
      "Ġok": 4718,
      "tributes": 4719,
      "ici": 4720,
      "icast": 4721,
      "ables": 4722,
      "append": 4723,
      "(&*": 4724,
      "ĠRE": 4725,
      "Ġ24": 4726,
      "ĠBlock": 4727,
      "ircu": 4728,
      "quent": 4729,
      "Ġpreser": 4730,
      "Ġupdate": 4731,
      "compatible": 4732,
      "Ġdropping": 4733,
      "Ġappro": 4734,
      "precision": 4735,
      "Ġoccurred": 4736,
      "Ġpairs": 4737,
      "BytesTo": 4738,
      "Ġmantissa": 4739,
      "ĠCalculates": 4740,
      "Cost": 4741,
      "Global": 4742,
      "]`.\\": 4743,
      "fa": 4744,
      "long": 4745,
      "sy": 4746,
      "Ġfurther": 4747,
      "Ġclean": 4748,
      "::*;\\": 4749,
      "Ġsystem": 4750,
      "Ġreverse": 4751,
      "Ġrestri": 4752,
      "Ġnative": 4753,
      "Ġformatter": 4754,
      "0000000": 4755,
      "Ġranges": 4756,
      "acant": 4757,
      "Ġwhole": 4758,
      "107540": 4759,
      "ĠLazy": 4760,
      "Ġcontent": 4761,
      "Ġsuffix": 4762,
      "Ġspecify": 4763,
      "ĠAllocError": 4764,
      "Ġassigned": 4765,
      "Ġspender": 4766,
      "msgSender": 4767,
      "ARD": 4768,
      "Pointer": 4769,
      "`](../../": 4770,
      "Ġoptions": 4771,
      "tscope": 4772,
      "Ġdescribes": 4773,
      "operation": 4774,
      "Ġaccessed": 4775,
      "Ġaccesses": 4776,
      "istry": 4777,
      "(())": 4778,
      "CT": 4779,
      "Signed": 4780,
      "copied": 4781,
      "ds": 4782,
      "mir": 4783,
      "tvar": 4784,
      "env": 4785,
      "ĠSub": 4786,
      "apter": 4787,
      "Ġunits": 4788,
      "ĠRule": 4789,
      "mplate": 4790,
      "Ġhard": 4791,
      "ntype": 4792,
      "Ġ22": 4793,
      "thread": 4794,
      "Ġdoing": 4795,
      "vider": 4796,
      "minator": 4797,
      "ING": 4798,
      "Ġsuc": 4799,
      "Ġ79": 4800,
      "Ġcreates": 4801,
      "Ġwrapper": 4802,
      "ormant": 4803,
      "Ġworks": 4804,
      "ĠâĢ": 4805,
      "Ġdeclar": 4806,
      "Ġevaluated": 4807,
      "eips": 4808,
      "ĠBuilder": 4809,
      "ĠInitializable": 4810,
      "']);\\": 4811,
      "Act": 4812,
      "FA": 4813,
      "failed": 4814,
      "tcommon": 4815,
      "inel": 4816,
      "Ġtre": 4817,
      "Ġtext": 4818,
      "atab": 4819,
      "unchain": 4820,
      "cel": 4821,
      "()`,": 4822,
      "Ġ#[$": 4823,
      "Ġsteps": 4824,
      "ĠAss": 4825,
      "Ġextract": 4826,
      "123": 4827,
      "ibly": 4828,
      "ĠInternal": 4829,
      "Ġtracing": 4830,
      "Ġtrailing": 4831,
      "ĠAlso": 4832,
      "ĠFormat": 4833,
      "Ġbecom": 4834,
      "Ġsubslice": 4835,
      "tens": 4836,
      "AccessManager": 4837,
      "Ġagainst": 4838,
      "ĠRefCell": 4839,
      "Ġleading": 4840,
      "ĠSourceIter": 4841,
      "Ġmultiplication": 4842,
      "Threshold": 4843,
      "Appro": 4844,
      "Ġbeginning": 4845,
      "Ġsucceed": 4846,
      "atabase": 4847,
      "unchained": 4848,
      "08": 4849,
      "Part": 4850,
      "flags": 4851,
      "mart": 4852,
      "oy": 4853,
      "small": 4854,
      "xor": 4855,
      "}):": 4856,
      "Ġlink": 4857,
      "\\\"\\\\": 4858,
      "Ġflags": 4859,
      "Ġbasic": 4860,
      "Ġreport": 4861,
      "lif": 4862,
      "ĠFuture": 4863,
      "Ġexpl": 4864,
      "Ġdeploy": 4865,
      "Ġradix": 4866,
      "immediate": 4867,
      "127": 4868,
      "101": 4869,
      "roposal": 4870,
      "Inter": 4871,
      "area": 4872,
      "Ġprev": 4873,
      "ĠLL": 4874,
      "ĠLoc": 4875,
      "Ġsufficient": 4876,
      "ĠGet": 4877,
      "Ġconcer": 4878,
      "Ġmatching": 4879,
      "Ġjump": 4880,
      "erveError": 4881,
      "ĠOnce": 4882,
      "ĠRemoves": 4883,
      "ReserveError": 4884,
      "optimize": 4885,
      "ĠTrustedRandomAccessNoCoerce": 4886,
      "Ġaliasing": 4887,
      "Ġsimply": 4888,
      "leading": 4889,
      "BytesToAddress": 4890,
      "De": 4891,
      "UM": 4892,
      "clear": 4893,
      "ilog": 4894,
      "nde": 4895,
      "}.\\": 4896,
      "Ġ`+": 4897,
      "Ġscalar": 4898,
      "Ġmoving": 4899,
      "destruct": 4900,
      "izing": 4901,
      "changed": 4902,
      "ĠRever": 4903,
      "acter": 4904,
      "eft": 4905,
      "Ġallocations": 4906,
      "itional": 4907,
      "ĠContracts": 4908,
      "ifies": 4909,
      "sume": 4910,
      "Ġtransmut": 4911,
      "txs": 4912,
      "âĶĢâĶĢâĶĢâĶ": 4913,
      "based": 4914,
      "Ġperformance": 4915,
      "Value": 4916,
      "ĠUniqueRc": 4917,
      "Ġincrement": 4918,
      "ULT": 4919,
      "ĠGeneral": 4920,
      "lossy": 4921,
      "work": 4922,
      "Ġpaths": 4923,
      "12345678": 4924,
      "ĠLLVM": 4925,
      "Edge": 4926,
      "Get": 4927,
      "This": 4928,
      "_\\\",": 4929,
      "cancel": 4930,
      "ea": 4931,
      "ines": 4932,
      "leak": 4933,
      "legacy": 4934,
      "Ġcopied": 4935,
      "Ġ\\\"[": 4936,
      "Ġrecip": 4937,
      "ĠScalar": 4938,
      "iler": 4939,
      "conv": 4940,
      "Ġgive": 4941,
      "ĠOwn": 4942,
      "ĠPayload": 4943,
      "ĠPublic": 4944,
      "ression": 4945,
      "Ġattemp": 4946,
      "Iterable": 4947,
      "indices": 4948,
      ">>::": 4949,
      "Ġcontinue": 4950,
      "istic": 4951,
      "ĠContext": 4952,
      "solc": 4953,
      "without": 4954,
      "member": 4955,
      "Ġ)*": 4956,
      "Revert": 4957,
      "transparent": 4958,
      "Ġoptimized": 4959,
      "EIPS": 4960,
      "ĠByteString": 4961,
      "Ġescape": 4962,
      "Ġreceive": 4963,
      "Ġnames": 4964,
      "ircuit": 4965,
      ".)": 4966,
      "Escape": 4967,
      "GU": 4968,
      "Rep": 4969,
      "Schedule": 4970,
      "Tx": 4971,
      "cle": 4972,
      "fit": 4973,
      "full": 4974,
      "miss": 4975,
      "task": 4976,
      "rest": 4977,
      "\\\".\\": 4978,
      "Ġ`!": 4979,
      "Ġpurpose": 4980,
      "(&'": 4981,
      "ĠCor": 4982,
      "ĠExtend": 4983,
      "Ġextens": 4984,
      "Ġdecode": 4985,
      "Ġ200": 4986,
      "Ġcancel": 4987,
      "Ġwhy": 4988,
      "upgradeable": 4989,
      "Ġcompared": 4990,
      "gnitude": 4991,
      "Struct": 4992,
      "Ġrequirement": 4993,
      "Ġminus": 4994,
      "Ġcopying": 4995,
      "^^^^^^^^^^^^^^^^": 4996,
      "ĠUniqueArc": 4997,
      "Residual": 4998,
      "Ġrecommended": 4999,
      "'ll": 5000,
      "ASE": 5001,
      "Max": 5002,
      "Num": 5003,
      "Pro": 5004,
      "Swap": 5005,
      "carry": 5006,
      "dangling": 5007,
      "gistry": 5008,
      "land": 5009,
      "Ġer": 5010,
      "alive": 5011,
      "Ġreceiver": 5012,
      "abstract": 5013,
      "Ġduplic": 5014,
      "control": 5015,
      "ĠRel": 5016,
      "Ġ256": 5017,
      "MAIN": 5018,
      "Ġfollowed": 5019,
      "Ġnodes": 5020,
      "RangeInclusive": 5021,
      "Ġsmallest": 5022,
      "ffffffff": 5023,
      "selector": 5024,
      "AYER": 5025,
      "ĠAccessControl": 5026,
      "()?;\\": 5027,
      "UnsignedT": 5028,
      "ryptograph": 5029,
      "IETF": 5030,
      "!\\\");\\": 5031,
      ">().": 5032,
      "AG": 5033,
      "ABI": 5034,
      "RO": 5035,
      "Votes": 5036,
      "break": 5037,
      "catch": 5038,
      "xED": 5039,
      "ying": 5040,
      "zanti": 5041,
      "Ġ`'": 5042,
      "utive": 5043,
      "Ġmint": 5044,
      "()-": 5045,
      "Ġwr": 5046,
      "Ġwon": 5047,
      "loor": 5048,
      "ention": 5049,
      "Ġ18": 5050,
      "Ġunchanged": 5051,
      "ĠCString": 5052,
      "ĠNo": 5053,
      "LES": 5054,
      "Ġarg": 5055,
      "OrInternal": 5056,
      "ĠUnsafeCell": 5057,
      "////////////////////////////////////////////////////////////////": 5058,
      "Ġcreation": 5059,
      "Ġworld": 5060,
      "Ġinterpre": 5061,
      "alignment": 5062,
      "secutive": 5063,
      "Ġescaped": 5064,
      "Ġcauses": 5065,
      "nIt": 5066,
      "Ġseparate": 5067,
      "Trait": 5068,
      "PlaceIterable": 5069,
      "zantium": 5070,
      "'];\\": 5071,
      "375": 5072,
      ">()`": 5073,
      "DEC": 5074,
      "Pinned": 5075,
      "SY": 5076,
      "cf": 5077,
      "fill": 5078,
      "ise": 5079,
      "oring": 5080,
      "Ġpar": 5081,
      "Ġreplaced": 5082,
      "libraries": 5083,
      "older": 5084,
      "Ġ1000": 5085,
      "active": 5086,
      "Ġdes": 5087,
      "Ġ_,": 5088,
      "Ġusually": 5089,
      "ĠGNU": 5090,
      "Ġhasher": 5091,
      "Ġoverflowing": 5092,
      "ĠUndefined": 5093,
      "Ġstatements": 5094,
      "Ġsubtra": 5095,
      "allowed": 5096,
      "Ġformatted": 5097,
      "Signature": 5098,
      "chaining": 5099,
      "ĠNaNs": 5100,
      "{},\\": 5101,
      "Contracts": 5102,
      "AtomicU": 5103,
      "LeafOrInternal": 5104,
      "Arguments": 5105,
      "NEG": 5106,
      "ĠSliceIndex": 5107,
      "Ġthings": 5108,
      "ivialClone": 5109,
      "Enumerable": 5110,
      "roperties": 5111,
      "200": 5112,
      "BinaryHeap": 5113,
      "Send": 5114,
      "lude": 5115,
      "py": 5116,
      "random": 5117,
      "yland": 5118,
      "Ġutf": 5119,
      "onents": 5120,
      "ret": 5121,
      "\\\"]);\\": 5122,
      "Ġfilled": 5123,
      "Ġcatch": 5124,
      "Ġsit": 5125,
      "Ġmath": 5126,
      "arly": 5127,
      "omin": 5128,
      "intain": 5129,
      "izer": 5130,
      "izes": 5131,
      "==\\": 5132,
      "ĠCode": 5133,
      "ĠEthereum": 5134,
      "Ġaltern": 5135,
      "Ġhint": 5136,
      "strip": 5137,
      "1256": 5138,
      "Ġtrigger": 5139,
      "Ġrespon": 5140,
      "Ġatt": 5141,
      "Ġmember": 5142,
      "));": 5143,
      "Ġheight": 5144,
      "(|(": 5145,
      "ĠUnicode": 5146,
      "Ġgenerator": 5147,
      "Ġ..=": 5148,
      "Ġreads": 5149,
      "FFSE": 5150,
      "Ġadv": 5151,
      "Ġinsertion": 5152,
      "Ġindicating": 5153,
      "âĢĻ": 5154,
      "Ġdereference": 5155,
      "IAoxcCore": 5156,
      "ĠLesser": 5157,
      "Dis": 5158,
      "FusedIterator": 5159,
      "Poll": 5160,
      "US": 5161,
      "ges": 5162,
      "main": 5163,
      "sim": 5164,
      "sqrt": 5165,
      "tcase": 5166,
      "Ġrustc": 5167,
      "Ġclear": 5168,
      "ution": 5169,
      "Ġomitted": 5170,
      "Ġpin": 5171,
      "Ġpop": 5172,
      "dest": 5173,
      "decode": 5174,
      "Ġinstruction": 5175,
      "ĠSMT": 5176,
      "Ġefficient": 5177,
      "ĠTypes": 5178,
      "Ġ[\\": 5179,
      "Ġdangling": 5180,
      "concat": 5181,
      "(&**": 5182,
      "Ġcomplete": 5183,
      "Ġusual": 5184,
      "via": 5185,
      "ĠUnbounded": 5186,
      "Ġsigners": 5187,
      "Ġtesting": 5188,
      "StorageLocation": 5189,
      "Exact": 5190,
      "\\\")]);\\": 5191,
      "await": 5192,
      "Ġacross": 5193,
      "Ġpropag": 5194,
      "ĠAdds": 5195,
      "Less": 5196,
      "UniqueRc": 5197,
      "grant": 5198,
      "ĠRawVec": 5199,
      "Allocator": 5200,
      "ĠRequired": 5201,
      "Ġregardless": 5202,
      "95": 5203,
      "<\\": 5204,
      "EP": 5205,
      "Ext": 5206,
      "Trusted": 5207,
      "book": 5208,
      "cq": 5209,
      "cx": 5210,
      "payable": 5211,
      "ving": 5212,
      "ĠQ": 5213,
      "Ġra": 5214,
      "ĠZST": 5215,
      "instructionSet": 5216,
      "lems": 5217,
      "anbul": 5218,
      "inger": 5219,
      "Ġparse": 5220,
      "arm": 5221,
      "Ġrestrict": 5222,
      "Ġnone": 5223,
      "eto": 5224,
      "Ġconversions": 5225,
      "Ġdid": 5226,
      "Ġunspecified": 5227,
      "ĠRead": 5228,
      "Ġ``--": 5229,
      "rapper": 5230,
      "inite": 5231,
      "export": 5232,
      "NTAX": 5233,
      "ariant": 5234,
      "Ġstructs": 5235,
      "Ġoverflows": 5236,
      "returns": 5237,
      "Ġgenerate": 5238,
      "positive": 5239,
      "language": 5240,
      "Ġtimestamp": 5241,
      "coding": 5242,
      "Ġperformed": 5243,
      "SocketAddr": 5244,
      "Ġmaintain": 5245,
      "diff": 5246,
      "Ġseparator": 5247,
      "CODE": 5248,
      "Ġindicates": 5249,
      "RULES": 5250,
      "ĠLANGU": 5251,
      "Ġcommand": 5252,
      "SYNTAX": 5253,
      "cqRel": 5254,
      "ĠLANGUAGE": 5255,
      ">());\\": 5256,
      "Category": 5257,
      "If": 5258,
      "New": 5259,
      "RAC": 5260,
      "Small": 5261,
      "Ty": 5262,
      "Wtf": 5263,
      "nFunction": 5264,
      "pone": 5265,
      "pCategory": 5266,
      "ren": 5267,
      "ortest": 5268,
      "Ġfill": 5269,
      "Ġboolean": 5270,
      "Ġmy": 5271,
      "Ġmerge": 5272,
      "Ġreversed": 5273,
      "Ġ(!": 5274,
      "Ġ((": 5275,
      "------": 5276,
      "equal": 5277,
      "ĠCap": 5278,
      "ĠĠĠĠĠĠĠĠĠĠĠĠĠĠĠĠĠĠĠĠĠĠĠĠĠ": 5279,
      "ĠHere": 5280,
      "Ġpanicking": 5281,
      "Ġsafely": 5282,
      "Execution": 5283,
      "Ġadj": 5284,
      "Ġpatterns": 5285,
      "Ġhelp": 5286,
      "Ġimplies": 5287,
      "ĠRequire": 5288,
      "dynamicGas": 5289,
      "Ġsubtraction": 5290,
      "125687": 5291,
      "poneyland": 5292,
      "!`]": 5293,
      "-|": 5294,
      "DAT": 5295,
      "Extend": 5296,
      "Pending": 5297,
      "Sub": 5298,
      "Zeppelin": 5299,
      "plied": 5300,
      "rash": 5301,
      "tjt": 5302,
      "writ": 5303,
      "witch": 5304,
      "Ã©": 5305,
      "Ġ)]\\": 5306,
      "\\\")?;\\": 5307,
      "Ġfine": 5308,
      "ality": 5309,
      "enZeppelin": 5310,
      "Ġser": 5311,
      "Ġsurrogate": 5312,
      "Ġsynchron": 5313,
      "Ġput": 5314,
      "Ġmiddle": 5315,
      "Ġintrod": 5316,
      "Ġrepe": 5317,
      "library": 5318,
      "ĠAp": 5319,
      "ĠCl": 5320,
      "Ġ#\\": 5321,
      "ĠOverflow": 5322,
      "Ġ_;\\": 5323,
      "ĠUp": 5324,
      "160": 5325,
      "Ġ31": 5326,
      "Unbounded": 5327,
      "Ġkeyword": 5328,
      "Chain": 5329,
      "FFF": 5330,
      "iltPayload": 5331,
      "Ġoptional": 5332,
      "Ġobjects": 5333,
      "!(\\\"{:?}\\\",": 5334,
      "Ġdepending": 5335,
      "FI": 5336,
      "Pausable": 5337,
      "Right": 5338,
      "]<[": 5339,
      "`),": 5340,
      "fd": 5341,
      "free": 5342,
      "imp": 5343,
      "now": 5344,
      "inplace": 5345,
      "ond": 5346,
      "recover": 5347,
      "Ġ`_": 5348,
      "Ġhad": 5349,
      "ĠBut": 5350,
      "quare": 5351,
      "Ġiterate": 5352,
      "socket": 5353,
      "Ġmechan": 5354,
      "Ġmultip": 5355,
      "ĠRangeInclusive": 5356,
      "Ġswapped": 5357,
      "LOG": 5358,
      "umpt": 5359,
      "Ġtemplate": 5360,
      "PartialOrd": 5361,
      "xxxx": 5362,
      "operator": 5363,
      "Ġcalculate": 5364,
      "ĠRawWaker": 5365,
      "Primitive": 5366,
      "Ġtemporary": 5367,
      "37572": 5368,
      "GH": 5369,
      "LON": 5370,
      "OUT": 5371,
      "cion": 5372,
      "kio": 5373,
      "nis": 5374,
      "stanbul": 5375,
      "second": 5376,
      "Ġschedule": 5377,
      "Ġnul": 5378,
      "apters": 5379,
      "Ġ115": 5380,
      "chmark": 5381,
      "===\\": 5382,
      "linux": 5383,
      "perse": 5384,
      "ĠThey": 5385,
      "Ġimpls": 5386,
      "NTIS": 5387,
      "::<[": 5388,
      "ĠmemorySize": 5389,
      "oose": 5390,
      "Ġnonzero": 5391,
      "solute": 5392,
      "Ġtransient": 5393,
      "Ġblocks": 5394,
      "Ġreading": 5395,
      "vides": 5396,
      "SILON": 5397,
      "ĠOpenZeppelin": 5398,
      "ysis": 5399,
      "Ġincludes": 5400,
      "Tracer": 5401,
      "Ġterms": 5402,
      "haustive": 5403,
      "<()>": 5404,
      "Ġbecomes": 5405,
      "NTISSA": 5406,
      "97": 5407,
      "?\\": 5408,
      "Author": 5409,
      "Pattern": 5410,
      "SEC": 5411,
      "Wrapping": 5412,
      "fs": 5413,
      "ike": 5414,
      "oning": 5415,
      "onical": 5416,
      "ital": 5417,
      "Ġcheap": 5418,
      "Ġ\\\")?;\\\")]\\": 5419,
      "Ġmaking": 5420,
      "#[$": 5421,
      "Ġwake": 5422,
      "lide": 5423,
      "Ġconstruction": 5424,
      "Ġunstable": 5425,
      "Ġexclusive": 5426,
      "ĠPU": 5427,
      "iteration": 5428,
      "ĠExp": 5429,
      "exhaustive": 5430,
      "ĠIns": 5431,
      "finity": 5432,
      "ftware": 5433,
      "Ġends": 5434,
      "::{\\": 5435,
      "Ġkv": 5436,
      "Ġzeros": 5437,
      "762": 5438,
      "Ġregular": 5439,
      "Ġalive": 5440,
      "DerefMut": 5441,
      "UniqueArc": 5442,
      "Ġdefine": 5443,
      "trailing": 5444,
      "ĠRelaxed": 5445,
      "*(": 5446,
      "ES": 5447,
      "Per": 5448,
      "Saturating": 5449,
      "bd": 5450,
      "dat": 5451,
      "Ġlock": 5452,
      "inco": 5453,
      "Ġfb": 5454,
      "Ġfit": 5455,
      "unimplemented": 5456,
      "Ġbid": 5457,
      "Ġpast": 5458,
      "ĠTake": 5459,
      "roy": 5460,
      "ĠRChunks": 5461,
      "message": 5462,
      "Ġ21": 5463,
      "peri": 5464,
      "Ġ<$": 5465,
      "Ġoperand": 5466,
      "Ġenc": 5467,
      "ides": 5468,
      "Ġ&['": 5469,
      "Ġhex": 5470,
      "Ġ93": 5471,
      "equest": 5472,
      "exposed": 5473,
      "likely": 5474,
      "Ġquick": 5475,
      "ADMIN": 5476,
      "AtomicBool": 5477,
      "Ġplatform": 5478,
      "ĠProvides": 5479,
      "Ġcasting": 5480,
      "Ġdetermine": 5481,
      "Ġfractional": 5482,
      "RawWaker": 5483,
      "udit": 5484,
      "MAINNET": 5485,
      "grantRole": 5486,
      "incoherent": 5487,
      ">(),\\": 5488,
      "Any": 5489,
      "Count": 5490,
      "Dummy": 5491,
      "Handle": 5492,
      "Me": 5493,
      "bn": 5494,
      "before": 5495,
      "floor": 5496,
      "merge": 5497,
      "pivot": 5498,
      "riate": 5499,
      "rfc": 5500,
      "volatile": 5501,
      "Ġcr": 5502,
      "Ġsaturating": 5503,
      "ceil": 5504,
      "Ġwaker": 5505,
      "determin": 5506,
      "trie": 5507,
      "ational": 5508,
      "`],\\": 5509,
      "ĠNAN": 5510,
      "Ġgrow": 5511,
      "Ġones": 5512,
      "Ġ439": 5513,
      "ropriate": 5514,
      "Ġusers": 5515,
      "Ġencode": 5516,
      "osition": 5517,
      "points": 5518,
      "Ġbounded": 5519,
      "FromStr": 5520,
      "Ġoptimize": 5521,
      "Ġruns": 5522,
      "Ġrunning": 5523,
      "ensive": 5524,
      "Ġyielded": 5525,
      "Ġbuilds": 5526,
      "Args": 5527,
      "Ġ$(#[$": 5528,
      "cuss": 5529,
      "DefaultAdminRules": 5530,
      "json": 5531,
      "TestDummy": 5532,
      "truncate": 5533,
      "Ġbenef": 5534,
      "rashTestDummy": 5535,
      "Array": 5536,
      "Ctx": 5537,
      "cum": 5538,
      "nSolidity": 5539,
      "ze": 5540,
      "ĠZero": 5541,
      "Ġpoll": 5542,
      "dealloc": 5543,
      "Ġthird": 5544,
      "etimes": 5545,
      "ints": 5546,
      "ĠAI": 5547,
      "ĠAcquire": 5548,
      "..).": 5549,
      "000000": 5550,
      "Ġdead": 5551,
      "Ġ``<": 5552,
      "ocol": 5553,
      "tractIf": 5554,
      "Ġadding": 5555,
      "Ġprecise": 5556,
      "Ġ669": 5557,
      "ests": 5558,
      "shake": 5559,
      "nonce": 5560,
      "Ġpartition": 5561,
      "GasChange": 5562,
      "ECH": 5563,
      "Ġ938": 5564,
      "Ġbitwise": 5565,
      "RangeTo": 5566,
      "Ġappropriate": 5567,
      "support": 5568,
      "ĠDerefMut": 5569,
      "Ġholds": 5570,
      "urthermore": 5571,
      "Ġrecipient": 5572,
      "KV": 5573,
      "NICAL": 5574,
      "eg": 5575,
      "imple": 5576,
      "iption": 5577,
      "sound": 5578,
      "xB": 5579,
      "Ġ(),": 5580,
      "itiz": 5581,
      "Ġfailed": 5582,
      "Ġfilter": 5583,
      "Ġfinite": 5584,
      "Ġrecur": 5585,
      "Ġleaving": 5586,
      "ĠTra": 5587,
      "ĠTECH": 5588,
      "ĠAsync": 5589,
      "Ġ19": 5590,
      "ĠNow": 5591,
      "ĠParse": 5592,
      "Ġ23": 5593,
      "clic": 5594,
      "additional": 5595,
      "Ġ68": 5596,
      "aused": 5597,
      "STAND": 5598,
      "XLAYER": 5599,
      "844": 5600,
      "Ġdiscuss": 5601,
      "Ġadmin": 5602,
      "ĠChunks": 5603,
      "LOAD": 5604,
      "downgrade": 5605,
      "Ġdescribed": 5606,
      "Ġcorresponds": 5607,
      "ĠPrecompiled": 5608,
      "disjoint": 5609,
      "Ġcollect": 5610,
      "Ġidentical": 5611,
      "AllocError": 5612,
      "\\\"))]": 5613,
      "Ġcounterpart": 5614,
      "world": 5615,
      "Ġrelative": 5616,
      "Ġ4194": 5617,
      "coerce": 5618,
      "ĠSearchStep": 5619,
      "ARDS": 5620,
      "ĠReverse": 5621,
      "ominator": 5622,
      "perimental": 5623,
      "itizen": 5624,
      "ĠTECHNICAL": 5625,
      "STANDARDS": 5626,
      "720": 5627,
      "Never": 5628,
      "Pair": 5629,
      "TER": 5630,
      "`)\\": 5631,
      "cow": 5632,
      "nul": 5633,
      "nap": 5634,
      "oke": 5635,
      "Ġ~": 5636,
      "heart": 5637,
      "Ġcover": 5638,
      "::__": 5639,
      "unnel": 5640,
      "Ġrecover": 5641,
      "!(!(": 5642,
      "Ġvtable": 5643,
      "Ġcontr": 5644,
      "Ġbeha": 5645,
      "ĠRun": 5646,
      "ĠFree": 5647,
      "class": 5648,
      "ĠUnpin": 5649,
      "Ġ36": 5650,
      "2566": 5651,
      "Ġshl": 5652,
      "omicon": 5653,
      "Ġbug": 5654,
      "backward": 5655,
      "ĠGo": 5656,
      "MANTISSA": 5657,
      "arkle": 5658,
      "Ġbecome": 5659,
      "ecuted": 5660,
      "project": 5661,
      "Ġallowance": 5662,
      "Ġsubstring": 5663,
      "ĠStruct": 5664,
      "Ġintermediate": 5665,
      "ormally": 5666,
      "ĠCreate": 5667,
      "4626": 5668,
      "Ġconsuming": 5669,
      "accum": 5670,
      "Ġpassing": 5671,
      "Ġrespectively": 5672,
      "metrics": 5673,
      "Repair": 5674,
      "Ġextension": 5675,
      "EPSILON": 5676,
      "Ġrepeated": 5677,
      "Ġmechanism": 5678,
      "Base": 5679,
      "Hex": 5680,
      "Jump": 5681,
      "SER": 5682,
      "]>,": 5683,
      "ben": 5684,
      "cord": 5685,
      "gu": 5686,
      "holder": 5687,
      "ovi": 5688,
      "txt": 5689,
      "yul": 5690,
      "ÏĢ": 5691,
      "Ġ]\\": 5692,
      "Ġauthor": 5693,
      "Ġfew": 5694,
      "under": 5695,
      "unreachable": 5696,
      "Ġ\\\");\\\")]\\": 5697,
      "Ġreally": 5698,
      "ĠIN": 5699,
      "ĠId": 5700,
      "ĠCrashTestDummy": 5701,
      "ĠNE": 5702,
      "\\\\\\\\": 5703,
      "Ġdelete": 5704,
      "elt": 5705,
      "Ġconstants": 5706,
      "Ġwhose": 5707,
      "Ġ33": 5708,
      "ĠLike": 5709,
      "begin": 5710,
      "finished": 5711,
      "Ġabsolute": 5712,
      "Ġindexing": 5713,
      "Ġmeant": 5714,
      "ĠUnsafe": 5715,
      "Ġsetting": 5716,
      "Ġids": 5717,
      "Ġgives": 5718,
      "Ġinterval": 5719,
      "Ġdisc": 5720,
      "Ġdisable": 5721,
      "Ġapplying": 5722,
      "fully": 5723,
      "Ġsupports": 5724,
      "AtomicPtr": 5725,
      "BuilderError": 5726,
      "Ġassignment": 5727,
      "Ġdistin": 5728,
      "Ġcomputed": 5729,
      "nbsp": 5730,
      "][..]));\\": 5731,
      "Ġinheritance": 5732,
      "ĠWhile": 5733,
      "Ġimmediately": 5734,
      "multiple": 5735,
      "large": 5736,
      ")(": 5737,
      "-`": 5738,
      "FL": 5739,
      "ORE": 5740,
      "^(": 5741,
      "finger": 5742,
      "hack": 5743,
      "na": 5744,
      "nabstract": 5745,
      "pure": 5746,
      "vtable": 5747,
      "leg": 5748,
      "Ġ\\\";\\\")]\\": 5749,
      "Ġpost": 5750,
      "Ġinlin": 5751,
      "Ġetc": 5752,
      "live": 5753,
      "ĠAssert": 5754,
      "Ġuninit": 5755,
      "Ġunicode": 5756,
      "ĠEmits": 5757,
      "ĠFpCategory": 5758,
      "...\\": 5759,
      "Ġ};": 5760,
      "ĠBITS": 5761,
      "Init": 5762,
      "irection": 5763,
      "prelude": 5764,
      "ĠInPlaceIterable": 5765,
      "ister": 5766,
      "ĠConsum": 5767,
      "ualT": 5768,
      "prim": 5769,
      "hausted": 5770,
      "Ġdisallowed": 5771,
      "Ġavoids": 5772,
      "fields": 5773,
      "IntoIterator": 5774,
      "ĠOnly": 5775,
      "(..,": 5776,
      "Ġrequested": 5777,
      "POW": 5778,
      "black": 5779,
      "While": 5780,
      "interfaces": 5781,
      "Ġmarked": 5782,
      "Ġpotentially": 5783,
      "carrying": 5784,
      "Ġdesired": 5785,
      "ĠSMTChecker": 5786,
      "ĠRequirements": 5787,
      "+--------------------------------": 5788,
      "DSA": 5789,
      "EF": 5790,
      "PA": 5791,
      "Wrapper": 5792,
      "ba": 5793,
      "bf": 5794,
      "fallback": 5795,
      "kind": 5796,
      "mmetr": 5797,
      "nstruct": 5798,
      "sequent": 5799,
      "Ġca": 5800,
      "uto": 5801,
      "Ġopt": 5802,
      "Ġpay": 5803,
      "()`\\": 5804,
      "()))\\": 5805,
      "Ġrev": 5806,
      "Ġub": 5807,
      "Ġ(_,": 5808,
      "!('": 5809,
      "!([": 5810,
      "ĠFloat": 5811,
      "ifference": 5812,
      "safety": 5813,
      "Ġ255": 5814,
      "112566": 5815,
      "quen": 5816,
      "Ġ34": 5817,
      "Ġsearcher": 5818,
      "!(\\\"[`": 5819,
      "Ġcodegen": 5820,
      "Ġmodified": 5821,
      "Ġinitialize": 5822,
      "compiler": 5823,
      "Format": 5824,
      "Ġinterior": 5825,
      "Ġequality": 5826,
      ">(&'": 5827,
      "hasher": 5828,
      "LOC": 5829,
      ">`_.\\": 5830,
      "Ġevaluation": 5831,
      "Ġdetermines": 5832,
      "ĠLeaf": 5833,
      ":?}": 5834,
      "Ġproperties": 5835,
      "enumerate": 5836,
      "ĠZip": 5837,
      "lidean": 5838,
      "ĠPUSH": 5839,
      "Ġbehaves": 5840,
      "255": 5841,
      "4762": 5842,
      "All": 5843,
      "Dup": 5844,
      "Event": 5845,
      "Mul": 5846,
      "Match": 5847,
      "Number": 5848,
      "NaN": 5849,
      "grow": 5850,
      "nor": 5851,
      "ource": 5852,
      "oked": 5853,
      "Ã¼": 5854,
      "Ġlowercase": 5855,
      "ination": 5856,
      "revert": 5857,
      "retain": 5858,
      "steps": 5859,
      "itle": 5860,
      "Ġfunc": 5861,
      "Ġ`?": 5862,
      "unct": 5863,
      "Ġ{}\\\",": 5864,
      "Ġmanually": 5865,
      "Ġnor": 5866,
      "ulative": 5867,
      "lip": 5868,
      "asing": 5869,
      "ĠEmpty": 5870,
      "necess": 5871,
      "Ġdeposit": 5872,
      "ends": 5873,
      "Ġ_:": 5874,
      "105": 5875,
      "ERO": 5876,
      ">>`": 5877,
      "INSER": 5878,
      "Ġupon": 5879,
      "ITI": 5880,
      "Ġ78": 5881,
      "Ġboundaries": 5882,
      "Ġconsist": 5883,
      "ĠArcInner": 5884,
      "FFFF": 5885,
      "Ġstores": 5886,
      "ĠFromIterator": 5887,
      "Ġ($(\\": 5888,
      "ĠAccessManager": 5889,
      "Ġproblem": 5890,
      "bls": 5891,
      "urrently": 5892,
      "Ġbehind": 5893,
      "FAULT": 5894,
      "mmetric": 5895,
      ")`\\": 5896,
      "End": 5897,
      "Fixed": 5898,
      "Mint": 5899,
      "Src": 5900,
      "`-": 5901,
      "gress": 5902,
      "late": 5903,
      "pad": 5904,
      "rel": 5905,
      "atibility": 5906,
      "orld": 5907,
      "Ġflashblocks": 5908,
      "annel": 5909,
      "Ġwtf": 5910,
      "depend": 5911,
      "Ġinstr": 5912,
      "Ġinfinite": 5913,
      "abetic": 5914,
      "ĠSim": 5915,
      "Ġthreshold": 5916,
      "ĠTarget": 5917,
      "asm": 5918,
      "pear": 5919,
      "ĠEX": 5920,
      "ĠOver": 5921,
      "ĠOccupied": 5922,
      "Ġ25": 5923,
      "Ġ29": 5924,
      "Ġpointed": 5925,
      "added": 5926,
      "Ġwhitespace": 5927,
      "example": 5928,
      "Ġcomponents": 5929,
      "Ġlibraries": 5930,
      "Ġ60": 5931,
      "(|_|": 5932,
      "FromDyn": 5933,
      "STORE": 5934,
      "cript": 5935,
      "Ġrepresenting": 5936,
      "ossible": 5937,
      "Ġcapture": 5938,
      "BuiltPayload": 5939,
      "Ġpossibly": 5940,
      "Ġready": 5941,
      "Ġgoing": 5942,
      "ĠAsRef": 5943,
      "Ġproduced": 5944,
      "ĠErrors": 5945,
      "Ġworking": 5946,
      "ĠThus": 5947,
      "ysical": 5948,
      "ĠAtomicBool": 5949,
      "UNK": 5950,
      "HASH": 5951,
      "Ġsometimes": 5952,
      "}'],": 5953,
      "Ġderefer": 5954,
      "Decod": 5955,
      "ĠSigner": 5956,
      "Ġobtained": 5957,
      "patchFromDyn": 5958,
      "Ġnanos": 5959,
      "&&": 5960,
      "'.\\": 5961,
      "277": 5962,
      "Istanbul": 5963,
      "Lazy": 5964,
      "Left": 5965,
      "nW": 5966,
      "radix": 5967,
      "times": 5968,
      "Ġprom": 5969,
      "tribute": 5970,
      "ĠSame": 5971,
      "ĠTakes": 5972,
      "etch": 5973,
      "entinel": 5974,
      "``)": 5975,
      "Ġstand": 5976,
      "),+": 5977,
      "Ġunwrap": 5978,
      "Ġunused": 5979,
      "ĠRSplit": 5980,
      "Ġalgebraic": 5981,
      "Ġalmost": 5982,
      "ĠPeek": 5983,
      "tools": 5984,
      "Ġpointee": 5985,
      "Ġ43": 5986,
      "predicate": 5987,
      "!(\\\"{}\\\",": 5988,
      "itionally": 5989,
      "ĠConsider": 5990,
      "Ġloss": 5991,
      "Ġstarts": 5992,
      "Ġcompilation": 5993,
      "Ġcomments": 5994,
      "Nonce": 5995,
      "Build": 5996,
      "transmut": 5997,
      "Ġsupplied": 5998,
      "Ġclose": 5999,
      "ĠTryReserveError": 6000,
      "533": 6001,
      "helpers": 6002,
      "Ġsymbol": 6003,
      "Ġcloning": 6004,
      "futures": 6005,
      "Ġmodel": 6006,
      "Alignment": 6007,
      "Ġlargest": 6008,
      "TryFrom": 6009,
      "Ġnecessarily": 6010,
      "Ġsense": 6011,
      "URIStorage": 6012,
      "Ġvisible": 6013,
      "Ġfactor": 6014,
      "entrancyGuard": 6015,
      "Ġanalysis": 6016,
      "iciary": 6017,
      "Ġdiscussion": 6018,
      "7201": 6019,
      "unctuation": 6020,
      ",)+": 6021,
      "Fee": 6022,
      "Fused": 6023,
      "JUM": 6024,
      "OD": 6025,
      "Parse": 6026,
      "Rec": 6027,
      "eed": 6028,
      "ggest": 6029,
      "mode": 6030,
      "serve": 6031,
      "tDUP": 6032,
      "tSWAP": 6033,
      "yle": 6034,
      "Ġtmp": 6035,
      "onom": 6036,
      "Ġfre": 6037,
      "Ġfee": 6038,
      "depth": 6039,
      "Ġren": 6040,
      "lict": 6041,
      "light": 6042,
      "Ġ27": 6043,
      "111": 6044,
      "ffi": 6045,
      "Ġ718": 6046,
      "ĠUnsize": 6047,
      "within": 6048,
      "EIGH": 6049,
      "Ġallowing": 6050,
      "Ġcomes": 6051,
      "Ġrepresentable": 6052,
      "ĠRcInner": 6053,
      "Byte": 6054,
      "chainRules": 6055,
      "special": 6056,
      "IntError": 6057,
      "Ġconverting": 6058,
      "EXT": 6059,
      "---+---+": 6060,
      "CoerceUnsized": 6061,
      "lossless": 6062,
      "sensitive": 6063,
      "Attributes": 6064,
      "ĠAlignment": 6065,
      "Ġrecurs": 6066,
      "EIGHT": 6067,
      "!(),\\": 6068,
      "'ve": 6069,
      ">(),": 6070,
      "Big": 6071,
      "Flashblocks": 6072,
      "HEIGHT": 6073,
      "Lim": 6074,
      "Tr": 6075,
      "fra": 6076,
      "gments": 6077,
      "gine": 6078,
      "ipe": 6079,
      "ised": 6080,
      "man": 6081,
      "rant": 6082,
      "tag": 6083,
      "ties": 6084,
      "uages": 6085,
      "wice": 6086,
      "Ġ(),\\": 6087,
      "Ġtable": 6088,
      "atus": 6089,
      "orter": 6090,
      "Ġflatten": 6091,
      "Ġmachine": 6092,
      "omain": 6093,
      "Ġrepeat": 6094,
      "Ġretrie": 6095,
      "ĠSets": 6096,
      "eter": 6097,
      "ĠAd": 6098,
      "consider": 6099,
      "Ġunsound": 6100,
      "ĠCH": 6101,
      "ĠriskScore": 6102,
      "ĠBoth": 6103,
      "----------": 6104,
      "Ġ_)": 6105,
      "ĠDisplay": 6106,
      "erson": 6107,
      "ĠMIR": 6108,
      "Ġ'_": 6109,
      "mapped": 6110,
      "ĠInstead": 6111,
      "anging": 6112,
      "Ġ65": 6113,
      "Ġabstract": 6114,
      "Ġprot": 6115,
      "Ġprior": 6116,
      "nonnull": 6117,
      "Ġvarious": 6118,
      "RefMut": 6119,
      "Ġworst": 6120,
      "transactions": 6121,
      "extens": 6122,
      "Ġdiffer": 6123,
      "Ġdocs": 6124,
      "Ġunderflow": 6125,
      "ĠShr": 6126,
      "Ġmacros": 6127,
      "Ġconverts": 6128,
      "Account": 6129,
      "SIG": 6130,
      "Ġregion": 6131,
      "Short": 6132,
      "ordered": 6133,
      "Ġoccurs": 6134,
      "nthat": 6135,
      "coroutine": 6136,
      "ĠArguments": 6137,
      "}'],\\": 6138,
      "Ġstrictly": 6139,
      "Ġcoercion": 6140,
      "Ġrestrictions": 6141,
      "1234567890": 6142,
      "INSERTS": 6143,
      "'\\": 6144,
      "'..=": 6145,
      "/`": 6146,
      "></": 6147,
      "BL": 6148,
      "Bid": 6149,
      "Greater": 6150,
      "Properties": 6151,
      "Rust": 6152,
      "TH": 6153,
      "clo": 6154,
      "cold": 6155,
      "filled": 6156,
      "join": 6157,
      "mer": 6158,
      "ncontract": 6159,
      "nNote": 6160,
      "tmp": 6161,
      "rete": 6162,
      "\\\"))]\\": 6163,
      "ities": 6164,
      "Ġfence": 6165,
      "Ġclient": 6166,
      "Ġpeek": 6167,
      "liable": 6168,
      "constructor": 6169,
      "ĠCStr": 6170,
      "ĠFRAC": 6171,
      "veral": 6172,
      "lowance": 6173,
      "Ġwithdraw": 6174,
      "ĠPtr": 6175,
      "Ġ26": 6176,
      "plits": 6177,
      "ternally": 6178,
      "Ġresol": 6179,
      "Ġreserved": 6180,
      "ĠWAR": 6181,
      "Ġshares": 6182,
      "ĠLet": 6183,
      "amount": 6184,
      "Ġconcrete": 6185,
      "ĠHel": 6186,
      "Ġconcaten": 6187,
      "Ġexposed": 6188,
      "ATE": 6189,
      "unds": 6190,
      "counted": 6191,
      "Ġidentifier": 6192,
      "ORAGE": 6193,
      "ifically": 6194,
      "OVERNAN": 6195,
      "RangeFrom": 6196,
      "ĠTrustedFused": 6197,
      "ĠAoxcEvents": 6198,
      "Ġperforms": 6199,
      "Buffer": 6200,
      "Ġbuilding": 6201,
      "ĠProvenance": 6202,
      "UPS": 6203,
      "<_>>();\\": 6204,
      "Ġassuming": 6205,
      "ryptography": 6206,
      "Ġalternative": 6207,
      "ĠPrecompiledContracts": 6208,
      "OVERNANCE": 6209,
      "=`": 6210,
      "Create": 6211,
      "Log": 6212,
      "OFFSE": 6213,
      "Push": 6214,
      "`:": 6215,
      "ae": 6216,
      "je": 6217,
      "label": 6218,
      "nof": 6219,
      "oad": 6220,
      "pat": 6221,
      "wide": 6222,
      "zst": 6223,
      "itect": 6224,
      "Ġfetch": 6225,
      "anced": 6226,
      "Ġpow": 6227,
      "Ġpending": 6228,
      "arator": 6229,
      "]\\\\": 6230,
      "Ġinference": 6231,
      "Ġretain": 6232,
      "icograph": 6233,
      "Ġstop": 6234,
      "Ġda": 6235,
      "ĠFlatten": 6236,
      "Ġdeallocated": 6237,
      "Ġdevelo": 6238,
      "ĠThen": 6239,
      "Ġ$)": 6240,
      "Ġseveral": 6241,
      "Ġreserve": 6242,
      "Ġenv": 6243,
      "ibut": 6244,
      "ciiChar": 6245,
      "fine": 6246,
      "Ġabi": 6247,
      "ledge": 6248,
      "Ġvalidity": 6249,
      "comparison": 6250,
      "7739": 6251,
      "999": 6252,
      "150": 6253,
      "Ġcomment": 6254,
      "Example": 6255,
      "2981": 6256,
      "panicking": 6257,
      "ĠCORE": 6258,
      "Ġgood": 6259,
      "Pointee": 6260,
      "Ġcloned": 6261,
      "Ġverify": 6262,
      "Ġheader": 6263,
      "Allowance": 6264,
      "Ġfinished": 6265,
      "Ġ$(,": 6266,
      "patterns": 6267,
      "Ġreferenced": 6268,
      "FnMut": 6269,
      "Ġdestination": 6270,
      "Whitespace": 6271,
      "ĠValues": 6272,
      "ietf": 6273,
      "Ġconflict": 6274,
      "Ġdecimals": 6275,
      "ĠLocal": 6276,
      "FFFD": 6277,
      "ĠNANOS": 6278,
      "PAIR": 6279,
      "extensions": 6280,
      "')));\\": 6281,
      "Done": 6282,
      "Mult": 6283,
      "cs": 6284,
      "tp": 6285,
      "top": 6286,
      "there": 6287,
      "title": 6288,
      "uctions": 6289,
      "vant": 6290,
      "stand": 6291,
      "Ġcrit": 6292,
      "Ġcold": 6293,
      "Ġbar": 6294,
      "Ġmoves": 6295,
      "()))": 6296,
      "Ġways": 6297,
      "def": 6298,
      "Ġinfinity": 6299,
      "Ġreal": 6300,
      "ulation": 6301,
      "lier": 6302,
      "Ġletters": 6303,
      "otprint": 6304,
      "ĠIs": 6305,
      "chitect": 6306,
      "Ġ[`&": 6307,
      "Ġgot": 6308,
      "Ġdete": 6309,
      "Ġdelegate": 6310,
      "Ġfunctionality": 6311,
      "user": 6312,
      "**:": 6313,
      "Infallible": 6314,
      "though": 6315,
      "ĠWrite": 6316,
      "ĠLO": 6317,
      "amb": 6318,
      "capture": 6319,
      "Ġcontiguous": 6320,
      "such": 6321,
      "subnormal": 6322,
      "Refund": 6323,
      "3412": 6324,
      "Ġopen": 6325,
      "pending": 6326,
      "signers": 6327,
      "TypeId": 6328,
      "crease": 6329,
      "footprint": 6330,
      "spender": 6331,
      "Search": 6332,
      "58533": 6333,
      "Ġdirectory": 6334,
      "Ġfeatures": 6335,
      "DEFAULT": 6336,
      "Ġâī": 6337,
      "UintOverflow": 6338,
      "Ġhighest": 6339,
      "Ġtransfers": 6340,
      "Ġportability": 6341,
      "cently": 6342,
      "ABLE": 6343,
      "Ġsatisfy": 6344,
      "Ġshrink": 6345,
      "ĠSocketAddrV": 6346,
      "ĠproposalId": 6347,
      "oyalty": 6348,
      "Ġrespons": 6349,
      "Ġdistinct": 6350,
      "ĠConsumes": 6351,
      "dependent": 6352,
      "Do": 6353,
      "LI": 6354,
      "SS": 6355,
      "Veto": 6356,
      "]`,": 6357,
      "gt": 6358,
      "group": 6359,
      "nC": 6360,
      "nomicon": 6361,
      "oison": 6362,
      "xF": 6363,
      "xffff": 6364,
      "},": 6365,
      "including": 6366,
      "receipt": 6367,
      "reliable": 6368,
      "\\\");": 6369,
      "sel": 6370,
      "alone": 6371,
      "Ġ\\\"../": 6372,
      "Ġph": 6373,
      "ssages": 6374,
      "trics": 6375,
      "ĠSkip": 6376,
      "Ġide": 6377,
      "Ġvot": 6378,
      "igr": 6379,
      "chr": 6380,
      "Ġassertion": 6381,
      "Ġunaligned": 6382,
      "`]:\\": 6383,
      "Ġalloy": 6384,
      "Ġgen": 6385,
      "umeric": 6386,
      "Ġnest": 6387,
      "Ġdeallocate": 6388,
      "Ġyul": 6389,
      "ersion": 6390,
      "ĠMem": 6391,
      "exclusive": 6392,
      "Ġ55": 6393,
      "Ġlib": 6394,
      "Ġprefer": 6395,
      "Ġpreced": 6396,
      "Ġelt": 6397,
      "amically": 6398,
      "ambig": 6399,
      "Ġevents": 6400,
      "Ġsuggest": 6401,
      "Ġ/=": 6402,
      "ĠAllocates": 6403,
      "Ġinteract": 6404,
      ")?)": 6405,
      "Ġdiff": 6406,
      "198": 6407,
      "Ġactive": 6408,
      "Ġgoes": 6409,
      "aves": 6410,
      "Ġdivis": 6411,
      "ART": 6412,
      "ĠAddr": 6413,
      "Valid": 6414,
      "xadecimal": 6415,
      "Ġreceived": 6416,
      "Ġdestroy": 6417,
      "ABA": 6418,
      "sensus": 6419,
      "contiguous": 6420,
      "ĠCursorMut": 6421,
      "CursorMut": 6422,
      "Ġassets": 6423,
      "LocalWaker": 6424,
      "Ġdeadline": 6425,
      "classify": 6426,
      "FLAG": 6427,
      "necessary": 6428,
      "Ġinstructions": 6429,
      "UPSUpgradeable": 6430,
      "!\\\",": 6431,
      "#.": 6432,
      "/``": 6433,
      "AO": 6434,
      "ASCII": 6435,
      "Colle": 6436,
      "EN": 6437,
      "Flashblock": 6438,
      "MultiSignerERC": 6439,
      "One": 6440,
      "RT": 6441,
      "Util": 6442,
      "body": 6443,
      "ear": 6444,
      "ging": 6445,
      "zz": 6446,
      "receiver": 6447,
      "reduce": 6448,
      "Ġcx": 6449,
      "Ġcopies": 6450,
      "anumeric": 6451,
      "Ġoct": 6452,
      "Ġmis": 6453,
      "Ġinherent": 6454,
      "Ġnormally": 6455,
      "Ġtokio": 6456,
      "Ġether": 6457,
      "ĠAST": 6458,
      "conf": 6459,
      "ĠFlashblocks": 6460,
      "verage": 6461,
      "ĠNew": 6462,
      "ĠPlease": 6463,
      "Ġ}.": 6464,
      "Ġmutation": 6465,
      "ĠDer": 6466,
      "ĠVacant": 6467,
      "ĠUR": 6468,
      "ĠWrit": 6469,
      "ĠWTF": 6470,
      "Ġmembers": 6471,
      "ĠonlyRole": 6472,
      "::<\\\",": 6473,
      "INY": 6474,
      ">`.": 6475,
      "assing": 6476,
      "shot": 6477,
      "clude": 6478,
      "private": 6479,
      "Rece": 6480,
      "IDE": 6481,
      "192": 6482,
      "asks": 6483,
      "CodePoint": 6484,
      "Ġ125": 6485,
      "ĠStandard": 6486,
      "598": 6487,
      "Ġhelper": 6488,
      "midpoint": 6489,
      "Ġdetermined": 6490,
      "Ġhandling": 6491,
      "ĠBuild": 6492,
      "Ġrefers": 6493,
      "links": 6494,
      "UNS": 6495,
      "Ġdowncast": 6496,
      "POS": 6497,
      "ĠBitOr": 6498,
      "roleId": 6499,
      "Ġdistance": 6500,
      "Ġlookup": 6501,
      "Ġassumes": 6502,
      "RawVec": 6503,
      "Ġ41943": 6504,
      "ðŁĴ©": 6505,
      "000000000000000000000000000000000000000000000000000000000000000": 6506,
      "nYou": 6507,
      "OutOf": 6508,
      "Ġtypically": 6509,
      "Interface": 6510,
      "Ġconcerns": 6511,
      "ĠInsert": 6512,
      "ĠSimilar": 6513,
      "Decoded": 6514,
      ">`][": 6515,
      "Bl": 6516,
      "Case": 6517,
      "My": 6518,
      "Mod": 6519,
      "Scalar": 6520,
      "Ver": 6521,
      "]\\\",\\": 6522,
      "]>::": 6523,
      "`;\\": 6524,
      "`/`": 6525,
      "cher": 6526,
      "cending": 6527,
      "cryptography": 6528,
      "scheduler": 6529,
      "Ġten": 6530,
      "Ġach": 6531,
      "reg": 6532,
      "levant": 6533,
      "sequence": 6534,
      "Ġsa": 6535,
      "Ġsized": 6536,
      "ank": 6537,
      "Ġmer": 6538,
      "deallocate": 6539,
      "icult": 6540,
      "ĠST": 6541,
      "Ġest": 6542,
      "uri": 6543,
      "ulate": 6544,
      "adapters": 6545,
      "Ġ112": 6546,
      "ĠCan": 6547,
      "Ġho": 6548,
      "ĠOptim": 6549,
      "ecur": 6550,
      "omestead": 6551,
      "ĠVa": 6552,
      "ĠUsed": 6553,
      "ĠMut": 6554,
      "ĠMore": 6555,
      "ĠMultiSignerERC": 6556,
      "Ġpreserve": 6557,
      "residual": 6558,
      "Ġ77": 6559,
      "MAL": 6560,
      "assoc": 6561,
      "ĠUnchecked": 6562,
      "Ġassumpt": 6563,
      "Registry": 6564,
      "copysign": 6565,
      "create": 6566,
      "ĠAdditionally": 6567,
      "Ġquiet": 6568,
      "Ġesc": 6569,
      "ooks": 6570,
      "Ġhigher": 6571,
      "Ġplaces": 6572,
      ")``:": 6573,
      "Managed": 6574,
      "Ġ(&'": 6575,
      "ĠEntry": 6576,
      "Ġendianness": 6577,
      "Ġviolated": 6578,
      "needle": 6579,
      "high": 6580,
      "Ġdenominator": 6581,
      "Ġcleanup": 6582,
      "Ġdeclarations": 6583,
      "napshot": 6584,
      "Ġachie": 6585,
      "2001": 6586,
      "EL": 6587,
      "Failed": 6588,
      "QRT": 6589,
      "Root": 6590,
      "]).": 6591,
      "dates": 6592,
      "graph": 6593,
      "packed": 6594,
      "slash": 6595,
      "will": 6596,
      "Ã¶": 6597,
      "Ġ###": 6598,
      "Ġaway": 6599,
      "ited": 6600,
      "Ġ\\\"{": 6601,
      "Ġ\\\"\\\",\\": 6602,
      "Ġmed": 6603,
      "Ġwide": 6604,
      "ĠSeqCst": 6605,
      "Ġ([`": 6606,
      "Ġconcept": 6607,
      "Ġconvenience": 6608,
      "Ġconsume": 6609,
      "00000": 6610,
      "Ġmutably": 6611,
      "Ġ``/": 6612,
      "6469": 6613,
      "acing": 6614,
      "ĠDatabase": 6615,
      "iven": 6616,
      "121": 6617,
      "threshold": 6618,
      "ĠWindows": 6619,
      "ĠConst": 6620,
      "Ġremoves": 6621,
      "curity": 6622,
      "Nonces": 6623,
      "Ġsubject": 6624,
      "ĠStrict": 6625,
      "ifts": 6626,
      "====================": 6627,
      "\\\")));\\": 6628,
      "exponent": 6629,
      "ĠDoes": 6630,
      "ACITY": 6631,
      "Ġnumeric": 6632,
      "IPv": 6633,
      "Ġsignatures": 6634,
      "APACITY": 6635,
      "Ġseparated": 6636,
      "Ġdepends": 6637,
      "Ġlanguages": 6638,
      "rosschain": 6639,
      "Ġproblems": 6640,
      "generic": 6641,
      "<_>>(),": 6642,
      "ĠDecode": 6643,
      "Ġexceeds": 6644,
      "Ġexplain": 6645,
      "AtomicUsize": 6646,
      "ĠReverseSearcher": 6647,
      "')": 6648,
      "*(*": 6649,
      "530": 6650,
      "BASE": 6651,
      "Eip": 6652,
      "Multi": 6653,
      "Sp": 6654,
      "SIDE": 6655,
      "]``": 6656,
      "cp": 6657,
      "iation": 6658,
      "nE": 6659,
      "nn": 6660,
      "ntrait": 6661,
      "pet": 6662,
      "tdynamicGas": 6663,
      "ulo": 6664,
      "Ġtwice": 6665,
      "recently": 6666,
      "unlikely": 6667,
      "Ġsqrt": 6668,
      "Ġsquare": 6669,
      "Ġtowards": 6670,
      "ĠTwo": 6671,
      "Ġded": 6672,
      "Ġ*(": 6673,
      "chg": 6674,
      "ĠCom": 6675,
      "ĠCoerce": 6676,
      "ĠCopies": 6677,
      "ĠFound": 6678,
      "ĠFurthermore": 6679,
      "aka": 6680,
      "Ġ}),\\": 6681,
      "iron": 6682,
      "ĠMax": 6683,
      "Ġresource": 6684,
      "ERGE": 6685,
      "than": 6686,
      "Ġattribute": 6687,
      "Ġchoose": 6688,
      "Ġchannel": 6689,
      "FECT": 6690,
      "ĠOptional": 6691,
      "vice": 6692,
      "shortest": 6693,
      "Ġhexadecimal": 6694,
      "Ġmaybe": 6695,
      "GasEIP": 6696,
      "GasUintOverflow": 6697,
      "ghost": 6698,
      "llvm": 6699,
      "ArcInner": 6700,
      "IDENTITY": 6701,
      "Ġsubslices": 6702,
      "Ġsparkle": 6703,
      "Only": 6704,
      "ĠRangeFrom": 6705,
      "ĠPointer": 6706,
      "Ġhello": 6707,
      "Ġinvalidate": 6708,
      "Ġimpro": 6709,
      "ĠSealed": 6710,
      "physical": 6711,
      "}`\\\",\\": 6712,
      "143775": 6713,
      "genesis": 6714,
      "Ġeffects": 6715,
      "optimism": 6716,
      "Ġfailures": 6717,
      "Ġfloor": 6718,
      "HAVE": 6719,
      "Ġdefinitions": 6720,
      "Ġprimitives": 6721,
      "Ġopcodes": 6722,
      "Ġunwinding": 6723,
      "alphabetic": 6724,
      "alphanumeric": 6725,
      "highest": 6726,
      "ĠResidual": 6727,
      "Active": 6728,
      "ĠOwned": 6729,
      "SocketAddrV": 6730,
      "EFFECT": 6731,
      "Ġ`?`": 6732,
      "ITIVE": 6733,
      "nWhen": 6734,
      "selves": 6735,
      "POSITIVE": 6736,
      "ĠInserts": 6737,
      "')\\": 6738,
      ">`]:": 6739,
      "ANT": 6740,
      "Can": 6741,
      "Circuit": 6742,
      "Oper": 6743,
      "Position": 6744,
      "Te": 6745,
      "TINY": 6746,
      "eys": 6747,
      "little": 6748,
      "âĪ": 6749,
      "Ġ]);\\": 6750,
      "Ġlines": 6751,
      "Ġflow": 6752,
      "Ġfix": 6753,
      "encing": 6754,
      "encoded": 6755,
      "Ġslow": 6756,
      "ctype": 6757,
      "Ġincluded": 6758,
      "``,\\": 6759,
      "Ġstage": 6760,
      "ayer": 6761,
      "Ġ&$": 6762,
      "ĠFuse": 6763,
      "constants": 6764,
      "Ġneural": 6765,
      "Ġrfold": 6766,
      "ĠBook": 6767,
      "117": 6768,
      "ĠExtractIf": 6769,
      "ivity": 6770,
      "Ġlamb": 6771,
      "Ġtrim": 6772,
      "extern": 6773,
      "ĠWorld": 6774,
      "IterInner": 6775,
      "Ġcompatibility": 6776,
      "nother": 6777,
      "pecially": 6778,
      "ardfork": 6779,
      "Consecutive": 6780,
      "structure": 6781,
      "ErrorCode": 6782,
      "136469": 6783,
      "Ġmessages": 6784,
      "Ġsignaling": 6785,
      "sufficient": 6786,
      "Ġvariants": 6787,
      "Ġsets": 6788,
      "Ġjob": 6789,
      "FromIterator": 6790,
      "Ġ)?": 6791,
      "maximum": 6792,
      "Ġcoroutine": 6793,
      "leted": 6794,
      "Ġtrying": 6795,
      "Signers": 6796,
      "Ġborrows": 6797,
      "ĠRelease": 6798,
      "Ġwanted": 6799,
      "nAs": 6800,
      "powi": 6801,
      "Ġfinish": 6802,
      "Ġeverything": 6803,
      "Tokens": 6804,
      "Ġlimited": 6805,
      "Arg": 6806,
      "MemSize": 6807,
      "ĠRefMut": 6808,
      "ĠBorrowed": 6809,
      "object": 6810,
      "Ġloads": 6811,
      "Asset": 6812,
      "Ġinvol": 6813,
      "Ġ`-`": 6814,
      "Ġportion": 6815,
      "double": 6816,
      "Ġcareful": 6817,
      "usables": 6818,
      "ategy": 6819,
      "Ġcomputation": 6820,
      "ĦâĶĦâĶĦâĶĦâĶ": 6821,
      "~~~~": 6822,
      "original": 6823,
      "Ġwriter": 6824,
      "ĠCodePoint": 6825,
      "ĠRequiredGas": 6826,
      "TrustedLen": 6827,
      "Ġenviron": 6828,
      "chitecture": 6829,
      "Utils": 6830,
      "confusables": 6831,
      "Received": 6832,
      "480": 6833,
      ":**": 6834,
      ">;": 6835,
      "Burn": 6836,
      "Evm": 6837,
      "Full": 6838,
      "Im": 6839,
      "Rem": 6840,
      "SORT": 6841,
      "];": 6842,
      "aired": 6843,
      "aÃ©": 6844,
      "bstract": 6845,
      "dc": 6846,
      "nB": 6847,
      "smart": 6848,
      "}.": 6849,
      "Ġ../": 6850,
      "Ġtaking": 6851,
      "seq": 6852,
      "ordering": 6853,
      "iting": 6854,
      "Ġfused": 6855,
      "aly": 6856,
      "encoding": 6857,
      "Ġburn": 6858,
      "Ġpadded": 6859,
      "arithm": 6860,
      "delegate": 6861,
      "Ġinf": 6862,
      "Ġred": 6863,
      "Ġleave": 6864,
      "Ġ[-": 6865,
      "``):": 6866,
      "ĠAN": 6867,
      "idge": 6868,
      "Ġdeleg": 6869,
      "Ġrule": 6870,
      "checker": 6871,
      "effect": 6872,
      "exus": 6873,
      "Ġprecompile": 6874,
      "Ġshow": 6875,
      "allocating": 6876,
      ")))": 6877,
      "Ġ689": 6878,
      "133": 6879,
      "Ġmapped": 6880,
      "Ġ&[_": 6881,
      "Ġinstall": 6882,
      "ATIC": 6883,
      "provider": 6884,
      "Reject": 6885,
      "Receipt": 6886,
      "ifications": 6887,
      "Ġremains": 6888,
      "Ġ...,": 6889,
      "Byzantium": 6890,
      "expression": 6891,
      "Ġreasons": 6892,
      "Ġlogarithm": 6893,
      "Ġeventually": 6894,
      "Ġmappings": 6895,
      "URAL": 6896,
      "Ġspecialization": 6897,
      "2200": 6898,
      "ĠChecked": 6899,
      "Ġinvoc": 6900,
      "disable": 6901,
      "Ġportable": 6902,
      "ĠImplementing": 6903,
      "ĠImplementation": 6904,
      "ĠAtomicPtr": 6905,
      "Ġentirely": 6906,
      "ĠAttemp": 6907,
      "Ġeasily": 6908,
      "ndefine": 6909,
      "Ġraces": 6910,
      "ĠTrait": 6911,
      "Pairing": 6912,
      "Ġgenesis": 6913,
      "Ġnested": 6914,
      ")`]:": 6915,
      "<*": 6916,
      "Async": 6917,
      "AcqRel": 6918,
      "LD": 6919,
      "Sort": 6920,
      "Vault": 6921,
      "aut": 6922,
      "dices": 6923,
      "funnel": 6924,
      "lished": 6925,
      "ming": 6926,
      "mint": 6927,
      "rift": 6928,
      "uations": 6929,
      "va": 6930,
      "Ġ());\\": 6931,
      "\\\"``": 6932,
      "atSpec": 6933,
      "hemat": 6934,
      "Ġcached": 6935,
      "Ġsz": 6936,
      "Ġbro": 6937,
      "Ġplease": 6938,
      "Ġwish": 6939,
      "Ġinternally": 6940,
      "Ġreceipt": 6941,
      "ulError": 6942,
      "Ġ[*": 6943,
      "Ġforce": 6944,
      "Ġ*[": 6945,
      "Ġunexpected": 6946,
      "nex": 6947,
      "ĠFile": 6948,
      "Ġascending": 6949,
      "ĠOR": 6950,
      "Ġdeq": 6951,
      "Ġrc": 6952,
      "Ġconstra": 6953,
      "imate": 6954,
      "ĠMin": 6955,
      "ĠMult": 6956,
      "ĠMoves": 6957,
      "Ġcompatible": 6958,
      "minimum": 6959,
      "ested": 6960,
      "ĠGuard": 6961,
      "cour": 6962,
      "Ġexpensive": 6963,
      "Ġsignal": 6964,
      "ĠKV": 6965,
      "process": 6966,
      "ECDSA": 6967,
      "SetBytes": 6968,
      "ReentrancyGuard": 6969,
      "Ġappear": 6970,
      "RcInner": 6971,
      "ĠErrGasUintOverflow": 6972,
      "Ġequals": 6973,
      "Ġdocument": 6974,
      "borrowed": 6975,
      "Ġaccessing": 6976,
      "Ġexecutor": 6977,
      "fixed": 6978,
      "Ġoverridden": 6979,
      "Ġmatched": 6980,
      "Ġdivide": 6981,
      "muteFrom": 6982,
      "ĠAddress": 6983,
      "ĠToOwned": 6984,
      "LOT": 6985,
      "currently": 6986,
      "binop": 6987,
      "cannot": 6988,
      "Ġsuccessful": 6989,
      "Ġderive": 6990,
      "Ġchaining": 6991,
      "Ġbalances": 6992,
      "Ġtermin": 6993,
      "Ġprobably": 6994,
      "################": 6995,
      "balances": 6996,
      "Ġconstructed": 6997,
      "OPY": 6998,
      "Precompiled": 6999,
      "ĠFunctions": 7000,
      "ĠDispatchFromDyn": 7001,
      "ĠLazyCell": 7002,
      "ĠLazyLeaf": 7003,
      "Approval": 7004,
      "Ġsucceeds": 7005,
      "Ġ)*)\\": 7006,
      "Ġerc": 7007,
      "Ġintroduc": 7008,
      "Message": 7009,
      "model": 7010,
      "Ġrender": 7011,
      "Ġdetect": 7012,
      "igration": 7013,
      "').": 7014,
      ")``\\": 7015,
      "Empty": 7016,
      "Pure": 7017,
      "Use": 7018,
      "Xor": 7019,
      "ZERO": 7020,
      "but": 7021,
      "display": 7022,
      "fence": 7023,
      "gre": 7024,
      "ises": 7025,
      "oost": 7026,
      "padding": 7027,
      "uched": 7028,
      "ym": 7029,
      "Ġque": 7030,
      "Ġ];\\": 7031,
      "Ŀ¤": 7032,
      "ery": 7033,
      "stant": 7034,
      "orph": 7035,
      "itness": 7036,
      "Ġfore": 7037,
      "Ġfall": 7038,
      "Ġ`..": 7039,
      "ings": 7040,
      "arant": 7041,
      "Ġreachable": 7042,
      "ĠSimple": 7043,
      "Ġearly": 7044,
      "eters": 7045,
      "otorg": 7046,
      "Ġforget": 7047,
      "olate": 7048,
      "Ġbegin": 7049,
      "convenience": 7050,
      "teger": 7051,
      "ĠEqu": 7052,
      "ĠEach": 7053,
      "ĠFin": 7054,
      "ĠFilter": 7055,
      "very": 7056,
      "Ġgcd": 7057,
      "ackage": 7058,
      "Ġneither": 7059,
      "Ġdesign": 7060,
      "period": 7061,
      "Ġrisk": 7062,
      "Ġ++": 7063,
      "Ġ_)|": 7064,
      "ĠData": 7065,
      "ĠUtf": 7066,
      "563412": 7067,
      "ĠMay": 7068,
      "external": 7069,
      "Ġcomponent": 7070,
      "Ġcomparing": 7071,
      "Ġpreferred": 7072,
      "ĠĠĠĠĠĠĠĠĠĠĠĠĠĠĠĠĠĠĠĠĠĠĠĠ": 7073,
      "1363": 7074,
      "Ġ1024": 7075,
      "stringify": 7076,
      "prove": 7077,
      "Ġjoin": 7078,
      "intersection": 7079,
      "txn": 7080,
      "ĠAnd": 7081,
      "significant": 7082,
      "301": 7083,
      "Length": 7084,
      "Ġthemselves": 7085,
      "Ġseconds": 7086,
      "Ġwhenever": 7087,
      "Ġhandles": 7088,
      "BuilderCtx": 7089,
      "ĠSpecial": 7090,
      "Ġmagnitude": 7091,
      "ĠNodeType": 7092,
      "entries": 7093,
      "Ġmidpoint": 7094,
      "Ġrotate": 7095,
      "numeric": 7096,
      "ĠCharacter": 7097,
      "Ġ8080": 7098,
      "Ġnamed": 7099,
      "Ġsimplif": 7100,
      "Ġstructures": 7101,
      "TransactionError": 7102,
      "scale": 7103,
      "Ġtruncated": 7104,
      "ĠCoroutine": 7105,
      "Ġsituations": 7106,
      "Ġrestricted": 7107,
      "Ġsynchronization": 7108,
      "ovian": 7109,
      "ĠEXP": 7110,
      "Ġstandalone": 7111,
      "ĠMemory": 7112,
      "ĠWrites": 7113,
      "ecurity": 7114,
      "ĠCoerceUnsized": 7115,
      "Ġenvironment": 7116,
      "Ġinvocation": 7117,
      "(!": 7118,
      "*.\\": 7119,
      ".$": 7120,
      ">]": 7121,
      "Batch": 7122,
      "Es": 7123,
      "NN": 7124,
      "Occupied": 7125,
      "Param": 7126,
      "RN": 7127,
      "TI": 7128,
      "TO": 7129,
      "_)": 7130,
      "both": 7131,
      "cv": 7132,
      "lazy": 7133,
      "packet": 7134,
      "ridge": 7135,
      "sz": 7136,
      "wer": 7137,
      "wtf": 7138,
      "ream": 7139,
      "replaced": 7140,
      "Ġfu": 7141,
      "utility": 7142,
      "Ġbash": 7143,
      "()[": 7144,
      "Ġindiv": 7145,
      "fetime": 7146,
      "Ġreset": 7147,
      "Ġreduce": 7148,
      "Ġnet": 7149,
      "esc": 7150,
      "icro": 7151,
      "Ġip": 7152,
      "ĠTuple": 7153,
      "Ġannot": 7154,
      "Ġstatus": 7155,
      "Ġdistr": 7156,
      "Ġdormant": 7157,
      "pex": 7158,
      "Ġassertions": 7159,
      "Ġunsized": 7160,
      "lowest": 7161,
      "Ġexhausted": 7162,
      "Ġgreate": 7163,
      "ĠPar": 7164,
      "Ġ}};\\": 7165,
      "Ġ``\\\"": 7166,
      "ĠDifference": 7167,
      "Ġlhs": 7168,
      "ĠMod": 7169,
      "ĠMake": 7170,
      "ĠMulti": 7171,
      "Ġ|=": 7172,
      "Ġresolve": 7173,
      "ĠWaker": 7174,
      ">>\\": 7175,
      ">>>,\\": 7176,
      "ITH": 7177,
      "ANCE": 7178,
      "MALL": 7179,
      "formed": 7180,
      "Ġ&[]);\\": 7181,
      "ĠUnsigned": 7182,
      "Ġintegr": 7183,
      "ovariant": 7184,
      "weight": 7185,
      "Ġordered": 7186,
      "STATIC": 7187,
      "1559": 7188,
      "Ġconsistent": 7189,
      "Ġpercent": 7190,
      "Ġcounts": 7191,
      "TURN": 7192,
      "ours": 7193,
      "]></": 7194,
      "Ġdisplay": 7195,
      "magnitude": 7196,
      "Sealed": 7197,
      "ĠStart": 7198,
      "ĠChain": 7199,
      "ucd": 7200,
      "formatting": 7201,
      "AtomicI": 7202,
      "memorySize": 7203,
      "Ġhandler": 7204,
      "argotorg": 7205,
      "Ġeffectively": 7206,
      "Ġauto": 7207,
      "ĠImplementations": 7208,
      "interfaceId": 7209,
      "Ġcoef": 7210,
      "ĠIntersection": 7211,
      "ActualT": 7212,
      "LOGIC": 7213,
      "Ġscheduled": 7214,
      "Ġencounter": 7215,
      "Ġdiscard": 7216,
      "TrivialClone": 7217,
      "ShortCircuit": 7218,
      "BLS": 7219,
      "OFFSET": 7220,
      "Ġ$(,)?)": 7221,
      "Ġgreatest": 7222,
      ".\\\"\\": 7223,
      "984": 7224,
      ">.": 7225,
      "BD": 7226,
      "Cl": 7227,
      "Dst": 7228,
      "Element": 7229,
      "Func": 7230,
      "Over": 7231,
      "Phantom": 7232,
      "Packed": 7233,
      "RUNS": 7234,
      "TBD": 7235,
      "Word": 7236,
      "^\\": 7237,
      "bet": 7238,
      "blem": 7239,
      "basic": 7240,
      "gment": 7241,
      "iased": 7242,
      "mixed": 7243,
      "void": 7244,
      "¸ı": 7245,
      "ï¸ı": 7246,
      "Ġlf": 7247,
      "Ġrust": 7248,
      "ĠXLAYER": 7249,
      "unbounded": 7250,
      "Ġbin": 7251,
      "Ġreached": 7252,
      "ĠSI": 7253,
      "rounded": 7254,
      "ĠArray": 7255,
      "chn": 7256,
      "conversion": 7257,
      "ĠCast": 7258,
      "ĠExt": 7259,
      "acklist": 7260,
      "rrays": 7261,
      "orts": 7262,
      "ĠVM": 7263,
      "ĠVari": 7264,
      "ĠMul": 7265,
      "ĠMove": 7266,
      "Indices": 7267,
      "execute": 7268,
      "Ġoverlapping": 7269,
      "Ġshorter": 7270,
      "Ġentr": 7271,
      "gnu": 7272,
      "ames": 7273,
      "Ġcontin": 7274,
      "istically": 7275,
      "ĠContract": 7276,
      "Ġended": 7277,
      "Ġloops": 7278,
      "ONE": 7279,
      "Ġinitializing": 7280,
      "Reverse": 7281,
      "])*\\": 7282,
      "STORAGE": 7283,
      "()`.": 7284,
      "Updated": 7285,
      "Ġbackwards": 7286,
      "MINUS": 7287,
      "cessed": 7288,
      "script": 7289,
      "Ġcorrectness": 7290,
      "Ġespecially": 7291,
      "Ġshifting": 7292,
      "ADD": 7293,
      "Ġlifetimes": 7294,
      "ĠSpecExtend": 7295,
      "runtime": 7296,
      "encodePacked": 7297,
      "ĠinterfaceId": 7298,
      "bigint": 7299,
      "ĠBuf": 7300,
      "entrant": 7301,
      "Ġincrease": 7302,
      "ĠImplements": 7303,
      "FnOnce": 7304,
      "Ġstatically": 7305,
      "Ġcalculation": 7306,
      "Ġlinear": 7307,
      "scend": 7308,
      "loopback": 7309,
      "ðŁĴĸ": 7310,
      "Ġcombined": 7311,
      "Ġignored": 7312,
      "symbol": 7313,
      "Ġdeployed": 7314,
      "Ġcompletely": 7315,
      "cxchg": 7316,
      "!(\\\"[`\\\",": 7317,
      "considered": 7318,
      "Ġmedian": 7319,
      "ĠEquivalent": 7320,
      "between": 7321,
      ")*\\": 7322,
      "-_": 7323,
      "Custom": 7324,
      "Clear": 7325,
      "Hardfork": 7326,
      "See": 7327,
      "Sstore": 7328,
      "Sentinel": 7329,
      "SLOT": 7330,
      "Voice": 7331,
      "fort": 7332,
      "flt": 7333,
      "gap": 7334,
      "may": 7335,
      "nH": 7336,
      "nwhich": 7337,
      "son": 7338,
      "system": 7339,
      "tinstructionSet": 7340,
      "}\\\"),": 7341,
      "request": 7342,
      "atter": 7343,
      "ories": 7344,
      "Ġmstore": 7345,
      "()`].\\": 7346,
      "Ġinclusive": 7347,
      "Ġredu": 7348,
      "Ġleaves": 7349,
      "ĠSip": 7350,
      "Ġvolatile": 7351,
      "Ġconsequence": 7352,
      "ĠNever": 7353,
      "....": 7354,
      "Ġgroup": 7355,
      "ople": 7356,
      "iters": 7357,
      "Ġ_|": 7358,
      "ĠDyn": 7359,
      "andshake": 7360,
      "Ġ$(\\": 7361,
      "Ġ426": 7362,
      "Ġcallback": 7363,
      "Input": 7364,
      "Ġchose": 7365,
      "Ġchoice": 7366,
      "Selfdestruct": 7367,
      "FEE": 7368,
      "putation": 7369,
      "Ġshare": 7370,
      "ĠĠĠĠĠĠĠĠĠĠĠĠĠĠĠĠĠĠĠĠĠĠĠĠĠĠĠĠĠĠĠĠĠĠĠ": 7371,
      "ĠĠĠĠĠĠĠĠĠĠĠĠĠĠĠĠĠĠĠĠĠĠĠĠĠĠ": 7372,
      "aveat": 7373,
      ">>(&": 7374,
      "--------------------": 7375,
      ">(())\\": 7376,
      "Ġ687": 7377,
      "Ġmodifications": 7378,
      "Ġanymore": 7379,
      "142": 7380,
      "ALI": 7381,
      "eparator": 7382,
      "<&[": 7383,
      "Ġexpand": 7384,
      "otection": 7385,
      "licing": 7386,
      "product": 7387,
      "collection": 7388,
      "Mapping": 7389,
      "intervals": 7390,
      "variables": 7391,
      "Ġsubtract": 7392,
      "Ġsubsequent": 7393,
      "ĠopSwap": 7394,
      "Ġlocations": 7395,
      "space": 7396,
      "scratch": 7397,
      "Ġfutures": 7398,
      "ension": 7399,
      "cyclic": 7400,
      "Ġverification": 7401,
      "ValZST": 7402,
      "++++": 7403,
      "Ġknowledge": 7404,
      "Ownable": 7405,
      "}`\\\"\\": 7406,
      "Ġspecifically": 7407,
      "gency": 7408,
      "ĠAPIs": 7409,
      "AccessControlDefaultAdminRules": 7410,
      "Ġprevented": 7411,
      "Ġdefines": 7412,
      "flattened": 7413,
      "ĠTrivialClone": 7414,
      "CostEIP": 7415,
      "SwapStack": 7416,
      "Ġadvanced": 7417,
      "Authority": 7418,
      "Ġcheaper": 7419,
      "uditVoice": 7420,
      "ĠNEURAL": 7421,
      "DupStack": 7422,
      "closure": 7423,
      "Ġqueue": 7424,
      "Ġentries": 7425,
      "CustomRevert": 7426,
      "->": 7427,
      "1000": 7428,
      "429": 7429,
      "=``,": 7430,
      "={}": 7431,
      ">()\\": 7432,
      "Bridge": 7433,
      "GAT": 7434,
      "GOVERNANCE": 7435,
      "Lower": 7436,
      "MOD": 7437,
      "NER": 7438,
      "Pool": 7439,
      "Royalty": 7440,
      "Wake": 7441,
      "cun": 7442,
      "hi": 7443,
      "host": 7444,
      "ilen": 7445,
      "ng": 7446,
      "ris": 7447,
      "riskScore": 7448,
      "vis": 7449,
      "yield": 7450,
      "rew": 7451,
      "\\\"];\\": 7452,
      "searcher": 7453,
      "segments": 7454,
      "Ġflt": 7455,
      "Ġcol": 7456,
      "Ġcache": 7457,
      "Ġ`\\\"": 7458,
      "Ġsay": 7459,
      "Ġ\\\">::": 7460,
      "ctor": 7461,
      "ĠSu": 7462,
      "ĠSigned": 7463,
      "ĠSMALL": 7464,
      "Ġdl": 7465,
      "Ġdays": 7466,
      "),*": 7467,
      "Ġunknown": 7468,
      "ĠRequest": 7469,
      "ĠFind": 7470,
      "ĠFail": 7471,
      "ĠFlashblock": 7472,
      "iff": 7473,
      "Ġgrant": 7474,
      "percent": 7475,
      "Ġ_>": 7476,
      "Ġadds": 7477,
      "Ġelementwise": 7478,
      "Ġlive": 7479,
      "NTER": 7480,
      "Ġproject": 7481,
      "ancell": 7482,
      "![]);\\": 7483,
      ")))\\": 7484,
      "::<(),": 7485,
      "Addresses": 7486,
      "LEGAT": 7487,
      "Ġ63": 7488,
      "Ġlot": 7489,
      "ECALL": 7490,
      "ously": 7491,
      "Ġminimal": 7492,
      "Exclusive": 7493,
      "Ġgenerates": 7494,
      "Ġpermiss": 7495,
      "ToString": 7496,
      ")?.": 7497,
      "osecond": 7498,
      "308": 7499,
      "ĠmakePush": 7500,
      "EMENT": 7501,
      "ĠRangeTo": 7502,
      "Ġoverriding": 7503,
      "Ġlogical": 7504,
      "ava": 7505,
      "Ġintention": 7506,
      "(&['": 7507,
      "Ġimpossible": 7508,
      "Ġconsumes": 7509,
      "Ġdescription": 7510,
      "Ġplaceholder": 7511,
      "Values": 7512,
      "Ġtransferred": 7513,
      "ĠDropGuard": 7514,
      "Ġdynamically": 7515,
      "Ġbreaking": 7516,
      "Ġinvoked": 7517,
      "builtins": 7518,
      "Ġreplacement": 7519,
      "Ġterminator": 7520,
      "general": 7521,
      "Ġunlikely": 7522,
      "Ġbenchmark": 7523,
      "âĶĢâĶĢâĶĢâĶĢâĶĢâĶĢâĶĢâĶĢâĶĢâĶĢâĶĢâĶĢâĶĢâĶĢâĶĢâĶĢ": 7524,
      "Ġpreconditions": 7525,
      "Ġdeclaration": 7526,
      "ĠPayloadBuilderError": 7527,
      "Ġpurposes": 7528,
      "Ġadjac": 7529,
      "Ġmultiply": 7530,
      "ĠRChunksExact": 7531,
      "RangeToInclusive": 7532,
      "supported": 7533,
      "primitives": 7534,
      "latest": 7535,
      "Ġcritical": 7536,
      "Collection": 7537,
      "ancellation": 7538,
      "LEGATECALL": 7539,
      "'));\\": 7540,
      "*,": 7541,
      "250": 7542,
      ";&": 7543,
      ">\\\",\\": 7544,
      ">],\\": 7545,
      "CU": 7546,
      "FS": 7547,
      "Field": 7548,
      "Job": 7549,
      "RAN": 7550,
      "Script": 7551,
      "`\\\")]\\": 7552,
      "flag": 7553,
      "nD": 7554,
      "nare": 7555,
      "punctuation": 7556,
      "tmemorySize": 7557,
      "win": 7558,
      "xFF": 7559,
      "ycle": 7560,
      "yond": 7561,
      "inBox": 7562,
      "erlin": 7563,
      "erator": 7564,
      "Ġauction": 7565,
      "hex": 7566,
      "separ": 7567,
      "Ġfp": 7568,
      "Ġfunds": 7569,
      "alt": 7570,
      "alth": 7571,
      "ency": 7572,
      "Ġblob": 7573,
      "Ġmet": 7574,
      "delete": 7575,
      "Ġremapping": 7576,
      "Ġeager": 7577,
      "ĠTasks": 7578,
      "!((\\\",": 7579,
      "approve": 7580,
      "Ġconvent": 7581,
      "Ġdur": 7582,
      "ĠAct": 7583,
      "ĠIR": 7584,
      "consum": 7585,
      "ĠCopied": 7586,
      "ĠFull": 7587,
      "ircum": 7588,
      "iving": 7589,
      "ĠMaybe": 7590,
      "Ġ|&": 7591,
      "Ġsoftware": 7592,
      "inspect": 7593,
      "!(\\\"`": 7594,
      "Ġproje": 7595,
      "ances": 7596,
      "osals": 7597,
      ">>,": 7598,
      "))`": 7599,
      "angle": 7600,
      "isting": 7601,
      ">`,\\": 7602,
      "ĠHas": 7603,
      "nfunction": 7604,
      "sug": 7605,
      "Ġvalidation": 7606,
      "Ġvalidate": 7607,
      "lessly": 7608,
      "Ġgetting": 7609,
      "Ġ)*\\": 7610,
      "STRU": 7611,
      "presentation": 7612,
      "Ġbackward": 7613,
      "ICUL": 7614,
      "ToUninit": 7615,
      "transaction": 7616,
      ")`,\\": 7617,
      "Ġwraps": 7618,
      "signum": 7619,
      "macros": 7620,
      "ĠChange": 7621,
      "ĠRevert": 7622,
      "Ġproviding": 7623,
      "SIGN": 7624,
      "helper": 7625,
      "Ġ../../../": 7626,
      "Shot": 7627,
      "Ġshifted": 7628,
      "Ġclamp": 7629,
      "Ġimplied": 7630,
      "aaaa": 7631,
      "ceeded": 7632,
      "ĠSpecifically": 7633,
      "Ġevaluates": 7634,
      "Ġinterfaces": 7635,
      "euclidean": 7636,
      "discriminant": 7637,
      "Ġsequences": 7638,
      "Ġidentity": 7639,
      "Ġsemantically": 7640,
      "Ġtuples": 7641,
      "Ġzip": 7642,
      "Ġviolate": 7643,
      "octdigit": 7644,
      "Ġconfiguration": 7645,
      "ĠValid": 7646,
      "Ġaccepts": 7647,
      "Quick": 7648,
      "Returns": 7649,
      "Ġbehave": 7650,
      "Ġsolc": 7651,
      "ĠOnceCell": 7652,
      "Ġquicksort": 7653,
      "ĠIdx": 7654,
      "quencer": 7655,
      "53020": 7656,
      "Immut": 7657,
      "riftsort": 7658,
      "couraged": 7659,
      "Ġintroduced": 7660,
      "Ġdistribut": 7661,
      "Ġchosen": 7662,
      "Ġadjacent": 7663,
      "'d": 7664,
      "<(&'": 7665,
      "AK": 7666,
      "Cpex": 7667,
      "Digit": 7668,
      "File": 7669,
      "MP": 7670,
      "Mode": 7671,
      "Vector": 7672,
      "VTable": 7673,
      "Yield": 7674,
      "cached": 7675,
      "events": 7676,
      "func": 7677,
      "ho": 7678,
      "jc": 7679,
      "kes": 7680,
      "lish": 7681,
      "nF": 7682,
      "ned": 7683,
      "tent": 7684,
      "uff": 7685,
      "xy": 7686,
      "/////\\": 7687,
      "intr": 7688,
      "increment": 7689,
      "release": 7690,
      "atches": 7691,
      "hexd": 7692,
      "orig": 7693,
      "Ġsur": 7694,
      "Ġpract": 7695,
      "Ġpacked": 7696,
      "omaly": 7697,
      "Ġreach": 7698,
      "Ġreborrow": 7699,
      "Ġrelevant": 7700,
      "iche": 7701,
      "ĠTime": 7702,
      "inters": 7703,
      "liminator": 7704,
      "Ġstyle": 7705,
      "Ġbeyond": 7706,
      "ĠIAccessManager": 7707,
      "consensus": 7708,
      "Ġunto": 7709,
      "ĠClient": 7710,
      "/////////////\\": 7711,
      "326": 7712,
      "Ġdepth": 7713,
      "ĠProposal": 7714,
      "ĠPassing": 7715,
      "Ġcanonical": 7716,
      "Ġ``-": 7717,
      "ialized": 7718,
      "Ġlt": 7719,
      "Ġseen": 7720,
      "Ġsecurity": 7721,
      "executed": 7722,
      "Ġchanging": 7723,
      "documentation": 7724,
      "ightly": 7725,
      "best": 7726,
      "behavior": 7727,
      "Ġ666": 7728,
      "ĠAllow": 7729,
      "Ġprice": 7730,
      "Ġguide": 7731,
      "agic": 7732,
      "progress": 7733,
      "ovable": 7734,
      "offsets": 7735,
      "FromCell": 7736,
      "Ġcomplic": 7737,
      "Ġ`&[": 7738,
      "Ġbitor": 7739,
      "7578": 7740,
      "Ġinspect": 7741,
      "ictable": 7742,
      "========================": 7743,
      "Ġ1252": 7744,
      "ĠShl": 7745,
      "ListImpl": 7746,
      "ĠRepeat": 7747,
      "ĠAsMut": 7748,
      "Ġregister": 7749,
      "OnceCell": 7750,
      "Ġ^=": 7751,
      "PLAC": 7752,
      "Ġmodes": 7753,
      "Ġdescribe": 7754,
      "Ġinstances": 7755,
      "--------------": 7756,
      "Ġrelated": 7757,
      "AccessControlUpgradeable": 7758,
      "ĠroleId": 7759,
      "Ġtags": 7760,
      "Ġignoring": 7761,
      "Ġsatisfies": 7762,
      "Ġ4291": 7763,
      "Ġcomplexity": 7764,
      "pairs": 7765,
      "._\\": 7766,
      "ormantMut": 7767,
      "âĶĢâĶĢâĶĢâĶ¬": 7768,
      "âĶĢâĶĢâĶĢâĶ´": 7769,
      "Provider": 7770,
      "/////////////////////////////////////////////////////////////////////////////\\": 7771,
      "Ġattack": 7772,
      "Ġattached": 7773,
      "PausableUpgradeable": 7774,
      "Ġpayment": 7775,
      "Limit": 7776,
      "Ġâī¤": 7777,
      "graphic": 7778,
      "avaScript": 7779,
      "hexdigit": 7780,
      "intersperse": 7781,
      "Ġuntouched": 7782,
      "!()": 7783,
      ")]`": 7784,
      ".__": 7785,
      "4844": 7786,
      "Auto": 7787,
      "Dests": 7788,
      "Gadget": 7789,
      "IX": 7790,
      "Mary": 7791,
      "OF": 7792,
      "PS": 7793,
      "Su": 7794,
      "Slot": 7795,
      "UUPSUpgradeable": 7796,
      "Version": 7797,
      "Windows": 7798,
      "[:": 7799,
      "den": 7800,
      "ks": 7801,
      "nP": 7802,
      "nas": 7803,
      "nWe": 7804,
      "nNo": 7805,
      "rx": 7806,
      "scalar": 7807,
      "when": 7808,
      "xE": 7809,
      "ĠðŁĴ©": 7810,
      "stra": 7811,
      "Ġcour": 7812,
      "Ġscheduler": 7813,
      "());\\\")]\\": 7814,
      "Ġindicate": 7815,
      "mpt": 7816,
      "Ġlex": 7817,
      "Ġ//////////////////////////////////////////////////////////////////": 7818,
      "Ġthrow": 7819,
      "ulated": 7820,
      "``).\\": 7821,
      "Ġstay": 7822,
      "oted": 7823,
      "Ġconsecutive": 7824,
      "Ġ&**": 7825,
      "Ġunnecessary": 7826,
      "ĠCase": 7827,
      "rustfmt": 7828,
      "ĠOper": 7829,
      "umn": 7830,
      "Ġnotation": 7831,
      "Ġdesigned": 7832,
      "ĠPhantom": 7833,
      "Ġ35": 7834,
      "thon": 7835,
      "Ġprevents": 7836,
      "Ġshows": 7837,
      "Ġproduct": 7838,
      "errors": 7839,
      "::<&": 7840,
      "eeee": 7841,
      "ĠInitial": 7842,
      "Ġ688": 7843,
      "Ġmodifiers": 7844,
      "!($($": 7845,
      "ErrorKind": 7846,
      "Ġ73": 7847,
      "âĶĤ": 7848,
      "coder": 7849,
      "lobally": 7850,
      "908": 7851,
      "Ġinitially": 7852,
      "nThere": 7853,
      "345": 7854,
      "Ġblockchain": 7855,
      "ĠJump": 7856,
      "Ġcalc": 7857,
      "transpose": 7858,
      "branch": 7859,
      "240": 7860,
      "ByteString": 7861,
      "============================": 7862,
      "TypeProperties": 7863,
      "AccessManaged": 7864,
      "specific": 7865,
      "bitor": 7866,
      "what": 7867,
      "issing": 7868,
      "calcul": 7869,
      "{})": 7870,
      "Ġconsiders": 7871,
      "CallEIP": 7872,
      "ĠToken": 7873,
      "Ġclones": 7874,
      "(...)": 7875,
      "lexity": 7876,
      "lexicograph": 7877,
      "ĠSearcher": 7878,
      "Ġenables": 7879,
      "Ġcomparisons": 7880,
      "functions": 7881,
      "elements": 7882,
      "ĠSplitInclusive": 7883,
      "ĠEncode": 7884,
      "ĠArgument": 7885,
      "xDC": 7886,
      "ĠTypeId": 7887,
      "good": 7888,
      "Ġcontexts": 7889,
      "-------------+\\": 7890,
      "ĠBitAnd": 7891,
      "Ġcosts": 7892,
      "ĠMyCollection": 7893,
      "Ġ\\\"`{": 7894,
      "ĠTransfer": 7895,
      "shifts": 7896,
      "ĠMaps": 7897,
      "Locked": 7898,
      "Ġrecommend": 7899,
      "Precompile": 7900,
      "Ġeasier": 7901,
      "Ġedges": 7902,
      "ĠOneShot": 7903,
      "Weighted": 7904,
      "Ġrestriction": 7905,
      "Ġtreat": 7906,
      "ĠAssume": 7907,
      "ĠFormatted": 7908,
      "Ġexplan": 7909,
      "Ġattempt": 7910,
      "breaking": 7911,
      "EnumerableStorage": 7912,
      "implif": 7913,
      "seconds": 7914,
      "deterministically": 7915,
      "Ġbeneficiary": 7916,
      "ocolHash": 7917,
      "ĠChunksExact": 7918,
      "POWER": 7919,
      "LOCK": 7920,
      "77397739": 7921,
      "OutOfGas": 7922,
      "Ġhope": 7923,
      "hematical": 7924,
      "Ġnetwork": 7925,
      "PLACEMENT": 7926,
      "Ġcourse": 7927,
      "Ġ//////////////////////////////////////////////////////////////////////": 7928,
      "',\\": 7929,
      "(()),\\": 7930,
      "(()));\\": 7931,
      ")`]": 7932,
      ")`.": 7933,
      "Action": 7934,
      "Com": 7935,
      "Dep": 7936,
      "ET": 7937,
      "GAS": 7938,
      "Li": 7939,
      "Other": 7940,
      "SQRT": 7941,
      "Separator": 7942,
      "aign": 7943,
      "eping": 7944,
      "nsort": 7945,
      "pment": 7946,
      "pare": 7947,
      "pinning": 7948,
      "proposal": 7949,
      "rand": 7950,
      "same": 7951,
      "saka": 7952,
      "tcontract": 7953,
      "virtual": 7954,
      "ļł": 7955,
      "Ġtell": 7956,
      "rece": 7957,
      "Ġcross": 7958,
      "Ġ`!`": 7959,
      "unspecified": 7960,
      "ceResult": 7961,
      "Ġmload": 7962,
      "tras": 7963,
      "Ġreject": 7964,
      "Ġrecord": 7965,
      "ĠSmall": 7966,
      "ĠSplits": 7967,
      "ashes": 7968,
      "Ġvm": 7969,
      "Ġvote": 7970,
      "ĠAcqRel": 7971,
      "features": 7972,
      "Ġ*=": 7973,
      "Ġ&\\\"": 7974,
      "`]'": 7975,
      "ĠCurrently": 7976,
      "ĠField": 7977,
      "329": 7978,
      "Ġglobally": 7979,
      "Ġ}));\\": 7980,
      "Ġpublished": 7981,
      "setSigner": 7982,
      "ĠExperimental": 7983,
      "122": 7984,
      "Ġlate": 7985,
      "Ġlaz": 7986,
      "ĠMAY": 7987,
      "aster": 7988,
      "formatter": 7989,
      "Ġtries": 7990,
      "Unsafe": 7991,
      "itions": 7992,
      "ĠInvalid": 7993,
      "(\\\"\\\");\\": 7994,
      "Ġ653": 7995,
      "Ġanyway": 7996,
      "1469": 7997,
      "137": 7998,
      "137578": 7999,
      "assertions": 8000,
      "dedup": 8001,
      "Ġlengths": 8002,
      "nTo": 8003,
      "Ġ94": 8004,
      "Ġapprox": 8005,
      "Ġplain": 8006,
      "splitn": 8007,
      "Ġwasn": 8008,
      "($($": 8009,
      "Ġunderstand": 8010,
      "Options": 8011,
      "CodeHash": 8012,
      "CodeCopy": 8013,
      "ampaign": 8014,
      "OnDrop": 8015,
      "78563412": 8016,
      "Ġensured": 8017,
      "ĠNonZeroI": 8018,
      "ĠStore": 8019,
      "oking": 8020,
      "CharEq": 8021,
      "ĠAsciiChar": 8022,
      "Ġaccounts": 8023,
      "Ġâļł": 8024,
      "ĠPinCoerceUnsized": 8025,
      "Ġslots": 8026,
      "Ġspecialized": 8027,
      "ĠRemove": 8028,
      "ĠSplitN": 8029,
      "ĠBitXor": 8030,
      "ĠGeneric": 8031,
      "Ġleaked": 8032,
      "Ġsending": 8033,
      "Ġsatisfied": 8034,
      "!(&*": 8035,
      "ĠEscapeDefault": 8036,
      "predictable": 8037,
      "Ġpreserves": 8038,
      "Ġduplicate": 8039,
      "Ġinterpreted": 8040,
      "Ġsituation": 8041,
      "Ġcontrast": 8042,
      "Ġcausing": 8043,
      "specialization": 8044,
      "frac": 8045,
      "THRE": 8046,
      "Ġidea": 8047,
      "Ġoctets": 8048,
      "Ġindividual": 8049,
      "STATICCALL": 8050,
      "Ġbinaries": 8051,
      "ancellationToken": 8052,
      "Ġ/////////////////////////////////////////////////////////////////////////\\": 8053,
      "Ġlazily": 8054,
      ">),\\": 8055,
      "Boy": 8056,
      "Elem": 8057,
      "IMAL": 8058,
      "Min": 8059,
      "RAD": 8060,
      "Request": 8061,
      "ao": 8062,
      "circuit": 8063,
      "mount": 8064,
      "nvar": 8065,
      "ranges": 8066,
      "single": 8067,
      "wasm": 8068,
      "Ġ::": 8069,
      "Ġ())": 8070,
      "Ġai": 8071,
      "\\\":\\": 8072,
      "attemp": 8073,
      "Ġfar": 8074,
      "Ġfits": 8075,
      "Ġ`$": 8076,
      "::/": 8077,
      "Ġ{$": 8078,
      "Ġscan": 8079,
      "Ġbad": 8080,
      "ancing": 8081,
      "Ġ\\\"../../": 8082,
      "Ġpe": 8083,
      "Ġmention": 8084,
      "detail": 8085,
      "losing": 8086,
      "Ġreentrancy": 8087,
      "Ġtools": 8088,
      "Ġlegacy": 8089,
      "Ġeps": 8090,
      "Ġ(\\\",": 8091,
      "007": 8092,
      "ĠTest": 8093,
      "Ġvar": 8094,
      "Ġ[[": 8095,
      "Ġdat": 8096,
      "mutation": 8097,
      "Ġ150": 8098,
      "vector": 8099,
      "ĠRound": 8100,
      "ĠEnumer": 8101,
      "ĠFCU": 8102,
      "Ġhi": 8103,
      "Ġexhaust": 8104,
      "odBoy": 8105,
      "Ġrandom": 8106,
      "ĠBoolean": 8107,
      "setting": 8108,
      "Ġ_>::": 8109,
      "ĠVi": 8110,
      "1020": 8111,
      "Ġsecs": 8112,
      "three": 8113,
      "extras": 8114,
      "arest": 8115,
      "Ġlie": 8116,
      "Ġenforce": 8117,
      "Ġengine": 8118,
      "wrapper": 8119,
      "Content": 8120,
      "resolve": 8121,
      "refcell": 8122,
      "ĠAlways": 8123,
      "Ġzeroes": 8124,
      "ATOR": 8125,
      "Ġinitializer": 8126,
      "158": 8127,
      "ORK": 8128,
      "AccessEvents": 8129,
      "Ġspare": 8130,
      "RangeBounds": 8131,
      "Ġreverted": 8132,
      "rague": 8133,
      "Select": 8134,
      "ĠStorage": 8135,
      "ĠReplace": 8136,
      "formatted": 8137,
      "Ġ\\\"./": 8138,
      "{},": 8139,
      "ĠAoxcConstants": 8140,
      "([(": 8141,
      "Ġpurely": 8142,
      "Ġsorting": 8143,
      "Ġemitted": 8144,
      "Ġinvalidated": 8145,
      "Ġtechn": 8146,
      "PayloadBuilder": 8147,
      "Ġexponentiation": 8148,
      "Ġhandled": 8149,
      "Ascii": 8150,
      "AYOUT": 8151,
      "Ġassignments": 8152,
      "ĠEnsure": 8153,
      "Ġidentifiers": 8154,
      "------------+\\": 8155,
      "********************************": 8156,
      "Ġmanip": 8157,
      "ĠValue": 8158,
      "Ġkinds": 8159,
      "udio": 8160,
      "needs": 8161,
      "10101010101010101010101010101010": 8162,
      "Ġnegation": 8163,
      "nYes": 8164,
      "Ġpotential": 8165,
      "ĠInterface": 8166,
      "Ġpreserved": 8167,
      "Ġapproved": 8168,
      "SignedT": 8169,
      "written": 8170,
      "ĠGoodBoy": 8171,
      "guarante": 8172,
      "LazyCell": 8173,
      "ĠHelper": 8174,
      "ĠLocalWaker": 8175,
      "Ġresponsible": 8176,
      "Ġexplained": 8177,
      "MultiExp": 8178,
      "ĠAttempts": 8179,
      "Ġdistributed": 8180,
      "receive": 8181,
      "Ġâļłï¸ı": 8182,
      "!();\\": 8183,
      "((),": 8184,
      "(()),": 8185,
      ")``.\\": 8186,
      ">&": 8187,
      ">],": 8188,
      ">())": 8189,
      "Cor": 8190,
      "DI": 8191,
      "Front": 8192,
      "LF": 8193,
      "LAYOUT": 8194,
      "OM": 8195,
      "]>`": 8196,
      "`).": 8197,
      "bat": 8198,
      "because": 8199,
      "cost": 8200,
      "just": 8201,
      "mm": 8202,
      "nfor": 8203,
      "pragma": 8204,
      "ring": 8205,
      "âģ": 8206,
      "Ġ!(": 8207,
      "inc": 8208,
      "record": 8209,
      "Ġfav": 8210,
      "union": 8211,
      "unsize": 8212,
      "Ġ{{": 8213,
      "Ġswitch": 8214,
      "Ġslight": 8215,
      "Ġodd": 8216,
      "Ġpie": 8217,
      "descend": 8218,
      "Ġrepr": 8219,
      "Ġreplay": 8220,
      "Ġrelies": 8221,
      "aba": 8222,
      "icked": 8223,
      "ablePrimitive": 8224,
      "aper": 8225,
      "Ġdb": 8226,
      "Ġdraw": 8227,
      "Ġdomain": 8228,
      "Ġ111": 8229,
      "Ġ159": 8230,
      "pection": 8231,
      "Ġ&=": 8232,
      "Ġ[`.": 8233,
      "ĠName": 8234,
      "ĠNatSpec": 8235,
      "Ġexit": 8236,
      "Ġnearest": 8237,
      "Ġonto": 8238,
      "ĠPH": 8239,
      "ĠPerson": 8240,
      "Ġarea": 8241,
      "iming": 8242,
      "aced": 8243,
      "ĠDue": 8244,
      "ĠMakes": 8245,
      "Ġcalldat": 8246,
      "Ġ39": 8247,
      "excluding": 8248,
      "Ġ57": 8249,
      "Ġothers": 8250,
      "previous": 8251,
      "ĠLower": 8252,
      "wrapped": 8253,
      "ĠĠĠĠĠĠĠĠĠĠĠĠĠĠĠĠĠĠĠĠ": 8254,
      "Mutex": 8255,
      "Ġsuit": 8256,
      "145": 8257,
      "ĠHandshake": 8258,
      "Ġexpose": 8259,
      "Ġdrops": 8260,
      "342": 8261,
      "7702": 8262,
      "unda": 8263,
      "undle": 8264,
      "FromIter": 8265,
      "Reason": 8266,
      "Ġapplic": 8267,
      "ĠSoftware": 8268,
      "ICE": 8269,
      "AoxcErrors": 8270,
      "Ġbitand": 8271,
      "superset": 8272,
      "Ġprintable": 8273,
      "Ġoffsets": 8274,
      "398": 8275,
      "Ġdiscriminant": 8276,
      "Ġvectors": 8277,
      "attribute": 8278,
      "splice": 8279,
      "sence": 8280,
      "ĠNonZeroU": 8281,
      "SHORT": 8282,
      "ĠChanges": 8283,
      "Ġpayloads": 8284,
      "Ġtemp": 8285,
      "Ġfinally": 8286,
      "Ġbuilders": 8287,
      "Argument": 8288,
      "ĠCalls": 8289,
      "ĠtotalSupply": 8290,
      "lta": 8291,
      "sources": 8292,
      "ĠDerefPure": 8293,
      ":?}\\\");\\": 8294,
      "TransferFrom": 8295,
      "Ġrequests": 8296,
      "Ġrelation": 8297,
      "Ġleaks": 8298,
      "layer": 8299,
      "()?.": 8300,
      "Ġassumed": 8301,
      "Ġsoundness": 8302,
      "ĠCalculate": 8303,
      "ORTANT": 8304,
      "118117": 8305,
      "ĠTries": 8306,
      "Capital": 8307,
      "SliceIndex": 8308,
      "Ġinterpret": 8309,
      "mainnet": 8310,
      "ĠCapital": 8311,
      "DATA": 8312,
      "cumulative": 8313,
      "Ġrepeatedly": 8314,
      "JumpTable": 8315,
      "Ġinlined": 8316,
      "Ġconsists": 8317,
      "Ġdereferencing": 8318,
      "ĠPeekMut": 8319,
      "ParseError": 8320,
      "Ġrecursively": 8321,
      "12345678901234567890": 8322,
      "constructors": 8323,
      "DoubleEndedIterator": 8324,
      "ambiguous": 8325,
      "delegatecall": 8326,
      "Escaped": 8327,
      "ĠNeverShortCircuit": 8328,
      "ilename": 8329,
      "MPORTANT": 8330,
      "Ġcomplicated": 8331,
      "AutoRepair": 8332,
      "ĠcalcMemSize": 8333,
      "details": 8334,
      "batim": 8335,
      ")}": 8336,
      ")\\\")]\\": 8337,
      ")];\\": 8338,
      "*.": 8339,
      "/*": 8340,
      "314": 8341,
      "Der": 8342,
      "Down": 8343,
      "EST": 8344,
      "Gener": 8345,
      "Nexus": 8346,
      "PAC": 8347,
      "RSA": 8348,
      "TABLE": 8349,
      "Way": 8350,
      "cions": 8351,
      "dl": 8352,
      "dapp": 8353,
      "ees": 8354,
      "fst": 8355,
      "fact": 8356,
      "flat": 8357,
      "gle": 8358,
      "lu": 8359,
      "mus": 8360,
      "nL": 8361,
      "prop": 8362,
      "pool": 8363,
      "pull": 8364,
      "public": 8365,
      "smt": 8366,
      "tom": 8367,
      "tty": 8368,
      "tfor": 8369,
      "ÃĹ": 8370,
      "ðĿ": 8371,
      "Ġ:\\": 8372,
      "ĠÏĢ": 8373,
      "isolate": 8374,
      "::$": 8375,
      "Ġsays": 8376,
      "Ġsift": 8377,
      "Ġpicked": 8378,
      "Ġreuse": 8379,
      "Ġtool": 8380,
      "Ġtouch": 8381,
      "Ġill": 8382,
      "ĠTree": 8383,
      "ured": 8384,
      "ulator": 8385,
      "lig": 8386,
      "Ġlets": 8387,
      "Ġletter": 8388,
      "ilon": 8389,
      "Ġdia": 8390,
      "igh": 8391,
      "ĠAuthor": 8392,
      "continue": 8393,
      "ateway": 8394,
      "(&(": 8395,
      "`]`": 8396,
      "ĠElement": 8397,
      "ĠFirst": 8398,
      "ĠFOR": 8399,
      "raft": 8400,
      "322": 8401,
      "opard": 8402,
      "odiff": 8403,
      "Ġdet": 8404,
      "ignum": 8405,
      "Ġ28": 8406,
      "Ġ``\\\\": 8407,
      "1189": 8408,
      "ĠExclusive": 8409,
      "Ġpointees": 8410,
      "ĠDef": 8411,
      "ĠVis": 8412,
      "raphe": 8413,
      "Ġlatter": 8414,
      "Ġ38": 8415,
      "ansion": 8416,
      "Ġiterating": 8417,
      "Ġweb": 8418,
      "Ġattributes": 8419,
      "Ġoverload": 8420,
      "ĠLen": 8421,
      "Ġenfor": 8422,
      "osit": 8423,
      ">>()": 8424,
      "ĠGreater": 8425,
      "Ġarchitecture": 8426,
      "Ġmetrics": 8427,
      "Ġspecifies": 8428,
      "pointers": 8429,
      "111111": 8430,
      "web": 8431,
      "Ġoutlive": 8432,
      "ĠCloneFromCell": 8433,
      "724": 8434,
      "removed": 8435,
      "Exceeded": 8436,
      "Ġgeneration": 8437,
      "handler": 8438,
      "Ġsubset": 8439,
      "AoxcEvents": 8440,
      "Ġ`&'": 8441,
      "246": 8442,
      "Ġamong": 8443,
      "duplic": 8444,
      "othing": 8445,
      "18598": 8446,
      "aterial": 8447,
      "--------------------------------------------+\\": 8448,
      "Ġsupply": 8449,
      "Ġ123": 8450,
      "OnGasChange": 8451,
      "spite": 8452,
      "549": 8453,
      "Ġmatter": 8454,
      "statically": 8455,
      "Ġoutputs": 8456,
      "ĠSizedTypeProperties": 8457,
      "ContextUpgradeable": 8458,
      "nAn": 8459,
      "identity": 8460,
      "Ġimports": 8461,
      "PayloadJob": 8462,
      "ĠDeferred": 8463,
      "encodeWith": 8464,
      "canonical": 8465,
      "builders": 8466,
      "ĠRefUnwindSafe": 8467,
      "Ġselected": 8468,
      "Ġdefinite": 8469,
      "ĠStepBy": 8470,
      "Ġvisibility": 8471,
      "TestCase": 8472,
      "Ġmanaged": 8473,
      "ĠPrimitive": 8474,
      "-----+--------------------------------------------+\\": 8475,
      "SourceIter": 8476,
      "Ġhardware": 8477,
      "Ġreports": 8478,
      "Destruct": 8479,
      "Ġtransmuting": 8480,
      "ĠOwnable": 8481,
      "missing": 8482,
      "MaxUint": 8483,
      "DECIMAL": 8484,
      "2008": 8485,
      "ĠZSTs": 8486,
      "Authorized": 8487,
      "Ġdisabled": 8488,
      "Ġcaptured": 8489,
      "Ġclosest": 8490,
      "JUMP": 8491,
      "onomous": 8492,
      "ipemd": 8493,
      "etermin": 8494,
      "mergency": 8495,
      "Ġdevelopment": 8496,
      "Ġdivisor": 8497,
      "bstractSigner": 8498,
      "ITHOUT": 8499,
      "ĠIntersectionInner": 8500,
      "98407": 8501,
      "oseconds": 8502,
      "consumed": 8503,
      "Ġâļłï¸ı\\": 8504,
      "118959": 8505,
      "+------------": 8506,
      "/#": 8507,
      ">`],": 8508,
      "Assert": 8509,
      "Bps": 8510,
      "CAPACITY": 8511,
      "Flash": 8512,
      "Feed": 8513,
      "Normal": 8514,
      "PAT": 8515,
      "Sided": 8516,
      "Ter": 8517,
      "]),\\": 8518,
      "]>,\\": 8519,
      "]</": 8520,
      "aim": 8521,
      "average": 8522,
      "col": 8523,
      "crit": 8524,
      "cstring": 8525,
      "half": 8526,
      "moved": 8527,
      "pdf": 8528,
      "tS": 8529,
      "xC": 8530,
      "ython": 8531,
      "âĿ¤": 8532,
      "inherent": 8533,
      "erg": 8534,
      "Ġarc": 8535,
      "stage": 8536,
      "Ġ///#": 8537,
      "lection": 8538,
      "alloy": 8539,
      "aload": 8540,
      "enses": 8541,
      "Ġ{{\\": 8542,
      "Ġbatch": 8543,
      "Ġ\\\"#": 8544,
      "Ġ\\\"\\\",": 8545,
      "Ġmagic": 8546,
      "Ġwants": 8547,
      "Ġindependent": 8548,
      "selfdestruct": 8549,
      "Ġrelied": 8550,
      "ĠSwap": 8551,
      "ĠAut": 8552,
      "adow": 8553,
      "Ġbelong": 8554,
      "Ġ146": 8555,
      "Ġunimplemented": 8556,
      "ĠEven": 8557,
      "dere": 8558,
      "\\\\\\\"": 8559,
      "Ġorig": 8560,
      "Ġ``[": 8561,
      "**.\\": 8562,
      "ressions": 8563,
      "http": 8564,
      "125": 8565,
      "ĠMost": 8566,
      "Static": 8567,
      "execution": 8568,
      "Ġ51": 8569,
      "Ġcomplement": 8570,
      "npackage": 8571,
      "Ġshown": 8572,
      "Ġallocating": 8573,
      "backtrace": 8574,
      "1442": 8575,
      "unkBy": 8576,
      "yped": 8577,
      "Ġ101": 8578,
      "olled": 8579,
      "members": 8580,
      "Ġcontainer": 8581,
      "licenses": 8582,
      "Ġroom": 8583,
      "subset": 8584,
      "commit": 8585,
      "ĠJavaScript": 8586,
      "Ġcounting": 8587,
      "791": 8588,
      "pends": 8589,
      "843": 8590,
      "Ġsplice": 8591,
      "3956": 8592,
      "Ġlists": 8593,
      "Ġ127": 8594,
      "Ġlocated": 8595,
      "bitwise": 8596,
      "Ġadapter": 8597,
      "ĠRev": 8598,
      "Ġmathematical": 8599,
      "peeked": 8600,
      "ARAC": 8601,
      "Web": 8602,
      "terminator": 8603,
      "463": 8604,
      "[..]);\\": 8605,
      "Ġclause": 8606,
      "Ġcaused": 8607,
      "ĠâĨ": 8608,
      "Ġforwards": 8609,
      "Ġforwarding": 8610,
      "Ġimply": 8611,
      "Ġcasts": 8612,
      "ĠCaller": 8613,
      "Ġhandshake": 8614,
      "Ġinvoking": 8615,
      "dispatch": 8616,
      "TryReserveError": 8617,
      "Ġkeeps": 8618,
      "istribute": 8619,
      "totalSupply": 8620,
      "Ġscop": 8621,
      "Ġrespective": 8622,
      "Ġtagged": 8623,
      "nbut": 8624,
      "Quarant": 8625,
      "ĠEscapeDebug": 8626,
      "Ġcombination": 8627,
      "ĠSetValZST": 8628,
      "Ġokay": 8629,
      "Ġtreated": 8630,
      "AccessManagerStorage": 8631,
      "ĠLocation": 8632,
      "ffffffffffffffff": 8633,
      "Ġwrong": 8634,
      "ĠReads": 8635,
      "]<[&": 8636,
      "Ġlocked": 8637,
      "Ġrecovered": 8638,
      "underlying": 8639,
      "Ġinlining": 8640,
      "lippy": 8641,
      "ĠOverr": 8642,
      "Ġdereferenced": 8643,
      "Ġfactorization": 8644,
      "Record": 8645,
      "ĠAdvance": 8646,
      "ĠCHUNK": 8647,
      "ĠLOG": 8648,
      "oisoned": 8649,
      "iculty": 8650,
      "Ġresources": 8651,
      "sufficientBalance": 8652,
      "Burnable": 8653,
      "Ġforeign": 8654,
      "ĠMultiCharEq": 8655,
      "ĠBuffer": 8656,
      "ALIGN": 8657,
      "ĠFullDecoded": 8658,
      "Selector": 8659,
      "Ġdetailed": 8660,
      "SidedRange": 8661,
      "ARACTER": 8662,
      ")\\\");\\": 8663,
      "/>`_\\": 8664,
      "/>.\\": 8665,
      "10000": 8666,
      ":#": 8667,
      "<<": 8668,
      ">``": 8669,
      "LITY": 8670,
      "UTF": 8671,
      "Vacant": 8672,
      "Variant": 8673,
      "]);": 8674,
      "_.\\": 8675,
      "cache": 8676,
      "gpl": 8677,
      "gadget": 8678,
      "ians": 8679,
      "nit": 8680,
      "ninterface": 8681,
      "ri": 8682,
      "rfind": 8683,
      "sig": 8684,
      "slow": 8685,
      "yclic": 8686,
      "};\\\")]\\": 8687,
      "}(\\\"\\\");\\": 8688,
      "infinite": 8689,
      "inople": 8690,
      "resize": 8691,
      "reject": 8692,
      "reversed": 8693,
      "ster": 8694,
      "stability": 8695,
      "\\\";": 8696,
      "Ġfut": 8697,
      "Ġcome": 8698,
      "unpredictable": 8699,
      "Ġsync": 8700,
      "Ġsizes": 8701,
      "Ġpool": 8702,
      "Ġmind": 8703,
      "arith": 8704,
      "().\\": 8705,
      "())`": 8706,
      "Ġwarr": 8707,
      "trivial": 8708,
      "Ġear": 8709,
      "Ġeip": 8710,
      "005": 8711,
      "asize": 8712,
      "asset": 8713,
      "Ġ[(": 8714,
      "ottom": 8715,
      "ĠArrays": 8716,
      "ately": 8717,
      "Ġunp": 8718,
      "ĠRoot": 8719,
      "ĠEuc": 8720,
      "ators": 8721,
      "ĠNumber": 8722,
      "Ġgadget": 8723,
      "Ġstrip": 8724,
      "ĠPart": 8725,
      "Ġ``(": 8726,
      "Ġaren": 8727,
      "getAccessManagerStorage": 8728,
      "ĠExplicit": 8729,
      "###\\": 8730,
      "ĠDon": 8731,
      "ĠDetermin": 8732,
      "ivially": 8733,
      "ĠMe": 8734,
      "Ġtrivially": 8735,
      "Ġ|_|": 8736,
      "ipnsort": 8737,
      "IterMut": 8738,
      "Ġcompiled": 8739,
      "ifying": 8740,
      "ĠnewOwner": 8741,
      "cessor": 8742,
      "Ġshortest": 8743,
      "ĠLeft": 8744,
      "Ġoperate": 8745,
      "ospection": 8746,
      "hence": 8747,
      "cide": 8748,
      "anger": 8749,
      "anguage": 8750,
      "resh": 8751,
      "keyword": 8752,
      "143956": 8753,
      "Ġremoving": 8754,
      "Ġexpir": 8755,
      "Ġsignific": 8756,
      "calldata": 8757,
      "comput": 8758,
      "Ġaccur": 8759,
      "validate": 8760,
      "Ġ)+": 8761,
      "StorageRead": 8762,
      "Ġwouldn": 8763,
      "Executed": 8764,
      "drops": 8765,
      "797": 8766,
      "Ġbitxor": 8767,
      "AccessList": 8768,
      "Ġobser": 8769,
      "Ġexecuting": 8770,
      "uninitialized": 8771,
      "Ġmostly": 8772,
      "HashMap": 8773,
      "ĠFromStr": 8774,
      "Ġdivided": 8775,
      "Ġhashing": 8776,
      "Ġperforming": 8777,
      "Ġclosures": 8778,
      "ĠCopyright": 8779,
      "Ġorderings": 8780,
      "latMap": 8781,
      "Ġclass": 8782,
      "ĠThinBox": 8783,
      "AdminDelay": 8784,
      "Member": 8785,
      "Ġdeclare": 8786,
      "OpHardfork": 8787,
      "Ownership": 8788,
      "tempor": 8789,
      "Ġspecification": 8790,
      "IsEIP": 8791,
      "ĠArgs": 8792,
      "Ġfrac": 8793,
      "ĠPrior": 8794,
      "KeyError": 8795,
      "Ġfilesystem": 8796,
      "CHUNK": 8797,
      "00000000000000000000000000000000000000000000000000000000000000": 8798,
      "deadline": 8799,
      "Complexity": 8800,
      "ĠDivides": 8801,
      "authorized": 8802,
      "ĠâĢĶ": 8803,
      "ĠBuilderTransactionError": 8804,
      "Ġ`+`": 8805,
      "ABILITY": 8806,
      "Ġdereferenceable": 8807,
      "Disjoint": 8808,
      "simd": 8809,
      "armStorageRead": 8810,
      "Ġadjust": 8811,
      "Permit": 8812,
      "deterministic": 8813,
      "eggpl": 8814,
      "xBF": 8815,
      "okeRole": 8816,
      "ĠFreeze": 8817,
      "benchmark": 8818,
      "Ġauthorized": 8819,
      "ĠUnsafePinned": 8820,
      "ĠAccessManagerStorage": 8821,
      "transmutability": 8822,
      "orderedKeyError": 8823,
      "'..='": 8824,
      "Ġconcatenation": 8825,
      "Ġpreferable": 8826,
      "ĠSimilarly": 8827,
      "ĠFoundation": 8828,
      "Ġredistribute": 8829,
      "Ġbroken": 8830,
      "Ġconstraints": 8831,
      "ReentrancyGuardUpgradeable": 8832,
      "ĠLazyLeafRange": 8833,
      "Ġrendered": 8834,
      ".${": 8835,
      "TIME": 8836,
      "ĠDifferenceInner": 8837,
      "QuickStep": 8838,
      "ormantMutRef": 8839,
      "âĶĢâĶĢâĶĢâĶ¬âĶĢâĶĢâĶĢâĶ¬": 8840,
      "âĶĢâĶĢâĶĢâĶ´âĶĢâĶĢâĶĢâĶ´": 8841,
      "Ġexplanation": 8842,
      "UnsafePinned": 8843,
      "146939": 8844,
      "settings": 8845,
      "Ġslightly": 8846,
      "ĠLength": 8847,
      "PATH": 8848,
      "armStorageReadCostEIP": 8849,
      "eggplant": 8850,
      "855": 8851,
      "?;\\": 8852,
      "Book": 8853,
      "Dying": 8854,
      "IAN": 8855,
      "Next": 8856,
      "NulError": 8857,
      "OLD": 8858,
      "Power": 8859,
      "RA": 8860,
      "Rw": 8861,
      "SICAL": 8862,
      "Tuple": 8863,
      "UFixed": 8864,
      "XX": 8865,
      "YSICAL": 8866,
      "[&": 8867,
      "`\\\"": 8868,
      "aque": 8869,
      "come": 8870,
      "gates": 8871,
      "nM": 8872,
      "nre": 8873,
      "oval": 8874,
      "prom": 8875,
      "tCALL": 8876,
      "uce": 8877,
      "xfe": 8878,
      "|\\": 8879,
      "Ġge": 8880,
      "Ġhence": 8881,
      "include": 8882,
      "erequ": 8883,
      "Ġaction": 8884,
      "onomic": 8885,
      "standard": 8886,
      "\\\"]": 8887,
      "hether": 8888,
      "sealed": 8889,
      "Ġflash": 8890,
      "Ġcaveat": 8891,
      "also": 8892,
      "Ġ\\\"*": 8893,
      "Ġpipe": 8894,
      "Ġmon": 8895,
      "Ġmissing": 8896,
      "arrow": 8897,
      "arguments": 8898,
      "decl": 8899,
      "ĠSum": 8900,
      "Ġ(-": 8901,
      "Ġ([": 8902,
      "Ġ(_": 8903,
      "006": 8904,
      "ĠTests": 8905,
      "limin": 8906,
      "enter": 8907,
      "roll": 8908,
      "Ġdirection": 8909,
      "admin": 8910,
      "ĠInt": 8911,
      "ĠIMPORTANT": 8912,
      "changes": 8913,
      "ĠFIT": 8914,
      "atory": 8915,
      "..];\\": 8916,
      "32463": 8917,
      "Ġgt": 8918,
      "opcode": 8919,
      "Ġdespite": 8920,
      "Ġdecide": 8921,
      "ĠPool": 8922,
      "ĠPUR": 8923,
      "ĠPART": 8924,
      "Ġring": 8925,
      "ĠBreak": 8926,
      "Ġmutated": 8927,
      "---------|": 8928,
      "anty": 8929,
      "immutable": 8930,
      "iring": 8931,
      "ĠDep": 8932,
      "ĠVer": 8933,
      "ĠUSIZE": 8934,
      "ĠUFixed": 8935,
      "129": 8936,
      "ĠMatch": 8937,
      "ĠMERC": 8938,
      "thin": 8939,
      "ĠWrap": 8940,
      "ĠWake": 8941,
      "ĠWITHOUT": 8942,
      "Ġ500": 8943,
      "NTABILITY": 8944,
      "precise": 8945,
      "Under": 8946,
      "Ġcodepoints": 8947,
      ">>(),": 8948,
      "ĠGiven": 8949,
      "Ġmodulo": 8950,
      "Ġ71": 8951,
      "sha": 8952,
      "::{\\\",": 8953,
      "agged": 8954,
      "REATE": 8955,
      "RETURN": 8956,
      "provide": 8957,
      "Ġroy": 8958,
      "Ġ99": 8959,
      "ĠNonces": 8960,
      "\\\":\\\"": 8961,
      "Reentrant": 8962,
      "Ġworry": 8963,
      "ExactSizeIterator": 8964,
      "Ġplaced": 8965,
      "Ġsubnormal": 8966,
      "Ġgiving": 8967,
      "ĠStrSearcher": 8968,
      "754": 8969,
      "($.": 8970,
      "Ġprinted": 8971,
      "************": 8972,
      "tingOptions": 8973,
      "Ġatomically": 8974,
      "span": 8975,
      "spare": 8976,
      "Ġknows": 8977,
      "ragon": 8978,
      "ĠShifts": 8979,
      "SHOLD": 8980,
      "peekable": 8981,
      "`][`": 8982,
      "CallCode": 8983,
      "Ġqual": 8984,
      "PayloadBuilderError": 8985,
      "inks": 8986,
      "leanup": 8987,
      "Ġpositions": 8988,
      "SafeAdd": 8989,
[...]
